<unk>	0
<s>	0
</s>	0
.	-2.59735
▁Ein	-3.32043
▁einem	-3.34144
▁in	-3.48247
,	-3.76786
▁und	-3.76934
▁mit	-3.77771
▁auf	-3.78279
▁Mann	-3.90208
▁einer	-4.05071
▁Eine	-4.17963
▁ein	-4.33997
▁der	-4.45159
▁Frau	-4.52351
▁eine	-4.57167
▁die	-4.67381
▁einen	-4.72002
▁Zwei	-4.79754
▁an	-4.80755
▁im	-4.83291
▁	-4.98774
-	-5.04634
▁von	-5.09862
▁sich	-5.13351
▁Mädchen	-5.19767
▁dem	-5.20009
▁zu	-5.28235
▁vor	-5.28699
▁steht	-5.38258
▁Männer	-5.44269
▁sitzt	-5.47376
▁Hund	-5.47728
▁Junge	-5.50009
▁den	-5.5004
s	-5.53705
n	-5.5963
▁Straße	-5.60862
▁während	-5.63156
▁Gruppe	-5.66913
▁hält	-5.68796
▁spielt	-5.6887
▁Hemd	-5.77178
▁über	-5.80774
en	-5.80996
▁Personen	-5.81565
▁das	-5.85533
▁eines	-5.9296
▁blauen	-5.96803
▁Frauen	-5.96895
▁ist	-5.99561
▁neben	-6.00069
▁Kind	-6.00196
▁aus	-6.00746
▁roten	-6.01025
▁weißen	-6.01084
▁Menschen	-6.02223
▁stehen	-6.03435
▁durch	-6.03958
▁am	-6.05913
▁sitzen	-6.06573
▁spielen	-6.07225
▁Drei	-6.075
▁Wasser	-6.10415
▁geht	-6.11342
▁bei	-6.11387
▁trägt	-6.12265
▁fährt	-6.13938
▁um	-6.1557
▁Kinder	-6.1649
▁Person	-6.22783
e	-6.23597
▁kleines	-6.24336
▁macht	-6.24936
▁springt	-6.27243
▁entlang	-6.30002
▁zwei	-6.30828
▁schwarzen	-6.31818
▁kleiner	-6.32811
▁Leute	-6.37702
▁gehen	-6.46035
▁etwas	-6.49709
▁seinem	-6.50776
▁großen	-6.53169
▁Oberteil	-6.54342
▁Hand	-6.56036
▁Fahrrad	-6.63577
▁grünen	-6.64575
▁junge	-6.64771
▁Mehrere	-6.64849
er	-6.66665
▁läuft	-6.66676
▁sind	-6.67271
r	-6.67428
▁Der	-6.67485
▁Strand	-6.67681
▁für	-6.69127
▁Hintergrund	-6.69129
▁Ball	-6.69719
▁Luft	-6.71016
▁Jungen	-6.71193
▁Jacke	-6.71721
▁T	-6.72023
▁Freien	-6.72302
▁hat	-6.72546
▁anderen	-6.73709
▁schaut	-6.7383
▁Kleidung	-6.75161
▁hinter	-6.77359
▁junger	-6.77507
▁nach	-6.79167
▁andere	-6.83922
▁Tisch	-6.84146
▁gelben	-6.85507
▁Gebäude	-6.8633
▁Hut	-6.88617
▁sie	-6.90636
▁Nähe	-6.90897
▁wird	-6.90897
▁kleine	-6.91781
Shirt	-6.91903
▁Schnee	-6.91915
▁hoch	-6.92439
▁beim	-6.93116
▁Kamera	-6.93381
▁kleinen	-6.94163
▁Hunde	-6.94688
▁Menschenmenge	-6.94855
▁vorbei	-6.94865
▁Gras	-6.95122
▁schwarzer	-6.96163
▁Boden	-6.98417
▁Die	-7.02578
▁unter	-7.03671
▁rennt	-7.04157
▁ihre	-7.04259
▁schwarz	-7.05519
▁Vier	-7.06548
▁ihren	-7.10278
▁Kleid	-7.11669
▁zusammen	-7.13349
t	-7.13488
▁Gitarre	-7.14006
▁Feld	-7.16086
▁herum	-7.18086
▁älterer	-7.18517
▁Bühne	-7.19109
▁sein	-7.1911
▁er	-7.19137
▁ihr	-7.20146
▁Kopf	-7.21529
▁draußen	-7.21536
▁Stadt	-7.21884
▁fahren	-7.22644
▁Brille	-7.22925
▁Gehweg	-7.22953
▁Foto	-7.23273
▁seine	-7.23641
▁sehen	-7.25509
▁Park	-7.26217
▁hinunter	-7.27694
▁dabei	-7.27698
▁Jeans	-7.28065
▁blickt	-7.28456
▁des	-7.2887
▁seinen	-7.29163
▁braunen	-7.32146
▁weißer	-7.32332
▁liegt	-7.33083
▁versucht	-7.33469
▁Baby	-7.34252
▁arbeitet	-7.34664
▁Bank	-7.35874
▁tragen	-7.36699
▁als	-7.38338
▁laufen	-7.38662
▁Paar	-7.38974
▁wie	-7.39158
▁Dame	-7.39223
▁Skateboard	-7.40019
▁Essen	-7.40043
▁machen	-7.40864
▁schauen	-7.40875
▁lächelt	-7.41292
▁große	-7.42071
▁brauner	-7.43189
▁ihrem	-7.44445
▁orangefarbenen	-7.46167
▁ihm	-7.46567
▁Bürgersteig	-7.4702
▁ältere	-7.47959
m	-7.48206
▁Hose	-7.49411
▁junges	-7.49763
▁zeigt	-7.50254
▁arbeiten	-7.50688
▁sieht	-7.51187
▁spricht	-7.51661
▁unterhalten	-7.51666
▁liest	-7.52137
es	-7.52141
▁Wand	-7.52951
▁Fußball	-7.53497
▁halten	-7.53922
▁blau	-7.54322
▁Haaren	-7.55362
▁drei	-7.57027
▁rot	-7.57297
▁Pferd	-7.58505
▁Boot	-7.58593
▁Sonnenbrille	-7.59191
▁rosa	-7.60114
▁zum	-7.60138
▁Auto	-7.60208
▁Hosen	-7.60501
▁gekleidete	-7.60841
▁Tag	-7.62155
▁seiner	-7.6255
▁Helm	-7.64344
▁weißem	-7.65524
▁grauen	-7.66053
▁singt	-7.66484
▁Bild	-7.66841
▁Gesicht	-7.67024
▁ihnen	-7.67755
▁blauem	-7.68228
▁„	-7.68713
▁Felsen	-7.68879
▁Mantel	-7.69278
▁Sand	-7.70404
▁posiert	-7.70992
▁darauf	-7.7157
▁Baum	-7.71674
▁ab	-7.72331
▁klettert	-7.72771
▁führt	-7.73324
▁Shorts	-7.73344
▁befindet	-7.73916
▁Mikrofon	-7.76399
▁weiß	-7.76477
▁Wald	-7.76859
▁Band	-7.76961
▁wirft	-7.78795
▁schwarzem	-7.78873
▁blauer	-7.79002
▁Weg	-7.80034
▁Das	-7.80093
▁gekleideter	-7.80258
l	-7.8043
▁sehr	-7.80667
▁Restaurant	-7.80913
▁Motorrad	-7.81295
▁rennen	-7.81373
▁Fenster	-7.81559
▁Meer	-7.81883
▁Raum	-7.82591
▁Spielzeug	-7.8319
▁Arbeiter	-7.83562
▁oder	-7.84551
▁rotem	-7.84611
▁isst	-7.85213
▁Anzug	-7.85882
▁Haar	-7.86058
▁Pullover	-7.86164
▁Wiese	-7.86551
▁anderer	-7.86901
▁wartet	-7.87907
▁langen	-7.87951
▁roter	-7.88188
▁essen	-7.88343
▁Kindern	-7.8864
▁schwarze	-7.88793
in	-7.88968
▁Bluse	-7.89282
▁Männern	-7.90069
▁weiße	-7.90113
▁posieren	-7.90675
▁gestreiften	-7.91428
▁werden	-7.92072
▁Berg	-7.92242
▁Oberkörper	-7.92803
▁Trikot	-7.9316
▁Stuhl	-7.9425
▁springen	-7.94289
▁Hügel	-7.94977
▁voller	-7.95017
▁Fünf	-7.95712
▁Viele	-7.95712
▁bereitet	-7.95719
▁Spieler	-7.9604
▁Schild	-7.96407
▁Spiel	-7.96856
▁Buch	-7.97966
▁betrachtet	-7.98709
▁zwischen	-8.00241
▁Handy	-8.00668
▁blonde	-8.00854
▁warten	-8.00998
▁tanzen	-8.01811
▁schläft	-8.02585
▁Blumen	-8.02639
▁Stock	-8.03379
▁zieht	-8.03404
▁oben	-8.04243
▁S	-8.04418
▁Holz	-8.04486
▁Leuten	-8.04515
▁Mütze	-8.04605
▁Bauarbeiter	-8.04917
▁Arm	-8.05312
▁Fluss	-8.05741
▁reitet	-8.05798
▁lehnt	-8.05802
“	-8.06652
▁Händen	-8.06888
▁Kleinkind	-8.07152
▁U	-8.07382
▁beobachtet	-8.07445
▁alter	-8.07604
▁Rennen	-8.07918
▁Maul	-8.08272
▁miteinander	-8.08592
▁ge	-8.09066
▁Rucksack	-8.09118
▁Bäumen	-8.09229
▁tanzt	-8.09966
▁paar	-8.09986
▁es	-8.10372
▁ihrer	-8.115
▁Küche	-8.13408
▁Radfahrer	-8.13894
▁See	-8.13916
▁Football	-8.14236
▁befinden	-8.14314
▁vom	-8.14314
▁schiebt	-8.14319
▁braun	-8.14542
▁haben	-8.15225
▁Schwimmbecken	-8.16124
f	-8.16591
▁gegen	-8.17022
▁Seite	-8.18485
▁Zaun	-8.1938
▁Welle	-8.19425
▁kurzen	-8.19963
weißer	-8.20059
▁Treppe	-8.20358
▁Rücken	-8.20741
k	-8.20771
h	-8.21739
▁lächeln	-8.23549
▁verkauft	-8.23623
▁versammelt	-8.23623
▁Zug	-8.23687
▁Familie	-8.24214
▁trinkt	-8.25594
▁Geschäft	-8.25962
▁zur	-8.26048
▁Fuß	-8.26573
▁Markt	-8.26578
▁ins	-8.26795
▁Bus	-8.26939
▁umgeben	-8.27297
▁rosafarbenen	-8.27658
▁ihn	-8.28326
▁schneidet	-8.28649
▁hängt	-8.2865
▁gerade	-8.29652
▁mitten	-8.29673
Bahn	-8.29998
o	-8.30051
▁Reihe	-8.30303
▁herunter	-8.30336
▁telefoniert	-8.30697
▁asiatische	-8.31036
▁einige	-8.31553
▁spazieren	-8.31753
▁Wagen	-8.31798
▁belebten	-8.319
▁Seil	-8.32282
▁fangen	-8.32813
▁malt	-8.32834
▁bunten	-8.32961
▁Gewässer	-8.33487
▁Schwarz	-8.33586
▁nimmt	-8.3393
▁Musik	-8.34631
▁Autos	-8.34711
a	-8.3478
▁schwimmt	-8.34987
▁großer	-8.35299
▁rote	-8.3558
weißen	-8.36059
▁freiem	-8.36077
▁Geländer	-8.36101
▁schneebedeckten	-8.36113
▁Basketball	-8.36188
▁gekleidet	-8.36513
▁Fußballspieler	-8.36518
d	-8.36692
▁Haus	-8.36922
▁Brücke	-8.37185
▁blicken	-8.37201
▁schlägt	-8.37213
▁vielen	-8.37537
▁Bart	-8.37865
▁Hände	-8.3794
▁Zeitung	-8.37993
▁Sprung	-8.38308
▁sonnigen	-8.38309
▁Mutter	-8.3831
▁hinauf	-8.38311
▁Zuschauer	-8.39073
▁Tasche	-8.39093
▁Himmel	-8.39445
▁Publikum	-8.39445
▁fliegt	-8.39446
g	-8.39802
▁Gebäudes	-8.40121
▁Richtung	-8.40282
▁Papier	-8.40575
▁kämpfen	-8.40595
▁Platz	-8.40595
▁hebt	-8.40607
ung	-8.41189
▁denen	-8.41405
▁Weste	-8.42563
▁dunklen	-8.42941
▁grünem	-8.42984
▁grün	-8.43495
▁Graffiti	-8.43723
▁hohen	-8.44171
▁Hof	-8.45351
▁Hemden	-8.46042
▁Erwachsene	-8.46052
▁Kopfbedeckung	-8.46233
▁mehrere	-8.47414
▁zuschauen	-8.47836
▁asiatischer	-8.47989
▁weißes	-8.48688
▁Schirm	-8.48726
▁ver	-8.49595
ge	-8.49595
▁blondes	-8.49675
em	-8.50293
▁davon	-8.50299
▁alte	-8.50616
▁Mauer	-8.51581
▁genießt	-8.51581
▁überqueren	-8.51581
b	-8.51774
▁bereiten	-8.5187
▁blaue	-8.52469
▁Decke	-8.5249
▁vier	-8.52879
▁Jemand	-8.5288
▁Frisbee	-8.52883
▁Spielplatz	-8.52885
▁Mannes	-8.53119
▁Mitte	-8.53126
▁Straßen	-8.53844
▁benutzt	-8.54196
▁lacht	-8.54196
▁karierten	-8.54214
▁Schaukel	-8.54218
▁mittleren	-8.54218
▁Rock	-8.54219
▁tritt	-8.54255
▁Zuschauern	-8.54626
▁Computer	-8.55188
▁bereit	-8.5526
▁Kunststück	-8.55358
▁Auf	-8.55518
▁Pool	-8.55544
▁Alters	-8.55585
▁Stück	-8.56663
sch	-8.56719
▁Blick	-8.56874
▁Rasen	-8.56878
▁Menge	-8.56881
▁Sofa	-8.56881
▁nahe	-8.57128
▁Shirt	-8.57312
▁Dach	-8.58254
▁unterhält	-8.58257
▁alten	-8.58702
▁Mensch	-8.59342
▁Einige	-8.59367
▁einigen	-8.59449
▁lila	-8.59636
▁zusieht	-8.59639
▁Augen	-8.59692
▁In	-8.59693
▁Baseballspieler	-8.59746
▁her	-8.60083
▁Schal	-8.60991
▁nebeneinander	-8.61105
▁zuschaut	-8.61125
▁be	-8.61672
▁großes	-8.62353
▁Bier	-8.62375
▁lässt	-8.62511
▁zusehen	-8.62629
▁K	-8.63201
▁Typ	-8.6362
▁Eis	-8.63768
▁Basketballspiel	-8.63815
▁Surfer	-8.63926
▁Gegenstand	-8.63926
▁nachts	-8.63928
▁orangen	-8.64336
▁gelb	-8.64493
▁Stein	-8.64661
▁Zigarette	-8.64989
▁fest	-8.65275
▁versuchen	-8.65396
▁Mund	-8.65401
▁hinten	-8.65404
▁Fotos	-8.65546
u	-8.65984
▁Sonne	-8.66503
▁Metall	-8.66848
▁beobachten	-8.66889
▁scheint	-8.66889
▁gibt	-8.66905
▁treten	-8.66977
▁weg	-8.67167
▁gelber	-8.67171
▁mehreren	-8.67338
▁Teenager	-8.68113
▁Gemüse	-8.68391
▁Bett	-8.68411
▁Wanderer	-8.68424
▁trinken	-8.6843
p	-8.69146
▁da	-8.6918
▁orange	-8.69471
▁Nummer	-8.69565
▁Flagge	-8.69571
▁Outfit	-8.69652
▁Uniform	-8.69666
▁Feuer	-8.69937
▁fängt	-8.69942
▁kniet	-8.69942
▁raucht	-8.69942
kleidung	-8.69947
▁öffentlichen	-8.69977
c	-8.70417
▁Armen	-8.70777
▁viele	-8.7104
▁nicht	-8.7107
▁Schürze	-8.71117
▁Stange	-8.71125
▁Baseball	-8.71394
st	-8.71457
▁betrachten	-8.71505
▁Ferne	-8.71505
▁verschneiten	-8.71584
▁Stufen	-8.7159
▁Nacht	-8.71799
▁beide	-8.72319
▁Trikots	-8.72372
▁Ufer	-8.72656
▁liegen	-8.73041
y	-8.73078
▁Gehsteig	-8.73092
▁Rampe	-8.73109
▁Tor	-8.7314
▁führen	-8.73197
▁Sport	-8.73334
▁Lebensmittel	-8.74321
▁jungen	-8.74459
▁Veranstaltung	-8.74745
den	-8.75434
▁Grill	-8.7591
▁Glas	-8.76222
▁außerhalb	-8.76344
▁Tennisball	-8.76348
▁unten	-8.76349
▁Art	-8.76397
▁Snowboarder	-8.76443
▁Musiker	-8.76467
▁Zelt	-8.76519
▁einander	-8.7653
▁blonden	-8.77156
Spieler	-8.77541
▁Sonnenuntergang	-8.78011
▁Leiter	-8.78011
▁E	-8.79204
de	-8.79328
▁Obst	-8.79698
▁Regen	-8.79701
▁Aufschrift	-8.79706
▁greift	-8.79713
▁Skifahrer	-8.79713
▁Statue	-8.79748
▁rutscht	-8.79771
▁lachen	-8.80721
▁Herr	-8.80734
▁braune	-8.81011
▁Brunnen	-8.8143
▁fotografiert	-8.8143
▁hilft	-8.8143
▁Kleidern	-8.8157
weiß	-8.81796
▁männliche	-8.82261
▁reden	-8.82266
▁rotes	-8.82287
▁Fisch	-8.82542
der	-8.82798
ü	-8.82811
▁Tür	-8.82875
▁surft	-8.83184
▁bärtiger	-8.83192
▁Beton	-8.83234
▁Hüten	-8.83282
▁beiden	-8.83844
▁Sechs	-8.8497
▁überquert	-8.8497
▁gelbem	-8.8505
▁werfen	-8.85076
▁Haare	-8.85118
▁Polizisten	-8.8525
▁grüner	-8.85265
▁Kostümen	-8.8533
▁Volleyball	-8.85348
▁Bar	-8.85695
re	-8.86001
▁Damen	-8.86585
▁teil	-8.86612
▁Mannschaft	-8.8671
▁legt	-8.86788
▁versammeln	-8.86788
▁nacktem	-8.86794
▁Sweatshirt	-8.86808
▁zurück	-8.8682
▁städtischen	-8.86907
▁gelbe	-8.87934
ä	-8.8801
▁Maschine	-8.88288
▁Weiß	-8.88538
w	-8.88572
▁Rutsche	-8.8864
▁gemeinsam	-8.8864
▁Korb	-8.88641
▁Leine	-8.88642
i	-8.88771
▁nehmen	-8.88792
▁Vater	-8.90092
▁H	-8.90559
▁kommt	-8.906
▁blaues	-8.9138
▁Bikini	-8.92021
▁Eimer	-8.92085
▁Polizist	-8.92108
▁Diese	-8.92125
▁Pfad	-8.9245
▁genießen	-8.9245
▁Ende	-8.92451
▁schreibt	-8.92484
▁guckt	-8.92552
▁stellt	-8.92632
▁blonder	-8.92776
▁Westen	-8.93061
▁dass	-8.93143
▁Getränk	-8.93159
▁Läufer	-8.93971
▁Schutzhelm	-8.94109
▁Garten	-8.9425
▁Schlagzeug	-8.94253
▁Ski	-8.944
▁Mikrophon	-8.94411
▁Rodeo	-8.94417
▁leeren	-8.94475
▁Stühlen	-8.94503
▁Soldaten	-8.94535
▁Wellen	-8.95197
▁asiatischen	-8.95307
▁Fahrzeug	-8.95491
▁Motorradfahrer	-8.96035
▁Braut	-8.96404
▁ohne	-8.96411
▁wobei	-8.96411
▁Umgebung	-8.96419
▁Baustelle	-8.9642
▁streckt	-8.96433
▁gestreiftem	-8.96468
▁Arbeit	-8.97205
▁Trick	-8.98069
▁gleich	-8.98363
▁G	-8.98376
▁gekleideten	-8.98409
▁Kampfsport	-8.98448
▁Krawatte	-8.98452
▁kaufen	-8.98452
▁schwingt	-8.98452
▁sprechen	-8.98452
▁inmitten	-8.98453
▁Badeanzug	-8.98474
▁Rad	-8.98522
▁Konzert	-8.9853
▁riesigen	-8.98601
▁Erwachsener	-8.98665
▁An	-8.98885
▁Schuhen	-8.98944
▁Erwachsenen	-8.99079
▁lesen	-8.99917
▁Regenschirm	-9.00022
▁Instrument	-9.00039
▁Sohn	-9.00535
▁Parade	-9.00536
▁Gegend	-9.00537
▁Rot	-9.00556
▁grauem	-9.00566
▁Parkplatz	-9.00567
▁Handschuhen	-9.00694
▁alle	-9.00921
▁Uniformen	-9.00945
▁Laden	-9.02178
▁älteren	-9.02279
▁Kostüm	-9.02334
▁Snowboard	-9.02527
ing	-9.02596
▁kurz	-9.02597
▁Vogel	-9.02639
▁hört	-9.02663
▁singen	-9.02663
▁Schreibtisch	-9.02664
▁Straßenecke	-9.02664
▁Straßenrand	-9.02667
▁Waren	-9.0268
▁Bereich	-9.0268
▁starrt	-9.02685
▁offenen	-9.02707
▁Kinderwagen	-9.02789
▁bedeckt	-9.03071
▁gelbes	-9.03239
an	-9.03289
▁Bergen	-9.03825
▁Bei	-9.03978
▁anderes	-9.04036
▁lächelnd	-9.04208
▁ganz	-9.04517
ar	-9.04707
▁Arme	-9.04782
▁hin	-9.04801
▁Party	-9.04837
▁Schoß	-9.04837
▁umarmt	-9.04837
▁schlagen	-9.04837
▁Geländemotorrad	-9.04837
▁Pause	-9.04837
▁pinkfarbenen	-9.0489
▁jagt	-9.04905
▁Gebäuden	-9.05929
▁Land	-9.06529
▁grüne	-9.06538
▁leuchtend	-9.06837
▁Kuchen	-9.07059
▁repariert	-9.07059
▁klettern	-9.07114
▁dunkelhäutiger	-9.07151
▁man	-9.07165
ch	-9.07403
et	-9.07877
z	-9.07986
on	-9.08502
▁schwarzes	-9.08769
▁verschiedene	-9.08926
▁gut	-9.0923
▁Sie	-9.09283
▁M	-9.09315
▁Schatten	-9.09332
▁Vordergrund	-9.09332
▁verkaufen	-9.09332
▁orangefarbener	-9.0938
▁Jugendlicher	-9.09388
▁Fahrradfahrer	-9.0942
▁P	-9.09804
▁Netz	-9.10155
▁Team	-9.10558
ten	-9.10567
▁Jacken	-9.11061
▁Schüler	-9.11207
▁Tennis	-9.11348
▁voll	-9.1135
▁gegenüber	-9.11646
▁Surfbrett	-9.11657
▁putzt	-9.11657
▁Blau	-9.11658
▁Schläger	-9.11659
▁Fell	-9.11663
▁gegeneinander	-9.11668
▁Stand	-9.11683
▁Kunden	-9.11706
▁kurzer	-9.11829
▁Es	-9.12068
▁Geschäfts	-9.12506
ur	-9.12801
▁gekleidetes	-9.13576
▁weibliche	-9.13946
▁Spiegel	-9.14032
▁heraus	-9.14034
▁Mikroskop	-9.14038
▁balanciert	-9.14038
▁jemandem	-9.1405
▁Sandalen	-9.14061
▁Künstler	-9.14167
le	-9.1424
▁Fahrrädern	-9.14277
▁asiatisches	-9.14993
▁Tanz	-9.15957
▁bemalt	-9.16169
▁wo	-9.16198
▁Bein	-9.16436
▁Klassenzimmer	-9.16477
▁Mobiltelefon	-9.16477
▁winkt	-9.16478
▁Schiedsrichter	-9.16478
al	-9.16497
▁beugt	-9.16503
▁Einkaufswagen	-9.16504
▁Erde	-9.16525
▁Stiefeln	-9.16546
▁Footballspieler	-9.16566
▁setzt	-9.16623
▁ziehen	-9.1664
▁Pferden	-9.18302
▁Kajak	-9.18547
▁Schulter	-9.18602
▁Roller	-9.18606
▁Schlitten	-9.18977
▁Zimmer	-9.18977
▁Felswand	-9.18978
▁Halsband	-9.18979
▁Telefon	-9.18986
▁Fleisch	-9.18987
▁fällt	-9.18987
▁orangefarbenem	-9.18999
▁dreht	-9.19039
igen	-9.19438
▁grünes	-9.19623
▁F	-9.19707
geschäft	-9.20489
▁lächelnde	-9.20894
▁belebte	-9.21029
▁Kanu	-9.21119
▁Cowboy	-9.21135
▁Badehose	-9.21174
▁R	-9.21178
▁Schuhe	-9.2151
▁Gerüst	-9.21541
▁Höhe	-9.21541
▁fünf	-9.21541
▁küssen	-9.21541
▁zeigen	-9.21541
▁davor	-9.21544
▁hellbrauner	-9.21565
▁reiten	-9.21587
▁dessen	-9.21608
▁unbefestigten	-9.21662
▁Pferde	-9.21702
▁Taschen	-9.22391
be	-9.22838
▁St	-9.23469
ie	-9.23582
▁Schnauze	-9.24066
▁Base	-9.24169
▁Kirche	-9.24173
▁redet	-9.24173
▁aussieht	-9.24173
▁Tanktop	-9.24183
▁Kai	-9.24185
▁Loch	-9.24203
▁Kreis	-9.24207
▁Be	-9.24215
▁küsst	-9.24238
▁Seifenblasen	-9.24252
▁braunem	-9.2437
▁A	-9.25832
te	-9.25848
▁Akkordeon	-9.2622
blauen	-9.26303
▁Schlange	-9.26457
▁Laptop	-9.26494
▁was	-9.26841
▁Müll	-9.26872
▁Spaß	-9.26875
▁Ecke	-9.26884
▁Spielfeld	-9.26896
▁Pflanzen	-9.26985
▁Freunde	-9.27236
“.	-9.27325
▁verschiedenen	-9.274
▁seines	-9.27589
▁Skateboarder	-9.27805
S	-9.2804
weiße	-9.28308
Spiel	-9.28449
▁Oberteilen	-9.28728
▁Bäume	-9.29284
ut	-9.29428
▁Küste	-9.29578
gen	-9.29611
▁Kaffee	-9.2965
▁Stadion	-9.29653
▁Teich	-9.29653
▁Tochter	-9.29653
▁Rennstrecke	-9.29654
▁Schwimmbrille	-9.29654
▁grasbewachsenen	-9.29701
▁lilafarbenen	-9.29704
▁farbenfrohen	-9.29768
▁schönen	-9.29904
▁Schultern	-9.30069
▁Tischen	-9.30333
▁Fußballspiel	-9.31576
▁Tasse	-9.32092
▁Schaufel	-9.3211
▁Flasche	-9.32131
▁Caf	-9.32319
▁Koch	-9.3236
▁Geige	-9.32376
▁Haufen	-9.3251
▁kocht	-9.3251
▁Kappe	-9.32513
▁Hula	-9.32513
▁gepflasterten	-9.32603
▁Tier	-9.32651
▁männlicher	-9.32722
▁Reifen	-9.32882
Shirts	-9.33261
▁schwimmen	-9.33519
T	-9.33656
▁durchs	-9.33914
ter	-9.34149
▁aussehende	-9.34533
▁grau	-9.34814
▁Büro	-9.35327
▁schaukelt	-9.35452
▁Klippe	-9.35452
▁unterwegs	-9.35452
▁entspannt	-9.35452
▁umarmen	-9.35452
▁Landschaft	-9.35453
▁Parkbank	-9.35461
Hoop	-9.35464
▁gegnerischen	-9.35524
▁Farben	-9.35732
▁hellen	-9.35822
zu	-9.35849
▁Freunden	-9.36054
▁b	-9.36281
▁B	-9.37296
la	-9.37461
▁asiatisch	-9.37475
▁hell	-9.37608
schwarzer	-9.37848
▁Tänzer	-9.38035
▁Katze	-9.38087
▁Flugzeug	-9.38119
▁dunkelhäutige	-9.38356
▁Teppich	-9.38481
▁Schlamm	-9.38481
▁Gasse	-9.38482
▁Sachen	-9.38482
▁Trampolin	-9.38482
▁bedient	-9.38482
▁bis	-9.38483
▁damit	-9.38484
▁dunkler	-9.38488
▁Hang	-9.38488
▁Steine	-9.38513
▁Feldweg	-9.38547
▁violetten	-9.38552
▁beleuchteten	-9.38632
▁grauer	-9.38668
▁Dieser	-9.38741
us	-9.38919
▁Schutzhelmen	-9.38953
▁Flaggen	-9.39227
chen	-9.39281
▁so	-9.39616
▁Sch	-9.40018
el	-9.40329
▁Helmen	-9.40345
or	-9.41059
▁Maske	-9.412
▁Schüssel	-9.41225
▁Kopfhörer	-9.41231
▁Overall	-9.4125
▁Rand	-9.4141
▁Licht	-9.41457
ork	-9.41502
veranstaltung	-9.41607
▁New	-9.41607
▁hüpft	-9.41607
▁jongliert	-9.41607
▁verwendet	-9.41607
▁gezogen	-9.41607
▁Springbrunnen	-9.41607
ern	-9.41612
▁hinab	-9.41613
▁Skiern	-9.41621
▁langem	-9.41636
▁Strecke	-9.41641
▁Berge	-9.41692
▁steigt	-9.41729
▁holt	-9.41751
▁Fahnen	-9.41791
▁Bahn	-9.43268
grünen	-9.44222
▁Objekt	-9.44289
▁Teller	-9.44426
▁Lastwagen	-9.44433
▁N	-9.44463
▁L	-9.44643
▁Cheerleader	-9.44765
▁Stoff	-9.4482
▁Couch	-9.44826
▁Marathon	-9.4483
▁kauft	-9.44833
▁links	-9.44833
▁schießt	-9.44833
▁schüttelt	-9.44833
▁schnell	-9.44833
▁Mahlzeit	-9.44833
▁Veranda	-9.44833
▁nur	-9.44836
▁rechts	-9.44896
▁lächelnder	-9.45237
iert	-9.45273
ol	-9.45533
di	-9.46763
▁hängen	-9.47002
laden	-9.47011
▁afro	-9.4709
▁Nase	-9.4775
▁Wüste	-9.47766
▁Asiate	-9.47848
▁Zeit	-9.48142
▁Wurf	-9.48166
▁berührt	-9.48166
▁fotografieren	-9.48166
▁ruht	-9.48166
▁verfolgt	-9.48166
▁wandert	-9.48166
▁grillt	-9.48166
▁reparieren	-9.48166
▁barfuß	-9.48166
▁heben	-9.48167
▁bekommt	-9.4817
▁Cowboyhut	-9.48171
▁bläst	-9.48179
▁Kopftuch	-9.48185
▁hellblauen	-9.48195
▁Anzügen	-9.48211
▁Lkw	-9.48226
▁Touristen	-9.48237
▁aussehender	-9.48318
▁Personengruppe	-9.48674
▁Fallschirm	-9.48716
innen	-9.48853
▁Instrumenten	-9.49018
ausrüstung	-9.493
▁Getränke	-9.4943
fahrer	-9.49778
gelben	-9.50762
“-	-9.50897
▁Reiter	-9.51242
▁Clown	-9.51243
▁Balkon	-9.51285
▁Handtasche	-9.51318
▁Instrumente	-9.51565
▁hockt	-9.51614
▁Umzug	-9.51617
▁reinigt	-9.51628
▁überfüllten	-9.51647
▁geschlossenen	-9.51664
▁Wettkampf	-9.51676
▁weitere	-9.51772
▁Bilder	-9.52039
▁Schwimmer	-9.52122
▁Beinen	-9.52244
▁Tennisspieler	-9.52667
▁Hunden	-9.53351
▁k	-9.53371
▁D	-9.54087
▁Sänger	-9.54508
▁Zähne	-9.54786
▁Fußgänger	-9.54801
▁Finger	-9.54805
wagen	-9.54911
▁Schlag	-9.55182
▁Blatt	-9.55183
▁Geschenk	-9.55184
▁Gebiet	-9.55186
▁Salto	-9.55186
▁stark	-9.55186
▁öffnet	-9.55186
▁Zunge	-9.55186
▁bauen	-9.55187
▁auch	-9.55189
▁Bach	-9.55192
▁Asiatin	-9.55193
▁pinkfarbenem	-9.55199
▁Im	-9.55216
▁diesem	-9.55218
▁traditioneller	-9.55237
▁felsigen	-9.55261
▁Wasserfall	-9.55264
▁Skater	-9.55289
▁linken	-9.55329
▁gucken	-9.55428
▁Hauses	-9.55471
▁Asiaten	-9.55683
▁Sitzen	-9.56149
▁Kerl	-9.56194
▁weit	-9.57609
weg	-9.57631
fahren	-9.57666
rad	-9.5795
ne	-9.5808
schwarzen	-9.58366
▁Fahrräder	-9.58518
▁rasiert	-9.58551
▁ob	-9.58745
▁viel	-9.5882
▁Plastik	-9.58878
▁Schlauch	-9.58887
▁Geld	-9.58889
▁Kurve	-9.58889
▁untersucht	-9.58889
▁wäscht	-9.58889
▁kann	-9.58892
▁Ort	-9.58893
▁Straßenkünstler	-9.58894
▁Winterkleidung	-9.58903
▁Lederjacke	-9.58905
▁taucht	-9.58956
▁Tunnel	-9.59009
▁schneiden	-9.59035
▁steigen	-9.59114
▁Hockeyspieler	-9.59348
und	-9.59455
▁Teil	-9.59867
▁a	-9.6003
▁Steinen	-9.60172
au	-9.60557
ier	-9.60741
▁s	-9.60866
▁Teams	-9.60892
▁W	-9.61117
tisch	-9.61545
ri	-9.61709
B	-9.62034
Fahrer	-9.62036
brauner	-9.62105
▁umher	-9.62226
▁Kleine	-9.62264
se	-9.62316
▁wurde	-9.62336
▁sitzende	-9.62375
▁amerikanische	-9.62435
▁allein	-9.62612
▁Ring	-9.62618
bereich	-9.62735
▁Baumstamm	-9.62736
▁Terrasse	-9.62736
▁entfernt	-9.62736
▁kickt	-9.62736
▁übt	-9.62736
▁Sportler	-9.62738
▁Kuh	-9.62739
▁Passanten	-9.62766
▁nachdem	-9.62772
▁gießt	-9.62778
▁Sieben	-9.62782
▁Tuch	-9.6279
▁hellbraunen	-9.62821
▁Bullen	-9.62846
▁Ausrüstung	-9.6286
▁gelegt	-9.6286
▁beieinander	-9.6288
v	-9.62993
▁vollen	-9.63243
▁C	-9.64978
ra	-9.64994
spiel	-9.65049
kostüm	-9.65769
▁rothaarige	-9.65794
▁schlafen	-9.65883
▁braunhaarige	-9.66184
▁Hockey	-9.66346
anzug	-9.66579
▁Hals	-9.66727
▁schreit	-9.6673
▁Becher	-9.66733
▁Abend	-9.66735
▁Bräutigam	-9.66736
▁helfen	-9.66736
▁vollführt	-9.66736
▁üben	-9.66736
▁unterschiedlich	-9.66736
▁geworfen	-9.6674
▁hinaus	-9.66742
▁Teleskop	-9.66752
▁hinterher	-9.66779
▁bringt	-9.66836
▁nassen	-9.66937
▁kommen	-9.66959
▁frisch	-9.66974
▁glücklich	-9.67733
▁Hindernis	-9.68422
▁un	-9.69222
▁Schuh	-9.70037
▁bunte	-9.70041
stand	-9.70193
▁dunkelhaarige	-9.7034
▁Matte	-9.70485
▁jemand	-9.70518
▁Rollstuhl	-9.70527
▁Spielen	-9.70535
▁Jahrmarkt	-9.70564
▁Gerät	-9.70592
▁geparkt	-9.70594
▁Fotograf	-9.70596
ell	-9.70605
▁darunter	-9.70685
ö	-9.70714
▁Mountainbike	-9.70772
▁Kissen	-9.70901
▁Kapuzenpulli	-9.70902
▁Neoprenanzug	-9.70902
▁Schäferhund	-9.70902
▁Theke	-9.70902
▁benutzen	-9.70902
▁Rolltreppe	-9.70903
▁feiern	-9.70903
▁Turnhalle	-9.70903
▁Karren	-9.70904
▁angelt	-9.70904
▁gezeigt	-9.70906
▁Waldgebiet	-9.70909
▁Besen	-9.70911
▁konzentriert	-9.70911
▁Arbeitskleidung	-9.70915
▁Keyboard	-9.70919
▁Wäsche	-9.70931
▁Wein	-9.70946
▁paddelt	-9.70948
▁gleitet	-9.70948
▁bewegt	-9.70948
▁vorbeigehen	-9.70949
▁Jungs	-9.70963
▁hellhäutiger	-9.70979
▁ringen	-9.71
▁geben	-9.71058
▁m	-9.71066
▁verkleidet	-9.71139
▁Da	-9.7124
sp	-9.71515
▁sitzender	-9.71642
ige	-9.71813
▁brünette	-9.71974
▁sitzenden	-9.71998
▁Verkehr	-9.72112
Skateboardfahrer	-9.73748
A	-9.73856
roten	-9.74005
ro	-9.74204
▁Gelände	-9.74266
▁schöne	-9.74309
E	-9.74494
▁Trommel	-9.74867
▁befestigt	-9.74911
▁Hochzeit	-9.7511
▁Flughafen	-9.7525
▁Gemälde	-9.7525
▁Hürde	-9.7525
▁Mänteln	-9.7525
▁Nahaufnahme	-9.7525
▁Stapel	-9.7525
▁Tennisschläger	-9.7525
▁Trägerhemd	-9.7525
▁Weihnachtsbaum	-9.7525
▁lehnen	-9.7525
▁gelehnt	-9.75251
▁Gewand	-9.75253
▁BM	-9.75254
▁Heu	-9.75255
▁Auftritt	-9.75256
▁ärmellosen	-9.75259
▁Handtuch	-9.75298
▁kehrt	-9.75298
▁vorüber	-9.75352
▁chinesischen	-9.754
▁alleine	-9.75477
▁O	-9.75553
▁Ballon	-9.75996
li	-9.76
geht	-9.76049
▁Fahrer	-9.76076
▁Berges	-9.76155
▁r	-9.76842
▁Eingang	-9.77212
ball	-9.77995
▁Freund	-9.78214
ein	-9.78656
zug	-9.79343
platz	-9.79361
▁Gegenstände	-9.79411
▁Blätter	-9.79414
▁Farbe	-9.79464
feld	-9.79589
▁w	-9.79609
▁Hocke	-9.79659
▁komplett	-9.79661
▁Karate	-9.79782
▁Projekt	-9.79787
▁Koffer	-9.79793
▁Fläche	-9.79796
▁Pfütze	-9.79796
▁Wohnzimmer	-9.79796
▁fast	-9.79796
▁folgt	-9.79796
▁jagen	-9.79796
▁trainiert	-9.79796
▁Brust	-9.79796
▁Schutzbrille	-9.79796
▁Weihnachtsmann	-9.79797
▁Laub	-9.79802
▁Gang	-9.79804
▁offenem	-9.79807
▁Bildschirm	-9.79808
▁Wandbild	-9.79843
▁schießen	-9.79846
▁Gelb	-9.79865
▁gräbt	-9.79878
▁kalten	-9.79894
▁geschäftigen	-9.79918
▁Werbung	-9.79943
▁Handstand	-9.79955
▁rechten	-9.80043
▁lassen	-9.80072
▁jemanden	-9.80129
▁Fischer	-9.80187
▁Vor	-9.80431
as	-9.80525
▁Gepäck	-9.80545
▁lächelndes	-9.80654
▁Ge	-9.80835
▁sch	-9.81141
▁braunes	-9.81167
▁Seiten	-9.81689
▁Sees	-9.8191
O	-9.83094
▁Winter	-9.83779
▁Baseballkappe	-9.84141
▁angezogen	-9.8416
▁Spitze	-9.84172
▁Orange	-9.84173
▁indische	-9.84175
mannschaft	-9.84245
▁Kunst	-9.84357
▁Sicherheits	-9.84375
▁Feier	-9.84472
fahrt	-9.84511
▁Gegner	-9.84553
▁Behälter	-9.84557
▁Bushaltestelle	-9.84557
▁Daumen	-9.84557
▁Gassi	-9.84557
▁Geschirr	-9.84557
▁Klavier	-9.84557
▁Pfosten	-9.84557
▁Pärchen	-9.84557
▁Zuschauermenge	-9.84557
▁hölzernen	-9.84557
▁kahlköpfiger	-9.84557
▁kochen	-9.84557
▁runden	-9.84557
▁streichelt	-9.84557
▁weint	-9.84557
▁schaufelt	-9.84558
▁baut	-9.84558
▁Brett	-9.8456
▁dicht	-9.8456
▁Kletterer	-9.84568
▁hinein	-9.84571
▁nähert	-9.84575
▁Orchester	-9.84577
▁Hütte	-9.84592
▁Stadtstraße	-9.84596
▁hören	-9.84612
▁bringen	-9.84645
▁steilen	-9.84716
▁Kleiner	-9.84765
ion	-9.84791
▁Füßen	-9.84898
▁blondem	-9.84976
▁Ballons	-9.84995
▁Kunststücke	-9.85272
▁Menschengruppe	-9.85307
Backsteingebäude	-9.85614
▁stehenden	-9.85955
▁Rede	-9.86443
ke	-9.86613
elt	-9.86795
▁Sonnenbrillen	-9.88188
ste	-9.88286
at	-9.88832
▁bestehende	-9.88845
weißem	-9.89037
▁riesige	-9.89044
▁Jugendliche	-9.89046
tasche	-9.89113
▁Bücher	-9.89138
▁Soldat	-9.89247
▁Schaufenster	-9.8936
bahn	-9.89439
lich	-9.89465
▁Feuerwehr	-9.89542
▁Ziel	-9.89551
▁sechs	-9.89556
▁Saxophon	-9.89556
▁Rennauto	-9.89557
▁Dreadlocks	-9.89557
▁Hammer	-9.89557
▁Schnurrbart	-9.89557
▁joggt	-9.89557
▁Einkaufszentrum	-9.89558
bildschirm	-9.89558
▁scheinen	-9.89559
▁Picknicktisch	-9.89559
▁Skatepark	-9.8956
▁Steinmauer	-9.89565
▁Bauch	-9.8957
▁zeichnet	-9.89602
▁Speisen	-9.89607
▁Baseballmütze	-9.89622
▁heißen	-9.89625
▁Bahnsteig	-9.89649
▁schmutzigen	-9.89654
▁Fans	-9.89676
▁ent	-9.89695
▁ausgestreckten	-9.89722
▁Studenten	-9.89746
▁goldenen	-9.89753
▁Brot	-9.89774
▁spritzt	-9.89795
▁Kisten	-9.89822
▁wunderschönen	-9.89842
▁auszu	-9.89843
▁Motorrädern	-9.8986
▁jüngeren	-9.89868
▁Er	-9.89984
▁Meeres	-9.90037
▁Kopfhörern	-9.90169
▁Dieses	-9.90668
▁lachend	-9.9077
ver	-9.90823
▁tief	-9.91222
▁Graffitis	-9.91296
▁Sitz	-9.91335
▁Kunstwerk	-9.91624
▁ihres	-9.92188
F	-9.92245
▁Restaurants	-9.92838
ot	-9.92997
gruppe	-9.93052
M	-9.93264
▁Schule	-9.93514
▁Schwimm	-9.93896
K	-9.94118
Reifen	-9.94126
Schild	-9.94134
Gitarre	-9.94135
▁erwachsene	-9.94291
haus	-9.94298
▁Blume	-9.94352
▁Füße	-9.94444
▁Gitarrist	-9.94508
▁Herd	-9.94593
▁Trompete	-9.94672
▁Labor	-9.9482
▁Anlegestelle	-9.94821
▁Körper	-9.94821
▁Nickerchen	-9.94821
▁Nähmaschine	-9.94821
▁Sanddüne	-9.94821
▁direkt	-9.94821
▁rudert	-9.94821
▁schwach	-9.94821
▁Hinterhof	-9.94821
▁Geldbörse	-9.94821
▁beschäftigt	-9.94823
▁Straßenhändler	-9.94824
▁Bowlingbahn	-9.94825
▁Out	-9.94832
▁Kreuzung	-9.94835
▁Topf	-9.94836
▁Drachen	-9.94844
▁Rennwagen	-9.94847
▁rosafarbenem	-9.94863
▁einzelner	-9.94873
▁Kids	-9.94875
▁Traktor	-9.94879
▁vorbeifährt	-9.94893
▁Plakat	-9.94913
▁langhaariger	-9.94921
▁Bekleidung	-9.94951
▁Wettbewerb	-9.94955
▁Stier	-9.94991
▁gesäumten	-9.95012
▁Esel	-9.95125
▁Luftballons	-9.95137
▁silbernen	-9.95154
▁Schlagzeuger	-9.95258
▁Zeichen	-9.95298
▁Stift	-9.95743
▁d	-9.95791
▁Typen	-9.95959
▁Getränken	-9.96287
▁Bau	-9.97005
▁Musikinstrument	-9.97262
▁Man	-9.97806
▁Softball	-9.98239
▁Arbeits	-9.98668
▁herab	-9.98799
ack	-9.98815
▁Militär	-9.98897
▁einge	-9.99664
▁älteres	-9.9968
iger	-9.99789
▁daneben	-9.99789
▁Gewehr	-9.99825
▁Verkauf	-9.9994
▁Angelrute	-9.99958
▁Dinge	-9.99958
▁Pier	-9.99975
▁Gold	-10.0004
bau	-10.0021
teil	-10.0031
markt	-10.0031
halle	-10.0036
▁Mittag	-10.0038
Fußgängerüberweg	-10.0038
▁Balken	-10.0038
▁Flüssigkeit	-10.0038
▁Kapuze	-10.0038
▁Klettergerüst	-10.0038
▁Moped	-10.0038
▁Puck	-10.0038
▁Teig	-10.0038
▁amüsieren	-10.0038
▁bearbeitet	-10.0038
▁können	-10.0038
▁marschiert	-10.0038
▁runter	-10.0038
▁leicht	-10.0038
▁Verkäufer	-10.0038
▁berühren	-10.0038
▁Lied	-10.0038
▁Dreck	-10.0038
▁anhat	-10.0038
▁Bowlingkugel	-10.0038
▁Feuerwehrmänner	-10.0038
▁Strohhut	-10.0038
▁Bänken	-10.0039
▁Bowling	-10.0039
▁Rädern	-10.0041
▁Socken	-10.0041
▁geblümten	-10.0041
▁steinigen	-10.0045
▁Rucksäcken	-10.0047
▁Arena	-10.0048
▁Ver	-10.0049
▁Wänden	-10.005
▁gehalten	-10.005
▁afrikanischer	-10.005
▁aufblasbaren	-10.0056
▁stellen	-10.006
▁mithilfe	-10.0072
▁Fotografen	-10.0079
▁Kleines	-10.0099
▁amerikanischen	-10.0107
▁Regenschirmen	-10.0129
▁bedeckten	-10.0133
▁teilen	-10.0152
▁anzu	-10.0158
▁aber	-10.0166
▁Outfits	-10.0187
C	-10.0251
▁Gewässers	-10.0253
▁Treppen	-10.0269
▁Mo	-10.0343
ap	-10.0349
bar	-10.0434
einander	-10.0461
▁afrikanische	-10.0529
os	-10.0547
▁Ton	-10.0551
▁Balls	-10.0571
▁Ohr	-10.0584
▁Kegel	-10.0586
▁Afroamerikaner	-10.0591
▁Skulptur	-10.0593
▁Zeitschrift	-10.0594
▁gefüllt	-10.0595
▁V	-10.0614
um	-10.0614
▁rast	-10.0625
▁Stirn	-10.0625
▁Lehrer	-10.0626
▁Bluejeans	-10.0626
▁Gespräch	-10.0626
▁Plattform	-10.0626
▁Sandstrand	-10.0626
▁Schubkarre	-10.0626
▁Silhouette	-10.0626
▁Surfboard	-10.0626
▁Tafel	-10.0626
▁begutachtet	-10.0626
▁füllt	-10.0626
▁gegenseitig	-10.0626
▁richtet	-10.0626
▁schwenkt	-10.0626
▁steckt	-10.0626
▁sucht	-10.0626
▁kaut	-10.0626
▁Zement	-10.0626
▁Becken	-10.0626
▁gebeugt	-10.0626
▁Abendessen	-10.0626
▁Schwimmbad	-10.0626
▁violettem	-10.0627
▁kariertem	-10.0628
▁beigefarbenen	-10.0631
▁flachen	-10.0632
▁dunkelblauen	-10.0632
▁Rollerblades	-10.0632
▁Fußballfeld	-10.0633
▁Kerzen	-10.0636
▁Bahnhof	-10.0637
▁Grün	-10.0637
ber	-10.0639
▁Fest	-10.0641
▁treffen	-10.0645
▁setzen	-10.0645
▁Club	-10.0725
▁Mannschaften	-10.0743
▁Turner	-10.0848
gt	-10.0867
▁entgegen	-10.088
af	-10.0886
verkäufer	-10.0922
▁Aus	-10.094
rennen	-10.1008
▁Turnerin	-10.1026
ei	-10.1046
doo	-10.1115
▁Re	-10.1143
▁jüngere	-10.1158
P	-10.1179
▁bunt	-10.118
Oberteil	-10.1182
Hemd	-10.1182
che	-10.1195
▁Werkzeug	-10.1197
▁verkleidete	-10.1201
▁Motorroller	-10.1209
▁Robe	-10.121
▁Grimasse	-10.1213
▁Fahne	-10.1214
▁Sängerin	-10.1221
▁Schlafanzug	-10.1232
hemd	-10.125
▁Motocross	-10.125
▁Eltern	-10.125
▁LKW	-10.1251
▁London	-10.1251
▁Löffel	-10.1251
▁Plastiktüte	-10.1251
▁bewölkten	-10.1251
▁entspannen	-10.1251
▁fegt	-10.1251
▁findet	-10.1251
▁kopfüber	-10.1251
▁planscht	-10.1251
▁rollt	-10.1251
▁schweißt	-10.1251
▁trainieren	-10.1251
▁wandern	-10.1251
▁will	-10.1251
▁statt	-10.1251
▁untersuchen	-10.1251
▁Waschsalon	-10.1251
▁aufgestellt	-10.1251
▁marschieren	-10.1251
▁parkt	-10.1251
▁Wettrennen	-10.1251
▁offenbar	-10.1251
▁noch	-10.1251
▁Brandung	-10.1251
▁Kalb	-10.1251
▁Taucher	-10.1251
▁Golf	-10.1252
▁Frisbeescheibe	-10.1252
▁Blumenmuster	-10.1253
▁Hilfe	-10.1253
▁Fahrt	-10.1253
▁Umhang	-10.1253
▁Feuerwehrmann	-10.1254
▁Sportwagen	-10.1254
▁dazu	-10.1255
▁Grasfläche	-10.1257
▁Bike	-10.1257
▁Kampf	-10.1257
▁Jeansjacke	-10.1258
▁beißt	-10.1258
▁Wasserflasche	-10.1261
▁farbenfroher	-10.1261
▁Röcken	-10.1262
▁Messer	-10.1262
▁füttert	-10.1262
▁Spielkleidung	-10.1266
▁Palmen	-10.1267
▁dunkelhaariger	-10.127
▁Tattoo	-10.1272
▁Mitglieder	-10.1274
sen	-10.1281
▁bunter	-10.1284
lt	-10.1288
ieren	-10.1299
▁e	-10.1323
▁vorne	-10.1368
▁Tricks	-10.1378
ß	-10.1383
ab	-10.1392
▁Geschäften	-10.1451
art	-10.1479
▁Schwert	-10.1525
x	-10.156
▁fliegen	-10.1563
rt	-10.1591
jacke	-10.1597
licht	-10.1618
▁Profi	-10.1652
ic	-10.1658
team	-10.1684
gerät	-10.1744
▁stehende	-10.1763
he	-10.1772
▁gehende	-10.1781
da	-10.1785
▁orangefarbene	-10.1823
▁lange	-10.1823
H	-10.1827
R	-10.1828
ang	-10.1851
▁Gruppen	-10.1851
▁I	-10.1857
hut	-10.1863
▁städtische	-10.1866
▁Baseballspiel	-10.1873
▁Taxi	-10.1876
▁Jockey	-10.1876
fahrzeug	-10.1877
▁Vögel	-10.1878
▁Motorräder	-10.188
▁Stufe	-10.188
park	-10.1901
▁schwarzhaarige	-10.1903
▁langhaarige	-10.1905
band	-10.1905
▁J	-10.1916
anlage	-10.1916
▁Weihnachts	-10.1917
▁Dorf	-10.1917
▁Bandana	-10.1918
▁Flur	-10.1918
▁Händler	-10.1918
▁Klassenraum	-10.1918
▁Mülltonne	-10.1918
▁Säugling	-10.1918
▁Tribüne	-10.1918
▁ausgestellt	-10.1918
▁diskutieren	-10.1918
▁joggen	-10.1918
▁nieder	-10.1918
▁reinigen	-10.1918
▁sammelt	-10.1918
▁scheinbar	-10.1918
▁starren	-10.1918
▁überprüft	-10.1918
▁verdeckt	-10.1918
▁Podium	-10.1918
▁Kreide	-10.1918
▁Floß	-10.1918
▁näht	-10.1918
▁wischt	-10.1918
▁Piste	-10.1918
▁Ziegelmauer	-10.1918
▁halb	-10.1918
▁Chor	-10.1918
▁Moment	-10.1918
▁bewundert	-10.1918
▁Bogen	-10.1918
▁Mittagessen	-10.1918
▁bückt	-10.1918
▁verlässt	-10.1918
▁Reifenschaukel	-10.1918
▁festhält	-10.1918
▁Violine	-10.1918
▁Teenageralter	-10.1918
▁bespritzt	-10.1918
▁bekommen	-10.1919
▁Maulkorb	-10.192
▁Badewanne	-10.192
▁treibt	-10.192
▁Köche	-10.192
▁Feuerwehrleute	-10.192
▁jubeln	-10.192
▁Fahrgeschäft	-10.1921
▁Elefanten	-10.1921
▁Ast	-10.1921
▁Sportkleidung	-10.1925
▁Torhüter	-10.1925
▁Waldweg	-10.1926
▁Büschen	-10.1929
▁eingezäunten	-10.1929
▁Poster	-10.1931
▁neue	-10.1938
▁Beine	-10.1939
▁Karten	-10.194
▁Laufen	-10.1942
▁engen	-10.1944
▁malen	-10.1945
▁Welpen	-10.1948
▁acht	-10.1951
▁Schildern	-10.1958
▁Ba	-10.196
▁Flöte	-10.1965
spieler	-10.1968
▁Baumes	-10.1984
▁Tee	-10.2
▁Flaschen	-10.2008
▁gleichen	-10.203
sten	-10.2034
gehen	-10.2044
ze	-10.2067
▁Stangen	-10.2085
▁Schirmen	-10.2088
▁Schleife	-10.2116
▁Videospiel	-10.2134
▁Kleider	-10.2145
▁Decken	-10.215
ug	-10.2186
▁Spiels	-10.2297
ir	-10.237
enden	-10.2416
▁abzu	-10.242
▁Süßigkeiten	-10.2483
▁nah	-10.2495
▁Volleyballspiel	-10.2496
▁Tennisspielerin	-10.2499
Eishockeyspieler	-10.2525
▁rosafarbene	-10.2531
braune	-10.2536
fährt	-10.2545
▁Deck	-10.2554
stellt	-10.2557
to	-10.2569
amerikanischer	-10.2574
▁Schiff	-10.2583
▁Polizei	-10.2586
▁Angel	-10.259
▁Luftballon	-10.2592
▁silberne	-10.2594
▁verschneite	-10.2595
▁Sonnenschirm	-10.2598
braunen	-10.26
▁graue	-10.2601
▁Fels	-10.2601
▁Kiste	-10.2602
up	-10.2617
maschine	-10.2629
fenster	-10.263
▁selbst	-10.2631
▁Krankenhaus	-10.2632
▁Trainer	-10.2632
▁Badezimmer	-10.2632
▁Bibliothek	-10.2632
▁Breakdance	-10.2632
▁Fernglas	-10.2632
▁Locken	-10.2632
▁Museum	-10.2632
▁Pfadfinder	-10.2632
▁Schmuck	-10.2632
▁Schmutz	-10.2632
▁Stehen	-10.2632
▁Streifen	-10.2632
▁Tablett	-10.2632
▁Zöpfen	-10.2632
▁aufmerksam	-10.2632
▁beginnt	-10.2632
▁drinnen	-10.2632
▁gleichzeitig	-10.2632
▁lockigen	-10.2632
▁spielerisch	-10.2632
▁webt	-10.2632
▁wendet	-10.2632
▁zubereitet	-10.2632
▁Innenstadt	-10.2632
▁feiert	-10.2632
▁einsamer	-10.2632
▁hindurch	-10.2632
▁bewegen	-10.2632
▁Aufführung	-10.2632
▁Stirnband	-10.2632
▁teilweise	-10.2632
▁Schlauchboot	-10.2632
▁landet	-10.2632
▁gewickelt	-10.2632
▁Akustikgitarre	-10.2633
▁schieben	-10.2633
▁Asiatinnen	-10.2633
▁Radrennen	-10.2633
▁khakifarbenen	-10.2633
▁glatzköpfiger	-10.2634
▁Snowboardfahrer	-10.2634
▁Einrad	-10.2635
▁vielleicht	-10.2635
▁Wasserski	-10.2635
▁Marktplatz	-10.2636
▁Gewändern	-10.2639
▁nächsten	-10.2639
▁Show	-10.264
▁Pitcher	-10.2641
▁Rettungswesten	-10.2642
▁ländlichen	-10.2645
▁vorbeigeht	-10.2648
▁Kugel	-10.265
▁Häusern	-10.265
▁Hocker	-10.2653
▁Tauben	-10.2653
▁bekleidete	-10.2653
laufen	-10.2654
▁Ringer	-10.2657
▁Produkte	-10.2658
▁greifen	-10.2661
▁ruhigen	-10.2661
▁wunderschöne	-10.2663
▁entlanggeht	-10.2663
▁Köpfen	-10.2665
▁farbigen	-10.2667
▁Grimassen	-10.2676
▁Rande	-10.2678
▁Scheibe	-10.2682
ha	-10.2684
▁Rauch	-10.2686
▁Blättern	-10.2693
▁rothaariges	-10.2706
▁Fahrrads	-10.2712
▁Dudelsack	-10.2715
▁aussehenden	-10.2729
▁Schul	-10.2804
end	-10.281
po	-10.2826
▁Dies	-10.2843
▁Bad	-10.2847
pf	-10.2847
deck	-10.29
▁Asiatische	-10.2917
schild	-10.2923
des	-10.2977
▁Kameras	-10.3023
ien	-10.3035
ler	-10.3062
co	-10.3207
L	-10.3223
it	-10.3232
ort	-10.3269
pr	-10.3289
is	-10.3293
Station	-10.3329
Zeichen	-10.3331
▁barfüßige	-10.3344
▁Kamel	-10.3345
▁dritte	-10.3349
▁verlassen	-10.3349
▁Handschuh	-10.3351
▁Hoch	-10.3357
▁unbefestigte	-10.3357
mütze	-10.3358
▁Ozean	-10.3359
▁Wange	-10.336
▁Karte	-10.3363
▁Stühle	-10.3364
hose	-10.3365
▁beladen	-10.3373
▁hellhäutige	-10.3375
▁Figur	-10.3378
stuhl	-10.3394
▁Lächeln	-10.3399
▁fallen	-10.3399
aus	-10.3401
kurs	-10.3401
Gesichtsbemalung	-10.3401
▁Anhänger	-10.3401
▁Asien	-10.3401
▁Fänger	-10.3401
▁Gymnastik	-10.3401
▁Strickmütze	-10.3401
▁Turban	-10.3401
▁Versammlung	-10.3401
▁Werkstatt	-10.3401
▁jubelt	-10.3401
▁sowie	-10.3401
▁streicht	-10.3401
▁vorbereitet	-10.3401
▁leckt	-10.3401
▁Ballerina	-10.3401
▁Inline	-10.3401
▁abends	-10.3401
▁Laborkittel	-10.3401
▁Pudel	-10.3401
▁Kettensäge	-10.3401
▁grillen	-10.3401
▁Bauarbeiten	-10.3401
▁Kunststoff	-10.3401
▁bilden	-10.3401
▁Marathonläufer	-10.3401
▁gestikuliert	-10.3401
▁Halstuch	-10.3401
buch	-10.3402
▁Golfball	-10.3402
▁Szene	-10.3404
▁Stern	-10.3404
▁Achterbahn	-10.3404
▁klatscht	-10.3404
isch	-10.3405
▁brauen	-10.3405
▁Inlineskates	-10.3406
▁Modell	-10.3407
▁Papiere	-10.3415
▁verheiratetes	-10.3416
▁rosafarbener	-10.3417
▁aussehen	-10.3418
▁erwachsener	-10.342
▁Biker	-10.3422
▁gestreiftes	-10.3422
▁indischer	-10.3424
▁Hochzeitskleid	-10.3426
▁dieser	-10.3427
▁graben	-10.3427
▁Maler	-10.3438
▁Bällen	-10.344
▁stehend	-10.3441
▁Ohren	-10.3442
▁vorn	-10.3447
▁Uhr	-10.3448
▁Cafe	-10.3456
▁Um	-10.3456
▁geparkten	-10.3459
▁weiter	-10.3461
▁Fingern	-10.3486
▁Kasse	-10.3491
ka	-10.3494
▁Tanzen	-10.35
▁Schilder	-10.3505
icht	-10.3531
nis	-10.354
▁stehender	-10.3544
▁Herren	-10.3545
ische	-10.3556
landschaft	-10.356
blau	-10.3584
age	-10.3589
▁orientalische	-10.3595
▁Seilen	-10.3646
tag	-10.372
▁Radfahrern	-10.3751
▁knien	-10.3774
▁Mützen	-10.3785
▁Hotel	-10.3787
▁Kindes	-10.3835
ma	-10.3864
ass	-10.3886
▁Kunstwerke	-10.3894
▁Mi	-10.3898
▁Netze	-10.3931
am	-10.3951
gang	-10.4011
tte	-10.4011
nehmen	-10.4021
na	-10.4069
▁Ma	-10.4076
ker	-10.4089
Kostüm	-10.4131
▁gold	-10.4145
läuft	-10.4163
land	-10.4164
Hut	-10.4167
sitz	-10.4169
▁bekleidet	-10.4181
auf	-10.4182
helm	-10.4185
▁Ziegel	-10.419
▁Heißluftballon	-10.4191
▁Schach	-10.4192
▁fertig	-10.4193
▁Hüte	-10.4194
▁Schwimmweste	-10.4195
▁Kette	-10.4195
▁Bälle	-10.4196
▁Köpfe	-10.4196
▁Welpe	-10.4196
▁Rugby	-10.4197
▁geöffnet	-10.4201
▁hart	-10.4202
▁Linie	-10.4202
▁Tätowierung	-10.4203
▁Bewegung	-10.4204
▁Schafe	-10.4207
▁Renn	-10.4209
bild	-10.4216
▁Lauf	-10.4218
▁Herbst	-10.4222
wand	-10.4226
block	-10.4229
do	-10.423
▁Beleuchtung	-10.4231
▁Kreuz	-10.4232
▁Konferenz	-10.4234
artigen	-10.4234
rampe	-10.4234
▁Hafen	-10.4234
▁aufgereiht	-10.4234
▁begeistert	-10.4234
▁sauber	-10.4234
▁Badeanzügen	-10.4234
▁Früchte	-10.4234
▁Nebel	-10.4234
▁Operation	-10.4234
▁Rikscha	-10.4234
▁Tarnkleidung	-10.4234
▁Teilnehmer	-10.4234
▁Treppenstufen	-10.4234
▁Vergnügungspark	-10.4234
▁Zahlreiche	-10.4234
▁beisammen	-10.4234
▁gemacht	-10.4234
▁glänzenden	-10.4234
▁paddeln	-10.4234
▁sandigen	-10.4234
▁schnitzt	-10.4234
▁watet	-10.4234
▁Home	-10.4234
▁prüft	-10.4234
▁Während	-10.4234
▁angeboten	-10.4234
▁lernt	-10.4234
▁Lieferwagen	-10.4234
▁kümmert	-10.4234
▁Waschbecken	-10.4234
▁Board	-10.4234
▁packt	-10.4234
▁Spaziergang	-10.4234
▁Schulkinder	-10.4234
▁Kies	-10.4234
▁Kneipe	-10.4234
▁ansieht	-10.4234
▁Apfel	-10.4234
▁suchen	-10.4234
▁abgestellt	-10.4235
▁tut	-10.4235
▁Trainingsanzug	-10.4235
▁begleitet	-10.4235
▁DJ	-10.4235
▁Fischernetz	-10.4235
▁Arzt	-10.4235
▁Jackett	-10.4235
▁Theater	-10.4235
▁USA	-10.4235
▁Haltung	-10.4235
▁dunklem	-10.4235
▁Betonwand	-10.4236
▁manche	-10.4236
▁Sprungbrett	-10.4236
Maschendrahtzaun	-10.4237
▁herumstehen	-10.4237
▁waschen	-10.4237
▁Stahl	-10.4238
▁Sicht	-10.4238
▁Kran	-10.4238
▁Knöpfen	-10.4239
▁Freundin	-10.4241
▁gestreifter	-10.4242
schlag	-10.4242
▁gepunkteten	-10.4243
▁Autobahn	-10.4243
▁Banner	-10.4244
ist	-10.4244
▁Wasserrutsche	-10.4244
▁Laster	-10.4245
▁Tänzerin	-10.4245
▁Platte	-10.4245
▁putzen	-10.425
farbe	-10.4255
▁Schneeanzug	-10.4256
▁Mountainbiker	-10.4261
▁legen	-10.4264
▁ich	-10.4265
▁Tätowierungen	-10.4265
▁geöffneten	-10.4265
▁Gesichtern	-10.4266
träger	-10.4268
▁traditionellen	-10.427
mannschaften	-10.429
▁Dreirad	-10.429
▁hübsche	-10.4297
▁Geräten	-10.4298
▁Ab	-10.4304
▁z	-10.4307
▁Trommeln	-10.431
▁Klasse	-10.4316
▁Tiere	-10.4319
▁Mar	-10.4328
▁Clowns	-10.4336
▁aufgeregt	-10.4337
▁Schüsseln	-10.434
▁bemalten	-10.4344
▁aneinander	-10.4356
tel	-10.4366
▁Cowboys	-10.4372
▁Türen	-10.4388
ue	-10.4397
spielzeug	-10.4402
▁Rohr	-10.4418
▁Fahrradhelm	-10.4422
▁Bu	-10.4437
▁Fa	-10.444
oo	-10.4459
pa	-10.4462
▁Computern	-10.4485
uch	-10.4499
zeug	-10.45
▁altes	-10.4515
unde	-10.4534
il	-10.4538
▁Kleinkinder	-10.4546
ende	-10.4616
▁tätowierte	-10.4628
ord	-10.4631
▁ange	-10.4708
führen	-10.4717
erin	-10.4735
im	-10.4748
eln	-10.479
halten	-10.4796
▁Booten	-10.4797
▁ähnlich	-10.4837
tem	-10.4856
▁Mitarbeiter	-10.4859
▁schreiben	-10.4877
nen	-10.488
ling	-10.4883
▁Kerle	-10.4884
▁kurze	-10.492
ad	-10.4965
sehen	-10.4966
▁f	-10.498
ckt	-10.5007
ben	-10.5021
schaut	-10.5028
bekleidung	-10.5042
▁hohe	-10.5046
▁Gürtel	-10.5055
I	-10.5069
▁nass	-10.5071
gebäude	-10.5072
V	-10.5072
Outfit	-10.5075
Geschäft	-10.5075
▁Lager	-10.5098
▁Waffe	-10.51
▁Karton	-10.5102
statue	-10.5103
straße	-10.5104
▁Einkaufstasche	-10.5104
▁Stöcke	-10.5105
▁Feder	-10.5105
j	-10.5106
▁Auge	-10.5108
▁linke	-10.511
▁ausgestreckt	-10.5119
▁Alter	-10.512
▁Ausstellung	-10.5127
show	-10.5132
skulptur	-10.5134
▁Wette	-10.5135
boden	-10.5136
mel	-10.5142
▁Wakeboard	-10.5142
▁Ze	-10.5142
▁Kricket	-10.5143
tanz	-10.5143
▁Natur	-10.5143
▁College	-10.5143
▁Pizza	-10.5143
▁Ureinwohner	-10.5143
▁Zylinder	-10.5143
ansammlung	-10.5143
uarterback	-10.5143
▁Beachvolleyball	-10.5143
▁Erzeugnisse	-10.5143
▁Felsvorsprung	-10.5143
▁Freude	-10.5143
▁Händchen	-10.5143
▁John	-10.5143
▁Kante	-10.5143
▁Pferdeschwanz	-10.5143
▁Rahmen	-10.5143
▁Röhre	-10.5143
▁Smoking	-10.5143
▁Telefonzelle	-10.5143
▁Türöffnung	-10.5143
▁Vorrichtung	-10.5143
▁attraktive	-10.5143
▁geschnitten	-10.5143
▁möglicherweise	-10.5143
▁präsentiert	-10.5143
▁rückwärts	-10.5143
▁sammeln	-10.5143
▁schütteln	-10.5143
▁serviert	-10.5143
▁stößt	-10.5143
▁vergnügt	-10.5143
▁verteilt	-10.5143
▁Namen	-10.5143
▁Tracht	-10.5143
▁gesprungen	-10.5143
Baseballschläger	-10.5143
▁Lasso	-10.5143
▁Ofen	-10.5143
▁Vorderseite	-10.5143
▁abgeworfen	-10.5144
▁Bordstein	-10.5144
▁Webstuhl	-10.5144
▁Lagerfeuer	-10.5144
▁City	-10.5144
▁Aussicht	-10.5144
▁Erdhügel	-10.5144
▁Redner	-10.5144
▁Dock	-10.5144
▁Pfeil	-10.5144
▁besteht	-10.5144
▁Schlagmann	-10.5144
▁Fußballdress	-10.5144
▁Acht	-10.5144
▁Karussell	-10.5144
▁Brettspiel	-10.5145
▁Fass	-10.5145
▁Holzbank	-10.5145
▁Geländewagen	-10.5145
▁flauschiger	-10.5145
korb	-10.5145
▁Obststand	-10.5147
▁Stab	-10.5147
▁Experiment	-10.5147
▁rudern	-10.5147
▁schwebt	-10.5147
▁transportiert	-10.5147
▁treiben	-10.5147
▁langärmeligen	-10.5149
▁Perlen	-10.5149
▁Eiscreme	-10.515
▁pinkfarbener	-10.5152
▁Gehen	-10.5152
▁örtlichen	-10.5153
▁Gläsern	-10.5153
▁Turnschuhen	-10.5153
▁Stunt	-10.5154
▁fein	-10.5154
▁Gericht	-10.5157
▁hoher	-10.5157
▁seltsamen	-10.5157
▁Boxer	-10.5157
▁Sieg	-10.5159
▁japanischen	-10.516
▁silberfarbenen	-10.516
werk	-10.516
▁weil	-10.5161
▁Muster	-10.5161
▁wirbelt	-10.5161
▁ruhen	-10.5161
▁drückt	-10.5161
▁Top	-10.5163
▁Am	-10.5164
▁bietet	-10.5167
▁angebracht	-10.5172
▁braunhaariger	-10.5174
▁bekleideter	-10.5175
▁Säulen	-10.5178
▁passenden	-10.5185
bad	-10.5193
▁gefüllten	-10.5203
▁Jugendlichen	-10.5215
tik	-10.5218
▁Orangen	-10.5219
▁Gegenständen	-10.5223
▁beleuchtet	-10.5241
▁Fußgängern	-10.5245
weißes	-10.5246
▁gehender	-10.5251
▁Wassers	-10.5261
▁leuchtenden	-10.5276
▁Laptops	-10.5287
stein	-10.5292
▁Ei	-10.5293
▁Ro	-10.5299
▁diese	-10.5309
▁Maschinen	-10.5341
▁Fischen	-10.5344
amm	-10.5347
▁männlichen	-10.5355
▁Mädchens	-10.5361
▁Lebensmitteln	-10.5371
zunehmen	-10.539
▁indem	-10.5392
▁rechte	-10.5427
hä	-10.5434
▁Helme	-10.5462
op	-10.5469
▁Unter	-10.5574
▁Windhund	-10.5608
▁Paare	-10.5609
kel	-10.564
Straßenverkäufer	-10.5649
ale	-10.5675
D	-10.5679
▁Shirts	-10.5687
iel	-10.5781
▁dunkel	-10.5801
rädern	-10.5802
W	-10.5838
▁Ra	-10.5848
▁p	-10.5855
▁h	-10.5887
eck	-10.5894
pe	-10.5902
ungen	-10.5912
assen	-10.5912
kleid	-10.5914
▁soll	-10.5916
tor	-10.5945
▁Eishockey	-10.5984
ett	-10.5999
▁schneebedeckte	-10.6058
grauen	-10.6059
▁Zu	-10.6064
G	-10.6071
Scheibe	-10.6072
schlafen	-10.6074
gucken	-10.6074
U	-10.6074
Kleidung	-10.6075
rand	-10.608
äu	-10.6093
and	-10.6102
▁fröhlich	-10.6103
fläche	-10.6103
▁Halskette	-10.6103
▁Knie	-10.6104
▁Ente	-10.6104
▁Säule	-10.6105
▁brennende	-10.6107
▁Pflanze	-10.6109
▁Schlittschuh	-10.6111
▁Ho	-10.6112
▁Herz	-10.6115
fall	-10.612
▁pink	-10.6122
▁bevor	-10.6129
▁Puppe	-10.6131
▁Handschuhe	-10.6133
▁Ballett	-10.6133
boot	-10.6138
scheibe	-10.6139
behälter	-10.6141
▁Banjo	-10.6143
▁Lacrosse	-10.6143
▁Bambus	-10.6143
oga	-10.6143
ffentlichkeit	-10.6143
▁Ampel	-10.6143
▁Axt	-10.6143
▁Bergsteiger	-10.6143
▁Dämmerung	-10.6143
▁Entfernung	-10.6143
▁Fontäne	-10.6143
▁Herkunft	-10.6143
▁Hoodie	-10.6143
▁Hüfte	-10.6143
▁Leggings	-10.6143
▁Partie	-10.6143
▁Pilot	-10.6143
▁Pink	-10.6143
▁Pullunder	-10.6143
▁Rosa	-10.6143
▁Schaulustige	-10.6143
▁Stelzen	-10.6143
▁Unterwäsche	-10.6143
▁Verteidiger	-10.6143
▁Vortrag	-10.6143
▁abgebildet	-10.6143
▁amüsiert	-10.6143
▁ebenfalls	-10.6143
▁festgebunden	-10.6143
▁filmt	-10.6143
▁gefolgt	-10.6143
▁kauert	-10.6143
▁ließt	-10.6143
▁meisten	-10.6143
▁namens	-10.6143
▁regnerischen	-10.6143
▁schminkt	-10.6143
▁schneit	-10.6143
▁stolz	-10.6143
▁trifft	-10.6143
▁unordentlichen	-10.6143
▁Esstisch	-10.6143
▁kratzt	-10.6143
▁unterrichtet	-10.6143
▁Rückseite	-10.6143
▁Schmetterling	-10.6143
▁Schritt	-10.6143
▁Strumpfhose	-10.6143
▁streichen	-10.6143
▁Turm	-10.6143
▁Auslage	-10.6143
▁Lippen	-10.6143
▁Reklametafel	-10.6143
▁erklimmen	-10.6143
▁Klappstuhl	-10.6144
▁Rücksitz	-10.6144
▁überall	-10.6144
▁Motorhaube	-10.6144
▁formt	-10.6144
▁spärlich	-10.6144
▁fischen	-10.6144
▁fischt	-10.6144
▁oberen	-10.6144
▁rutschen	-10.6144
▁verwenden	-10.6144
▁löschen	-10.6144
▁strecken	-10.6144
▁mischt	-10.6144
▁Waschmaschine	-10.6144
▁Freizeitpark	-10.6144
▁blocken	-10.6144
kopf	-10.6144
▁Ziegelwand	-10.6144
▁Ziellinie	-10.6144
▁Unterhemd	-10.6144
▁Mülleimer	-10.6144
▁Bruder	-10.6144
▁Schnur	-10.6144
▁Steintreppe	-10.6144
▁Gipfel	-10.6144
▁Straßenseite	-10.6145
▁Landstraße	-10.6145
▁Schutzkleidung	-10.6145
▁Holzzaun	-10.6145
▁Metallstange	-10.6145
▁staubigen	-10.6146
▁Kilt	-10.6147
▁Namensschild	-10.6147
▁Essensstand	-10.6147
▁Kürbis	-10.6147
▁passiert	-10.6147
▁Holzboden	-10.6147
▁Hier	-10.6147
▁Leinwand	-10.6148
▁Swimmingpool	-10.6148
▁Aufzug	-10.6148
▁Jeep	-10.6148
▁Tomaten	-10.615
▁übergewichtiger	-10.615
▁Video	-10.6151
▁jeder	-10.6152
▁fremden	-10.6152
▁niedrigen	-10.6155
▁Ziegelsteinen	-10.6155
▁ungewöhnlichen	-10.6155
▁Frisur	-10.6155
▁Feuerwehrauto	-10.6155
▁Präsentation	-10.6155
▁US	-10.6155
▁Schneeschuhen	-10.6157
▁größeren	-10.6158
▁kurzem	-10.616
▁Käse	-10.6161
▁c	-10.6163
▁Junger	-10.6163
▁nasser	-10.6165
▁Gleisen	-10.6165
▁gesehen	-10.6165
zelt	-10.6166
▁jüngerer	-10.6166
▁fliegenden	-10.6166
▁Körben	-10.6166
▁Babys	-10.6168
ziehen	-10.6174
▁Hallen	-10.6174
▁liegenden	-10.6177
om	-10.6184
▁Stöcken	-10.6186
bett	-10.62
▁Gitarristen	-10.6205
▁Kostüme	-10.6205
▁afrikanischen	-10.6211
▁Rugbyspieler	-10.6212
▁oranger	-10.6233
Schutzausrüstung	-10.6242
▁traditionelle	-10.6247
▁Bildern	-10.6277
▁Overalls	-10.6281
▁Bootes	-10.6288
schen	-10.6306
▁verschieden	-10.6308
ender	-10.6312
▁Gitarren	-10.6322
▁Eimern	-10.6355
▁Herrn	-10.6381
▁männliches	-10.6393
▁Sonnen	-10.6412
form	-10.6422
▁Richtungen	-10.6432
Sicherheitsweste	-10.6434
▁Porträt	-10.6438
▁lächelnden	-10.6474
itt	-10.6481
ine	-10.6482
▁Segelboot	-10.6488
amerikanische	-10.6543
▁Hundes	-10.6556
▁Le	-10.6585
kampf	-10.659
son	-10.6634
her	-10.6639
lle	-10.6641
eis	-10.6658
▁uns	-10.6759
iss	-10.6785
maske	-10.6841
konstruktion	-10.685
▁orientalisch	-10.6852
schwarz	-10.6873
ust	-10.6874
ho	-10.6895
fest	-10.6897
schl	-10.6915
cht	-10.6924
▁Boots	-10.703
one	-10.7047
tier	-10.7065
ner	-10.7126
essen	-10.716
lassen	-10.7176
Derby	-10.7179
klettert	-10.7179
zw	-10.718
setzt	-10.7182
treten	-10.7185
werfen	-10.7186
▁Asiat	-10.7187
▁spring	-10.7191
bung	-10.7198
arbeit	-10.72
▁Schaf	-10.7204
▁Mit	-10.7207
▁mehrfarbige	-10.7209
dach	-10.7211
▁Aufnahme	-10.7213
▁Sessel	-10.7213
▁Mitglied	-10.7213
▁warm	-10.7213
▁würde	-10.7214
▁chinesische	-10.7215
▁Schachtel	-10.7216
▁aufblasbare	-10.7217
▁steile	-10.7217
▁Produkt	-10.7218
▁Rollschuh	-10.7218
▁Lampe	-10.722
▁besucht	-10.7221
▁Student	-10.7224
▁dekoriert	-10.7227
▁Hockeyspiel	-10.7227
▁gepflasterte	-10.723
trick	-10.7232
▁Erd	-10.7235
▁Saxofon	-10.7237
hügel	-10.7239
schaukel	-10.7244
brett	-10.7247
▁gra	-10.7248
▁Treppenhaus	-10.7249
▁Flip	-10.7249
muster	-10.7252
mauer	-10.7252
▁schützen	-10.7252
▁schlecht	-10.7252
stange	-10.7252
▁schwingen	-10.7252
▁Gummi	-10.7253
▁Friseur	-10.7253
▁Ruder	-10.7254
▁Freiluft	-10.7254
▁Cello	-10.7254
▁Flug	-10.7254
▁Horn	-10.7254
▁Ober	-10.7254
wettbewerb	-10.7254
▁Halloween	-10.7255
▁Begeisterung	-10.7255
▁Betrachter	-10.7255
▁Beutel	-10.7255
▁Bündel	-10.7255
▁Darbietung	-10.7255
▁Flipflops	-10.7255
▁Forscher	-10.7255
▁Garage	-10.7255
▁Geschwindigkeit	-10.7255
▁Hamburger	-10.7255
▁Irokesenschnitt	-10.7255
▁Kapuzenpullover	-10.7255
▁Konstruktion	-10.7255
▁Kraft	-10.7255
▁Lokal	-10.7255
▁Nachbarschaft	-10.7255
▁Neugeborenes	-10.7255
▁Paket	-10.7255
▁Plate	-10.7255
▁Studio	-10.7255
▁Wohnung	-10.7255
▁ausgezogen	-10.7255
▁bedienen	-10.7255
▁dribbelt	-10.7255
▁entfernen	-10.7255
▁formeller	-10.7255
▁füllen	-10.7255
▁gelangen	-10.7255
▁getroffen	-10.7255
▁jeweils	-10.7255
▁möchte	-10.7255
▁protestiert	-10.7255
▁schützt	-10.7255
▁seichten	-10.7255
▁spaziert	-10.7255
▁tagsüber	-10.7255
▁unglücklich	-10.7255
▁vergnügen	-10.7255
▁vorführt	-10.7255
▁völlig	-10.7255
▁gefangen	-10.7255
▁umringt	-10.7255
▁überprüfen	-10.7255
▁daran	-10.7255
▁kastanienbraune	-10.7255
gefeuert	-10.7255
▁Schlafzimmer	-10.7255
▁darin	-10.7255
▁teilnehmen	-10.7255
▁Gehstock	-10.7255
▁Wildwasser	-10.7255
▁Karohemd	-10.7255
▁Felsbrocken	-10.7255
▁folgen	-10.7255
▁dahinter	-10.7255
▁China	-10.7255
▁Plüschtier	-10.7255
▁boxen	-10.7255
▁Bauernmarkt	-10.7255
▁Stativ	-10.7255
▁Oberfläche	-10.7255
▁schaukeln	-10.7255
▁Polohemd	-10.7255
▁mäht	-10.7255
▁Regenmantel	-10.7255
▁Außenbereich	-10.7255
▁Ansicht	-10.7255
ständer	-10.7255
▁Verkaufsstand	-10.7255
▁Grau	-10.7255
▁Laufbahn	-10.7255
▁gespannt	-10.7255
▁Flussufer	-10.7256
▁Bass	-10.7256
▁Wollmütze	-10.7256
▁Tanzfläche	-10.7256
▁bestellen	-10.7256
▁Sandburg	-10.7256
▁Spiegelbild	-10.7256
▁hervor	-10.7256
▁betreten	-10.7257
▁Straßenarbeiter	-10.7257
▁dieselbe	-10.7257
▁Kampfsportler	-10.7257
▁Rasenfläche	-10.7257
▁bewaldeten	-10.7257
▁erhobenen	-10.7257
▁Stromschnellen	-10.7257
▁Tennisplatz	-10.7258
▁Mitspieler	-10.7258
▁Straßenmusiker	-10.7259
▁Absperrung	-10.7259
▁Sp	-10.7259
▁Start	-10.7259
loch	-10.7259
▁Fabrik	-10.7259
▁Ziegelgebäude	-10.7259
▁Käfig	-10.7259
▁Sandhügel	-10.7259
▁bindet	-10.7259
▁schlendert	-10.7259
▁Parcours	-10.7259
▁erreichen	-10.726
▁Musikgruppe	-10.726
▁Patienten	-10.726
▁Nachrichten	-10.726
▁Kopfschmuck	-10.7261
steigen	-10.7261
▁Sandwich	-10.7261
▁Werfer	-10.7261
▁Einkaufstüten	-10.7262
▁Wolken	-10.7262
▁spritzen	-10.7263
rock	-10.7264
▁Wasserbecken	-10.7264
▁Kon	-10.7264
▁Hinterbeinen	-10.7266
▁elektrischen	-10.7266
▁klaren	-10.7266
▁fasst	-10.7268
▁Stil	-10.7269
▁Papa	-10.727
▁anhaben	-10.727
▁Flügeln	-10.7271
▁verzierten	-10.7272
▁dritter	-10.7274
▁bedruckten	-10.7275
▁erleuchteten	-10.7275
▁schlammigen	-10.7275
▁Blasen	-10.7275
▁Großer	-10.7275
▁Texas	-10.7276
▁befahrenen	-10.728
▁angehalten	-10.728
▁Wasserfläche	-10.7281
▁stürzt	-10.7285
▁warmen	-10.7286
▁freien	-10.7286
▁Rast	-10.7288
ör	-10.7292
▁holen	-10.7293
rolle	-10.7295
▁Puppen	-10.7298
▁wieder	-10.7298
▁angezogener	-10.7299
▁schneebedecktes	-10.7301
▁Kartons	-10.7306
▁hohes	-10.7306
pult	-10.7315
▁Zeitschriften	-10.7316
▁Tal	-10.7317
▁heller	-10.7317
▁hübschen	-10.732
▁orangefarbenes	-10.7327
amerikanisches	-10.7333
▁Fahrzeuge	-10.7334
▁Flusses	-10.7337
▁Fische	-10.7338
untergekommenen	-10.734
ger	-10.7342
▁La	-10.7348
kette	-10.7357
▁Station	-10.7363
▁Bildes	-10.7376
ans	-10.7393
▁kleineren	-10.7396
nd	-10.74
▁amerikanischer	-10.7411
▁aussehendes	-10.7421
▁weiteren	-10.7432
▁i	-10.7436
wei	-10.7444
ce	-10.7455
▁bestehend	-10.7458
▁lachende	-10.7462
stellung	-10.7471
rot	-10.7477
▁Motor	-10.7479
▁Schürzen	-10.7549
mische	-10.755
▁diesen	-10.7552
▁Schw	-10.7563
▁ruhig	-10.7577
▁Gr	-10.7634
och	-10.7657
▁Bl	-10.7657
hund	-10.7658
dem	-10.766
froamerikanische	-10.7769
▁Sommer	-10.7773
▁Di	-10.7776
Holzkonstruktion	-10.7784
▁Co	-10.7785
▁Zauns	-10.7788
ers	-10.779
▁Box	-10.7793
▁fr	-10.7817
▁Film	-10.7846
▁Rennens	-10.7856
▁Bauwerk	-10.7865
▁Windhunde	-10.7889
▁Li	-10.7927
bel	-10.7944
▁Schutz	-10.7951
hl	-10.7959
▁Fenstern	-10.7989
▁Groß	-10.803
▁los	-10.8047
gew	-10.8056
kommen	-10.8059
▁glückliche	-10.8066
Saiteninstrument	-10.8073
▁de	-10.8079
ve	-10.8097
▁Ka	-10.8115
go	-10.813
recht	-10.8178
ring	-10.8251
blauem	-10.8272
▁türkis	-10.8287
spielen	-10.8291
grün	-10.833
▁Reis	-10.8342
▁Straßenfest	-10.838
hren	-10.8381
guckt	-10.841
voll	-10.8422
orangefarbenen	-10.8436
Band	-10.8437
vor	-10.844
▁Fliege	-10.8449
▁dünne	-10.845
▁Hinter	-10.8459
▁Snack	-10.846
▁Beamte	-10.8461
▁Hotdog	-10.8462
▁Pfanne	-10.8465
▁Halle	-10.8466
▁Taube	-10.8467
ation	-10.8467
▁Stiefel	-10.8467
▁kahl	-10.8468
▁Seifenblase	-10.8469
▁traurig	-10.8469
▁Fackel	-10.8469
▁albern	-10.8471
▁geschmückt	-10.8472
▁ausgebreitet	-10.8473
▁Wind	-10.8473
▁Klein	-10.8474
▁Skateboards	-10.8474
▁Tourist	-10.8474
▁erhält	-10.8477
eace	-10.8479
schlauch	-10.8479
▁Passagiere	-10.848
▁violett	-10.8487
ltere	-10.8488
ahr	-10.8491
▁einzelne	-10.8492
iges	-10.8496
▁Footballspiel	-10.8497
▁Kellner	-10.85
arbeiter	-10.8502
▁angezogene	-10.8502
schüssel	-10.8503
oberteil	-10.8503
glas	-10.8503
linie	-10.8503
foto	-10.8504
▁Unfall	-10.8504
haltung	-10.8504
stapel	-10.8504
zentrum	-10.8504
▁Elmo	-10.8505
▁Mopp	-10.8505
▁Oldtimer	-10.8505
▁Walmart	-10.8505
Flops	-10.8505
ylophon	-10.8505
▁Aktentasche	-10.8505
▁Badekappe	-10.8505
▁Batman	-10.8505
▁Baumstumpf	-10.8505
▁Blaskapelle	-10.8505
▁Dunkelheit	-10.8505
▁Fächer	-10.8505
▁Glatze	-10.8505
▁Gleichgewicht	-10.8505
▁Hängematte	-10.8505
▁Marmor	-10.8505
▁Monopoly	-10.8505
▁Müllcontainer	-10.8505
▁Pfeife	-10.8505
▁Pistole	-10.8505
▁Schlucht	-10.8505
▁Smartphone	-10.8505
▁Supermarkt	-10.8505
▁Verschiedene	-10.8505
▁Wachmann	-10.8505
▁Zahn	-10.8505
▁Zahnbürste	-10.8505
▁Zeremonie	-10.8505
▁Zigarre	-10.8505
▁ausgeschnittene	-10.8505
▁bockenden	-10.8505
▁darüber	-10.8505
▁elektronischen	-10.8505
▁erklimmt	-10.8505
▁faulenzen	-10.8505
▁gefallen	-10.8505
▁heraushängender	-10.8505
▁hüpfen	-10.8505
▁kämpft	-10.8505
▁meißelt	-10.8505
▁muskulöser	-10.8505
▁probiert	-10.8505
▁rührt	-10.8505
▁saugt	-10.8505
▁schnüffelt	-10.8505
▁schwenken	-10.8505
▁skatet	-10.8505
▁sortiert	-10.8505
▁sägt	-10.8505
▁telefonieren	-10.8505
▁verschränkten	-10.8505
▁vorsichtig	-10.8505
▁zuhört	-10.8505
▁öffnen	-10.8505
▁Buchstaben	-10.8505
▁gelegenen	-10.8505
▁gespielt	-10.8505
▁schnappt	-10.8505
▁welche	-10.8505
▁betet	-10.8505
▁Backflip	-10.8505
▁Garn	-10.8505
▁Hosenträgern	-10.8505
▁Indien	-10.8505
▁Jogger	-10.8505
▁Kaffeetasse	-10.8505
▁Staub	-10.8505
▁Ladefläche	-10.8505
▁Backsteinmauer	-10.8505
▁Billard	-10.8505
▁Stroh	-10.8505
▁blockt	-10.8505
▁Horizont	-10.8505
▁Wildnis	-10.8505
ußgängerübergang	-10.8505
▁beißen	-10.8505
▁lernen	-10.8505
▁eingewickelt	-10.8505
▁Europa	-10.8505
▁Block	-10.8505
▁schaufeln	-10.8505
▁Vorführung	-10.8505
▁muss	-10.8505
box	-10.8505
▁of	-10.8505
▁tun	-10.8505
▁Sommertag	-10.8505
▁rostigen	-10.8505
▁gewinnen	-10.8505
▁Neben	-10.8505
▁soeben	-10.8505
▁Sonnenlicht	-10.8505
▁Grünfläche	-10.8505
▁Hochstuhl	-10.8505
▁Laufband	-10.8505
▁Anzahl	-10.8505
▁bürstet	-10.8505
▁Geldautomaten	-10.8505
▁Ziegelbau	-10.8505
▁späht	-10.8505
▁Bord	-10.8506
▁Feuerstelle	-10.8506
▁Steinbank	-10.8506
▁Randstein	-10.8506
▁Osten	-10.8506
▁Spielsachen	-10.8506
▁OP	-10.8506
▁Straßenszene	-10.8506
▁Betonmauer	-10.8506
hand	-10.8507
▁Wassersprenger	-10.8507
ood	-10.8508
▁Wippe	-10.8508
stab	-10.8508
▁Fischmarkt	-10.8508
▁hellgrünen	-10.8508
▁Sporthalle	-10.8508
▁Holzbrett	-10.8508
▁Kajakfahrer	-10.8509
▁Straßenrennen	-10.8509
▁Baseballfeld	-10.851
▁High	-10.851
▁Videokamera	-10.851
▁Kaufhaus	-10.851
▁Wanne	-10.851
▁Straßenbahn	-10.851
▁Waffel	-10.8511
▁irgendeinem	-10.8511
▁Demonstranten	-10.8511
▁Olympischen	-10.8513
▁trockenen	-10.8513
▁hohem	-10.8513
wasser	-10.8514
▁uniformierter	-10.8514
▁legerer	-10.8514
Bahnstation	-10.8517
▁frischem	-10.8517
▁beten	-10.8518
▁Fernseher	-10.8518
tuch	-10.8519
▁Anweisungen	-10.8519
hosen	-10.8519
▁passt	-10.8519
▁sprüht	-10.8519
▁Stadtpark	-10.852
mann	-10.852
▁Staubsauger	-10.852
▁altmodischen	-10.8523
▁schmalen	-10.8523
▁breiten	-10.8524
▁vorderen	-10.8524
icher	-10.8524
▁Busses	-10.8526
▁verwirrt	-10.8531
▁Läuferin	-10.8532
▁Tüten	-10.8534
▁schwere	-10.8535
▁Regenbogen	-10.8535
▁dicken	-10.8539
▁Ziegen	-10.8539
▁the	-10.8539
▁rosaroten	-10.8539
▁Wa	-10.8541
▁orientalischer	-10.8542
▁kompletter	-10.8543
▁Militäruniform	-10.8544
▁Einkäufer	-10.8547
▁schöner	-10.8548
zusehen	-10.8548
▁rothaariger	-10.8548
▁Kittel	-10.8549
▁Lampen	-10.8549
▁mehrfarbigen	-10.8549
▁Schachteln	-10.8549
▁Rennfahrer	-10.855
▁Figuren	-10.8558
▁richten	-10.8559
gefahren	-10.8568
▁dritten	-10.857
Air	-10.8574
▁Ozeans	-10.8575
▁weiterer	-10.8578
▁Vögeln	-10.8581
▁Jockeys	-10.8586
▁unteren	-10.8587
▁Weißer	-10.8601
▁Brillen	-10.8613
mach	-10.8623
wart	-10.8653
▁Armee	-10.8654
▁Flugzeugs	-10.8687
▁Einsatz	-10.8694
▁Hause	-10.8709
eil	-10.8723
aft	-10.8736
▁g	-10.8754
▁Fahrzeugen	-10.8762
tra	-10.8772
wissenschaftlich	-10.8772
▁gerichtet	-10.878
▁Zelten	-10.8793
▁Pe	-10.8805
▁schlafend	-10.8814
hal	-10.8825
▁leere	-10.8832
uchte	-10.884
▁Teenagern	-10.8851
▁Kopfbedeckungen	-10.8855
ak	-10.8883
eist	-10.8888
▁umgebenen	-10.8929
tu	-10.8941
liche	-10.8996
▁einiger	-10.9011
alt	-10.9018
fahrrad	-10.9075
ble	-10.9086
▁irgendeine	-10.9094
ance	-10.9179
att	-10.9226
stück	-10.9227
▁Handys	-10.9248
▁Form	-10.9256
▁sp	-10.9258
nkt	-10.9264
acht	-10.9268
elle	-10.927
ay	-10.9272
raum	-10.9331
ite	-10.9332
ba	-10.9334
▁Arbeitern	-10.9337
N	-10.9367
int	-10.9413
los	-10.9416
les	-10.9456
man	-10.9523
▁Stofftier	-10.9531
amp	-10.9542
▁Punkt	-10.9543
▁Eisenbahn	-10.9558
icherheitswesten	-10.9579
automaten	-10.9589
▁frische	-10.9591
▁hocken	-10.9601
ia	-10.9624
▁De	-10.9636
▁Pa	-10.9642
▁Nach	-10.9652
▁helle	-10.9653
ub	-10.9659
pl	-10.9706
▁keine	-10.9721
ann	-10.9733
▁Engel	-10.9756
▁Car	-10.9779
▁Cheerleaderin	-10.9784
▁Po	-10.9809
gelb	-10.9814
▁gestreifte	-10.9843
tritt	-10.9855
lei	-10.9855
spritzt	-10.9859
holt	-10.9864
Wagen	-10.9864
Trikot	-10.9865
Park	-10.9865
Rad	-10.9865
gestreiften	-10.9868
▁Stadtszene	-10.9873
▁Mal	-10.9879
Ein	-10.9879
horn	-10.988
▁dicke	-10.988
▁gegnerische	-10.9881
▁farbige	-10.9881
▁eng	-10.9884
anzügen	-10.9885
▁Drink	-10.9886
▁Ziege	-10.989
▁Winterjacke	-10.9891
unterricht	-10.9893
▁Warnweste	-10.9893
▁Kabel	-10.9893
▁Dose	-10.9895
▁passende	-10.9895
▁Palme	-10.9895
stoff	-10.9896
▁Häuser	-10.9896
▁Kabine	-10.9896
▁pinkfarbene	-10.9896
farbenen	-10.9896
junge	-10.9897
▁Zahl	-10.9898
▁modisch	-10.9898
bewegung	-10.9899
start	-10.99
▁fröhliche	-10.9906
▁gesäumte	-10.9907
flasche	-10.9907
▁Gleis	-10.9908
zeichen	-10.9908
▁Skate	-10.9913
▁gebaut	-10.9915
▁geschäftige	-10.9916
▁militärische	-10.9918
sprung	-10.9918
▁Eier	-10.9919
tür	-10.9924
schmuck	-10.9925
schau	-10.9928
▁Stamm	-10.9929
▁Afrikaner	-10.9929
party	-10.993
gitter	-10.993
geländer	-10.9931
kasten	-10.9931
▁Außen	-10.9931
▁Einkaufs	-10.9931
eimer	-10.9931
▁Dunk	-10.9931
strecke	-10.9932
▁Sattel	-10.9932
▁mehr	-10.9932
▁Untergrund	-10.9933
turnier	-10.9933
▁Asphalt	-10.9933
▁Fliesen	-10.9933
▁Morgen	-10.9933
▁Plüsch	-10.9933
technik	-10.9933
mitarbeiter	-10.9933
verkehr	-10.9933
vorrichtung	-10.9933
reihe	-10.9933
▁Apple	-10.9933
▁Violett	-10.9933
Gesichtsausdruck	-10.9933
▁Alkohol	-10.9933
▁Baskenmütze	-10.9933
▁Beginn	-10.9933
▁Betonstufen	-10.9933
▁Blazer	-10.9933
▁Demonstration	-10.9933
▁Draußen	-10.9933
▁Dschungel	-10.9933
▁Ereignis	-10.9933
▁Fassade	-10.9933
▁Felsklippe	-10.9933
▁Flammen	-10.9933
▁Getreide	-10.9933
▁Gletscher	-10.9933
▁Gokart	-10.9933
▁Habseligkeiten	-10.9933
▁Indianer	-10.9933
▁Jenga	-10.9933
▁Kaninchen	-10.9933
▁Konfetti	-10.9933
▁Kunstgalerie	-10.9933
▁Können	-10.9933
▁Lautsprecher	-10.9933
▁Mülltüte	-10.9933
▁Nachmittag	-10.9933
▁Ochsen	-10.9933
▁Pizzeria	-10.9933
▁Schwebebalken	-10.9933
▁Staffelei	-10.9933
▁Subway	-10.9933
▁Tauziehen	-10.9933
▁Tempel	-10.9933
▁Versuch	-10.9933
▁Wandmalerei	-10.9933
▁bleiben	-10.9933
▁bleibt	-10.9933
▁entweder	-10.9933
▁faulenzt	-10.9933
▁gehüllt	-10.9933
▁gesichert	-10.9933
▁iPod	-10.9933
▁interagieren	-10.9933
▁krabbelt	-10.9933
▁leitet	-10.9933
▁lädt	-10.9933
▁regelt	-10.9933
▁schenkt	-10.9933
▁segelt	-10.9933
▁seichtem	-10.9933
▁steuert	-10.9933
▁säubert	-10.9933
▁tippt	-10.9933
▁versteckt	-10.9933
▁zielt	-10.9933
▁zugewandt	-10.9933
▁Coca	-10.9933
▁Einrichtung	-10.9933
▁Griff	-10.9933
▁Huhn	-10.9933
▁Kanal	-10.9933
▁Popcorn	-10.9933
▁Friedenszeichen	-10.9933
▁Schuss	-10.9933
▁Sims	-10.9933
▁Säge	-10.9933
▁beendet	-10.9933
▁richtig	-10.9933
▁Highschool	-10.9933
▁Kuss	-10.9933
▁Speisekarte	-10.9933
▁Zebrastreifen	-10.9933
▁geflochtenen	-10.9933
▁gießen	-10.9933
▁Dinosaurier	-10.9933
▁Innenhof	-10.9933
▁kümmern	-10.9933
▁Großstadt	-10.9933
▁Begriff	-10.9933
▁Nahen	-10.9933
▁genau	-10.9933
▁Felsformation	-10.9933
▁Innenraum	-10.9933
▁Tankstelle	-10.9933
▁verschwommen	-10.9933
▁hackt	-10.9933
▁Backsteinstraße	-10.9933
▁Blech	-10.9933
▁Bücherregal	-10.9933
▁Square	-10.9933
▁reflektierenden	-10.9933
▁Schutt	-10.9933
▁Handwerker	-10.9933
▁regnet	-10.9933
▁Kinn	-10.9933
▁Pflasterstraße	-10.9933
▁Startlinie	-10.9933
▁Geldbeutel	-10.9933
▁Pinsel	-10.9933
▁Bagger	-10.9933
▁Modellflugzeug	-10.9933
theke	-10.9933
▁Bohrmaschine	-10.9933
▁wenn	-10.9934
▁Pult	-10.9934
▁Ruderboot	-10.9934
▁einsamen	-10.9934
▁Rodeoreiter	-10.9934
▁Felsblock	-10.9934
▁Torbogen	-10.9934
▁Seitenlinie	-10.9934
▁dirigiert	-10.9934
▁schleift	-10.9934
▁trottet	-10.9934
▁Vorstellung	-10.9934
▁Rosen	-10.9934
▁Stammeskleidung	-10.9934
▁Ringkampf	-10.9934
▁Wintertag	-10.9934
▁khakifarbener	-10.9934
▁karierter	-10.9934
▁Food	-10.9934
▁Wort	-10.9935
▁Stelle	-10.9935
itz	-10.9935
stock	-10.9935
▁Glastür	-10.9935
▁Motocrossfahrer	-10.9935
▁Strands	-10.9935
▁Seife	-10.9935
▁Pass	-10.9935
▁hochzuklettern	-10.9936
▁Tischdecke	-10.9936
▁Kamm	-10.9936
uad	-10.9936
▁Baumstämmen	-10.9937
▁Brautjungfern	-10.9937
▁burgunderroten	-10.9937
▁hochhackigen	-10.9937
▁tropischen	-10.9937
▁Aufschlag	-10.9937
▁Jeansshorts	-10.9937
▁hochgehoben	-10.9937
▁Rockband	-10.9938
▁Imbiss	-10.9938
▁Kontrolle	-10.9938
▁hinweg	-10.9938
arm	-10.9938
▁fasziniert	-10.9939
▁wahrscheinlich	-10.994
▁Times	-10.994
▁Speer	-10.994
▁gefleckter	-10.994
▁Berglandschaft	-10.9941
▁nassem	-10.9941
▁schlafendes	-10.9941
▁Basketballfeld	-10.9941
▁umzäunten	-10.9942
▁trüben	-10.9942
▁Sack	-10.9943
▁Footballfeld	-10.9944
▁lilafarbener	-10.9944
▁Noten	-10.9944
▁blondhaariger	-10.9945
▁Kameramann	-10.9945
▁historischen	-10.9946
▁einfachen	-10.9946
▁Kopfstein	-10.9946
säge	-10.9947
▁Dress	-10.9948
▁Laternen	-10.9948
▁violetter	-10.9949
Vogelperspektive	-10.995
▁binden	-10.995
▁Hundespielzeug	-10.9951
▁sieben	-10.9952
▁irgendeiner	-10.9952
▁Geländefahrzeug	-10.9952
▁Bananen	-10.9955
▁Möwen	-10.9955
▁zuhause	-10.9955
▁wilden	-10.9955
▁Fernsehen	-10.9955
▁Fangen	-10.9956
▁barfüßiger	-10.9959
▁Wetter	-10.996
▁Wassermelonen	-10.9961
▁Post	-10.9961
▁pflanzen	-10.9962
▁gehoben	-10.9962
▁reicht	-10.9962
▁war	-10.9962
▁Busch	-10.9962
▁McDonalds	-10.9962
▁getragen	-10.9963
▁Kartenspiel	-10.9963
▁Vi	-10.9965
▁gemusterten	-10.9967
▁denkt	-10.9967
▁Fahrradrennen	-10.9967
▁Schneeball	-10.9969
▁ausgebreiteten	-10.997
▁geschrieben	-10.997
▁türkisen	-10.9971
▁Wasserstraße	-10.9972
▁Dosen	-10.9973
▁Betonplatte	-10.9976
BH	-10.9977
▁Van	-10.9979
▁Herzen	-10.998
▁Schlittschuhen	-10.998
▁dünnen	-10.9985
▁Objekte	-10.9988
▁Knien	-10.9991
▁Enten	-10.9991
▁brennenden	-10.9991
gar	-10.9993
▁zweite	-10.9995
▁Passagieren	-10.9996
▁Einkaufstaschen	-10.9997
▁Waffen	-10.9997
▁Schn	-11.0004
▁Butt	-11.0004
▁Ketten	-11.0005
▁teilt	-11.0005
alter	-11.0013
▁dieses	-11.0015
▁Schiffs	-11.0021
▁langes	-11.0031
bäumen	-11.0032
▁aller	-11.0039
▁neuen	-11.004
kla	-11.0048
igem	-11.0053
▁land	-11.0064
▁Schauspieler	-11.0069
ock	-11.007
▁Besitzer	-11.0074
zi	-11.0076
▁Go	-11.0076
▁rauchend	-11.0078
▁braunhaariges	-11.0093
▁frischen	-11.0095
▁Fu	-11.01
▁Pu	-11.0104
denken	-11.0107
▁Handtaschen	-11.0108
▁He	-11.0113
rie	-11.0115
▁Cheerleadern	-11.0119
ät	-11.0121
▁Katzen	-11.0132
▁aufgenommen	-11.0148
▁ganzen	-11.0159
▁Badehosen	-11.017
▁Kanus	-11.0186
sgeschäft	-11.0188
▁Kajaks	-11.0193
▁weiblichen	-11.0196
▁spielenden	-11.0196
▁Ladens	-11.024
tes	-11.0253
▁Fahrzeugs	-11.0261
same	-11.029
▁Regal	-11.029
▁lackiert	-11.0298
roter	-11.0299
bus	-11.0318
▁anderem	-11.0325
▁Nummern	-11.0333
▁voran	-11.0337
netz	-11.0346
▁Schals	-11.04
ix	-11.0401
ment	-11.0447
▁Eishockeyspiel	-11.0465
▁farbenfrohe	-11.0478
▁Boote	-11.0482
▁wenig	-11.0491
▁abge	-11.0497
▁ei	-11.0508
▁haltend	-11.0526
▁Reihen	-11.0529
ard	-11.0549
▁aufeinander	-11.0555
▁fl	-11.056
artig	-11.0569
▁essend	-11.0614
▁geschlagen	-11.0615
rum	-11.0634
hi	-11.0644
th	-11.0666
mat	-11.0683
▁einzu	-11.0686
▁Softballspieler	-11.0718
pu	-11.0732
▁gestapelt	-11.076
▁Bi	-11.0774
ow	-11.078
akt	-11.0789
▁Spielern	-11.0807
▁Spielers	-11.0855
our	-11.0874
▁Pullovern	-11.0876
▁farbenfroh	-11.0897
▁Schweiß	-11.09
▁Runde	-11.0908
ster	-11.0948
instrument	-11.0972
▁Streich	-11.0987
▁he	-11.1003
ti	-11.1013
▁Feldhockey	-11.1013
▁Zelte	-11.103
▁Street	-11.1051
▁Videospiele	-11.1057
ud	-11.1082
lichen	-11.1083
▁Verkehrs	-11.1094
▁Baums	-11.1114
▁So	-11.1122
▁frei	-11.1127
▁Felsens	-11.115
tliche	-11.1151
▁Schale	-11.1194
suche	-11.1218
eide	-11.1224
springer	-11.1245
mu	-11.1302
▁zer	-11.1303
ate	-11.1313
▁Freizeit	-11.133
genommen	-11.1352
Ma	-11.1371
▁Projektor	-11.1394
▁Japan	-11.1394
ähnlichen	-11.1398
richten	-11.1428
▁rauchen	-11.1432
▁Besitz	-11.1438
▁Schau	-11.1439
ob	-11.1452
lern	-11.1466
▁Al	-11.1467
stehenden	-11.1473
▁Essens	-11.1475
lung	-11.1477
▁Teenagerin	-11.1481
nimmt	-11.1493
▁nackte	-11.1497
hält	-11.1502
▁klein	-11.1505
▁kalte	-11.1516
▁wir	-11.1517
springt	-11.1521
The	-11.1523
Cola	-11.1524
geschoben	-11.1525
kommt	-11.1526
schwimmen	-11.1527
▁geschminkt	-11.1527
greifen	-11.153
rutscht	-11.153
schneiden	-11.153
rosa	-11.1531
Football	-11.1531
Konzert	-11.1531
Auto	-11.1531
steigt	-11.1534
wärts	-11.1537
▁Turn	-11.1542
▁blondhaarige	-11.1543
handschuh	-11.1546
▁hellbraune	-11.1546
schutz	-11.1547
stellen	-11.1551
▁Jack	-11.1552
lauf	-11.1553
▁akustische	-11.1556
▁Fußballtrikot	-11.1558
▁Khakihose	-11.1558
▁gemusterte	-11.1561
▁befahrene	-11.1561
▁Körbe	-11.1561
reich	-11.1561
▁Bandmitglieder	-11.1562
▁Wände	-11.1562
▁felsige	-11.1562
▁Eiswagen	-11.1563
▁Roll	-11.1564
▁Perücke	-11.1564
▁sichtbar	-11.1565
▁Kunde	-11.1566
▁marineblau	-11.1567
▁modern	-11.1568
▁etwa	-11.1568
▁erleuchtet	-11.1568
▁bedruckt	-11.1568
▁Frei	-11.1571
▁Pose	-11.1571
heit	-11.1572
▁Bulle	-11.1572
▁Mönch	-11.1577
▁Fußballteam	-11.158
▁grauhaarige	-11.1586
▁leger	-11.1586
▁uniformierte	-11.1587
▁Reise	-11.1587
szene	-11.159
schirm	-11.1593
ummer	-11.1594
▁Wasch	-11.1596
flugzeug	-11.1596
▁Sommerkleid	-11.1597
rahmen	-11.1598
künstler	-11.1598
bt	-11.1598
rmel	-11.1598
heft	-11.1599
papier	-11.1599
becher	-11.1599
objekt	-11.1599
karren	-11.1599
▁Gurt	-11.1599
holz	-11.1599
schaufel	-11.1599
▁Leder	-11.16
hammer	-11.16
▁Draht	-11.16
mobil	-11.16
baby	-11.16
▁Tank	-11.16
▁Nagel	-11.16
▁Fall	-11.16
bündel	-11.16
geführt	-11.16
komplex	-11.16
leidenschaftlich	-11.16
que	-11.16
wiese	-11.16
▁Aktivität	-11.16
▁Amboss	-11.16
▁America	-11.16
▁Angestellte	-11.16
▁Aufmerksamkeit	-11.16
▁Auswahl	-11.16
▁Blumenstrauß	-11.16
▁Braun	-11.16
▁Bulldozer	-11.16
▁Bürste	-11.16
▁Cowgirl	-11.16
▁Digitalkamera	-11.16
▁Einkaufspassage	-11.16
▁Gänse	-11.16
▁Hochzeitstorte	-11.16
▁Hydranten	-11.16
▁Hörsaal	-11.16
▁Hüpfburg	-11.16
▁Inhalt	-11.16
▁Joggen	-11.16
▁Kamin	-11.16
▁Küchentresen	-11.16
▁Limousine	-11.16
▁Maulkörben	-11.16
▁Minigolf	-11.16
▁Parasailing	-11.16
▁Professor	-11.16
▁Promenade	-11.16
▁Radio	-11.16
▁Rückwärtssalto	-11.16
▁SMS	-11.16
▁Sackhüpfen	-11.16
▁Salat	-11.16
▁Schloss	-11.16
▁Schnuller	-11.16
▁Spielmannszug	-11.16
▁Stabhochsprung	-11.16
▁Textnachricht	-11.16
▁Thema	-11.16
▁Trenchcoat	-11.16
▁Ultimate	-11.16
▁Vorlesung	-11.16
▁Weihnachten	-11.16
▁Zuckerwatte	-11.16
▁abgesperrten	-11.16
▁akrobatische	-11.16
▁angeleint	-11.16
▁aufgeblasenen	-11.16
▁außen	-11.16
▁begutachten	-11.16
▁bequem	-11.16
▁beteiligt	-11.16
▁bohrt	-11.16
▁bricht	-11.16
▁durchsucht	-11.16
▁einkaufen	-11.16
▁erwischt	-11.16
▁eventuell	-11.16
▁freut	-11.16
▁füttern	-11.16
▁gemütlich	-11.16
▁gestützt	-11.16
▁inspizieren	-11.16
▁inspiziert	-11.16
▁intensiv	-11.16
▁irgendetwas	-11.16
▁lebhaft	-11.16
▁pflückt	-11.16
▁poliert	-11.16
▁raufen	-11.16
▁schippt	-11.16
▁schält	-11.16
▁seitlich	-11.16
▁senkrecht	-11.16
▁servieren	-11.16
▁sorgfältig	-11.16
▁spült	-11.16
▁studiert	-11.16
▁surfen	-11.16
▁trocknet	-11.16
▁umgestürzten	-11.16
▁unaufgeräumten	-11.16
▁verlegt	-11.16
▁verärgert	-11.16
▁wetteifern	-11.16
▁üppig	-11.16
▁Badekleidung	-11.16
▁Berggipfel	-11.16
▁Frühstück	-11.16
▁Haken	-11.16
▁Haut	-11.16
▁Krug	-11.16
▁Lieblings	-11.16
▁Milch	-11.16
▁Saal	-11.16
▁Wasserfontäne	-11.16
▁besuchen	-11.16
▁kehren	-11.16
▁kostümierte	-11.16
▁verfolgen	-11.16
▁wäre	-11.16
▁Dreh	-11.16
▁Elf	-11.16
▁Fernrohr	-11.16
▁Haarschnitt	-11.16
▁Poloshirt	-11.16
▁kicken	-11.16
▁platziert	-11.16
▁Nadelstreifen	-11.16
▁Filzhut	-11.16
▁Liegestühlen	-11.16
▁Steg	-11.16
▁feuert	-11.16
▁Dekorationen	-11.16
▁Fitnessstudio	-11.16
▁Wettlauf	-11.16
▁obwohl	-11.16
▁Spazierstock	-11.16
▁überdachten	-11.16
▁blühenden	-11.16
▁Aquarium	-11.16
▁Kampfkunst	-11.16
▁Lippenstift	-11.16
▁Pyramide	-11.16
▁wählt	-11.16
kraft	-11.16
▁Geschichte	-11.16
aufführung	-11.16
▁Außenseite	-11.16
▁Durchgang	-11.16
ofen	-11.16
▁Möbelstück	-11.16
▁Rasier	-11.16
▁Bordsteinkante	-11.16
▁Kathedrale	-11.16
▁müde	-11.16
▁Schotterstraße	-11.16
▁Fingernägel	-11.16
▁Klappstühlen	-11.16
▁Schwimmflügeln	-11.16
▁Domino	-11.16
pflasterstraße	-11.16
▁Schwimmhilfe	-11.16
▁Umhängen	-11.16
▁Dunkeln	-11.16
▁goldfarbenen	-11.16
▁Motorboot	-11.16
▁Bullenreiter	-11.16
▁Schnorchel	-11.16
▁Schädel	-11.16
▁Ebene	-11.16
▁Schotterweg	-11.16
▁Fußgängerbrücke	-11.16
▁Ausschau	-11.16
▁besetzte	-11.16
▁ruft	-11.16
▁Polo	-11.16
▁ärmellosem	-11.16
▁Krankenhausbett	-11.16
grill	-11.1601
▁Karateanzügen	-11.1601
▁aufhat	-11.1601
▁Wanderweg	-11.1601
▁irgendwo	-11.1601
▁Nachtclub	-11.1601
▁decken	-11.1601
▁Essenswagen	-11.1601
▁Schwanz	-11.1601
▁Landkarte	-11.1601
▁Fischerboot	-11.1601
▁Radrennfahrer	-11.1601
▁besch	-11.1601
▁Segel	-11.1601
▁Aktion	-11.1601
▁Betonbank	-11.1601
▁Strandpromenade	-11.1601
▁Metallzaun	-11.1601
▁teilnimmt	-11.1601
▁weinendes	-11.1601
▁State	-11.1601
▁raus	-11.1602
▁Golfplatz	-11.1602
▁gesenktem	-11.1602
▁Taucheranzug	-11.1602
▁fern	-11.1602
▁Bikinioberteil	-11.1602
▁öffentliche	-11.1602
▁Fecht	-11.1602
▁Seilspringen	-11.1602
▁Karateanzug	-11.1603
▁Senioren	-11.1603
▁balgen	-11.1603
▁Fußtritt	-11.1603
▁Feuerwerk	-11.1603
▁türkisfarbenen	-11.1603
punkt	-11.1604
▁erreicht	-11.1604
▁schmettert	-11.1604
▁strickt	-11.1604
▁tackelt	-11.1604
▁abgedunkelten	-11.1604
▁versehen	-11.1604
▁Handgelenk	-11.1604
▁geöffnetem	-11.1604
▁dreiköpfige	-11.1604
▁Eislaufen	-11.1605
▁bestellt	-11.1605
▁Tänzerinnen	-11.1606
schale	-11.1606
stunde	-11.1606
▁Spielplatzgerät	-11.1606
▁geradeaus	-11.1606
▁Eisbahn	-11.1607
▁Kragen	-11.1607
▁Straßenmarkt	-11.1607
▁ruhigem	-11.1607
▁Pyjama	-11.1607
▁Zutaten	-11.1607
▁Hubschrauber	-11.1607
▁Position	-11.1607
▁Struktur	-11.1607
▁Pony	-11.1607
▁Ausflug	-11.1608
alten	-11.1608
▁Uferweg	-11.1608
▁Obdachloser	-11.1608
▁gelbbrauner	-11.1609
▁Sandskulptur	-11.1609
▁Hemdbluse	-11.1609
zubereiten	-11.161
kegel	-11.161
▁Skateboardtrick	-11.161
▁hochspringt	-11.1611
▁hochhält	-11.1611
▁zeichnen	-11.1611
▁befindlichen	-11.1611
▁dekorativen	-11.1611
genüberliegenden	-11.1611
garten	-11.1613
▁Massen	-11.1613
▁Fußweg	-11.1613
utsch	-11.1613
angehöriger	-11.1614
▁hellgelben	-11.1614
▁Autositz	-11.1614
▁offener	-11.1615
▁Tennisschuhen	-11.1615
▁überblickt	-11.1616
▁Holztisch	-11.1616
reichen	-11.1617
▁Skateboardpark	-11.1617
▁armen	-11.1618
▁wiegt	-11.162
▁Trinken	-11.1621
▁kunstvollen	-11.1621
▁Spielzeugauto	-11.1621
▁probieren	-11.1621
▁schlendern	-11.1621
▁sonnen	-11.1621
▁zündet	-11.1621
▁Rasenmäher	-11.1621
▁Schere	-11.1622
▁chinesischer	-11.1622
▁liegende	-11.1624
▁Ich	-11.1624
Spring	-11.1625
▁Kiefern	-11.1625
▁Toiletten	-11.1625
▁Notizen	-11.1626
▁Kre	-11.1628
▁marineblauen	-11.1632
▁buntem	-11.1632
▁Eiswaffeln	-11.1633
▁Schienen	-11.1633
▁Bahngleisen	-11.1634
▁tätowierter	-11.1635
▁schmutziges	-11.1636
▁Ar	-11.1636
▁Ohrring	-11.1637
▁untergeht	-11.1639
▁einzufangen	-11.164
▁modernen	-11.164
▁nackten	-11.164
ven	-11.164
▁Punkten	-11.1641
▁Tiger	-11.1642
▁nacktes	-11.1643
▁Fan	-11.1646
▁Fußballteams	-11.1646
▁Polizeibeamte	-11.1647
▁Kabeln	-11.1647
▁Warnwesten	-11.1647
▁Festival	-11.1648
▁dekorierten	-11.165
▁Welt	-11.165
▁geschminkten	-11.1651
▁Mast	-11.1652
ies	-11.1653
wä	-11.1654
▁Pfannen	-11.1655
▁pinken	-11.1656
▁Hotdogs	-11.1658
▁Schwein	-11.166
▁fröhliches	-11.1661
▁Begleiter	-11.1666
▁Spielerin	-11.1666
▁schweren	-11.1675
▁Gürteln	-11.1677
▁Schwimmwesten	-11.1684
▁glückliches	-11.1686
▁fahrenden	-11.1689
▁verkleideter	-11.1697
topf	-11.1705
▁verlassenen	-11.1707
Tisch	-11.1707
▁Glasgebäude	-11.171
▁aufgehängt	-11.1714
▁bedeckter	-11.1716
▁Werkzeugen	-11.1717
▁gefahren	-11.1717
▁Kegeln	-11.1721
gericht	-11.1721
▁Gewehren	-11.1722
▁jüngeres	-11.1722
▁schw	-11.1731
▁Deckel	-11.1733
▁tiefen	-11.1734
▁erwachsenen	-11.1735
▁Verkaufs	-11.1736
▁jede	-11.1742
chnitt	-11.1759
förmigen	-11.1765
fang	-11.177
▁Spielzeuge	-11.177
▁beigen	-11.1775
▁rothaarigen	-11.178
▁Footballteam	-11.1782
▁schwarzweißer	-11.1783
▁Marke	-11.1786
▁wurden	-11.1787
▁wi	-11.1787
inde	-11.1792
tur	-11.1797
uh	-11.1799
▁buntes	-11.1801
▁Zähnen	-11.1802
▁Fitness	-11.1802
iz	-11.1802
▁Fußballspielen	-11.1814
geräte	-11.1823
▁Tänzern	-11.1839
die	-11.1848
▁Wi	-11.1853
▁Schaufeln	-11.1854
schiedenfarbige	-11.1858
▁ta	-11.1863
▁kein	-11.1872
Freizeitkleidung	-11.1877
▁Stücke	-11.1881
Krankenschwester	-11.1886
▁Rollern	-11.1892
▁Schülern	-11.1921
▁Kl	-11.1922
ase	-11.1948
▁Wander	-11.1949
▁aufrecht	-11.1956
▁Motorradfahrern	-11.1966
▁Geste	-11.1978
▁Bikinis	-11.2008
▁Fer	-11.2011
▁Gesichter	-11.202
▁Musikern	-11.2064
tiert	-11.2085
▁Ufers	-11.2097
▁Schwarze	-11.2121
▁Fr	-11.2142
▁Scheinwerfer	-11.2142
▁Zeitungen	-11.2144
▁Chi	-11.2148
reif	-11.2167
▁du	-11.2172
▁Plane	-11.218
chaufensterfront	-11.2181
▁Mikrofone	-11.2192
springen	-11.2197
▁verletzt	-11.2204
▁Große	-11.2249
▁Wüsten	-11.2256
▁Hu	-11.2266
puppe	-11.2274
mitte	-11.229
üste	-11.2299
▁Alte	-11.2344
▁Messe	-11.2357
▁Familien	-11.2365
▁gedrängt	-11.2389
▁for	-11.2406
kuchen	-11.2411
losen	-11.2412
▁Geburtstags	-11.2428
▁Training	-11.2449
zimmer	-11.2475
figur	-11.2485
▁Do	-11.2531
werkzeug	-11.2542
hängen	-11.2549
▁fliegende	-11.2593
▁Dr	-11.2612
station	-11.2637
stücke	-11.2643
▁Mikrofonen	-11.2653
▁spanische	-11.2669
mit	-11.2697
entgegengesetzte	-11.2723
rutsche	-11.2745
ktion	-11.2752
chaufensterpuppe	-11.2852
getränk	-11.2857
spielerin	-11.2873
ich	-11.2908
▁Red	-11.2912
legen	-11.2934
▁recht	-11.2941
▁Na	-11.2987
gelber	-11.3046
ata	-11.3056
▁Gesichts	-11.3104
geben	-11.3129
gerichteten	-11.3158
smittel	-11.3179
▁Arbeiten	-11.3194
ischer	-11.3196
farbener	-11.3246
ppen	-11.3259
rankenschwestern	-11.3261
▁beleuchtete	-11.3272
über	-11.3301
▁Kom	-11.331
▁parken	-11.3322
▁gute	-11.3334
Ru	-11.3344
▁Sitzende	-11.3365
▁Tischtennis	-11.3369
▁aufgeregte	-11.3373
zieh	-11.3381
schaft	-11.3395
▁Protest	-11.3403
arbeiten	-11.3406
▁Scha	-11.3424
blaues	-11.3434
▁Schwimmerin	-11.3441
kt	-11.3462
gelegt	-11.3464
▁laufende	-11.3467
▁Ca	-11.3469
etten	-11.3473
▁rosarot	-11.3476
ütze	-11.3483
▁groß	-11.3484
mützen	-11.3495
hu	-11.3496
Mannschaft	-11.3497
▁schmutzige	-11.3501
▁lilafarbene	-11.3504
orange	-11.3506
▁Löwen	-11.3507
ausstellung	-11.3514
utter	-11.3515
▁älter	-11.3517
weste	-11.3517
▁grasbewachsene	-11.3518
▁Fahr	-11.3521
▁Gegen	-11.3524
▁hellrosa	-11.3524
graben	-11.3526
Kittel	-11.3527
Rennfahrer	-11.3527
holen	-11.3528
J	-11.3528
malen	-11.3529
Tattoo	-11.3529
Werbung	-11.353
Ausrüstung	-11.353
Tunnel	-11.353
▁blond	-11.3531
Computer	-11.3531
jagt	-11.3531
Rennen	-11.3531
Restaurant	-11.3531
Fahrrad	-11.3531
treffen	-11.3535
zieht	-11.3539
cker	-11.3539
▁deutsche	-11.3542
hütte	-11.3542
setzen	-11.3547
▁nasse	-11.3547
▁seltsam	-11.3548
▁näher	-11.355
▁Farb	-11.355
▁Blonde	-11.3554
▁größer	-11.3554
▁Fernseh	-11.3554
hre	-11.3554
seilen	-11.3555
▁neugeborene	-11.3556
▁McDonald	-11.3558
grüne	-11.3558
▁Sari	-11.3559
▁letzte	-11.3559
▁medizinische	-11.3559
▁verheiratete	-11.3559
▁Aufgabe	-11.356
▁Eiswaffel	-11.356
▁Wassermelone	-11.356
▁breit	-11.3561
▁Tüte	-11.3561
▁schlammige	-11.3561
stelle	-11.3561
▁japanische	-11.3561
▁silberfarbene	-11.3561
▁Blase	-11.3562
▁ländliche	-11.3562
▁Büsche	-11.3562
▁Kerze	-11.3562
▁Rucksäcke	-11.3562
▁angemalt	-11.3562
▁mittlere	-11.3563
uniform	-11.3563
Teams	-11.3564
▁Athlet	-11.3564
▁Teddybär	-11.3564
▁Zeichnung	-11.3565
▁Oberhemd	-11.3565
bereit	-11.3566
▁verbunden	-11.3567
▁Notiz	-11.3567
▁gemalt	-11.3568
▁wild	-11.3568
▁herrlich	-11.3568
qui	-11.3569
▁geschlossen	-11.357
▁zusammenge	-11.357
nähe	-11.3572
orangen	-11.3572
▁Make	-11.3572
▁Jahre	-11.3573
▁Fang	-11.3574
platten	-11.3575
bank	-11.3577
▁Pitch	-11.3583
ippe	-11.3583
grünes	-11.3583
handschuhe	-11.3585
▁gebückt	-11.3585
haufen	-11.3586
▁übergewichtige	-11.3587
feier	-11.3587
roh	-11.3588
zuheben	-11.3588
zaun	-11.3588
latz	-11.359
köpfige	-11.3591
treppe	-11.3593
trikot	-11.3594
▁still	-11.3594
brille	-11.3594
▁Barkeeper	-11.3595
läufer	-11.3595
▁enge	-11.3596
musik	-11.3597
▁strahlend	-11.3598
▁gesenkt	-11.3598
▁unbekannt	-11.3598
ität	-11.3598
▁Möbel	-11.3598
sessel	-11.3598
▁beginnen	-11.3598
rennfahrer	-11.3598
projekt	-11.3599
verkauf	-11.3599
▁Picknick	-11.3599
feuer	-11.3599
▁Camping	-11.3599
trommel	-11.3599
▁Hawaii	-11.3599
kugel	-11.3599
seite	-11.3599
▁Euro	-11.3599
saal	-11.36
▁Pflaster	-11.36
▁Neon	-11.36
stoß	-11.36
motorrad	-11.36
▁Klettern	-11.36
▁Bongo	-11.36
▁Zuhörer	-11.36
▁Hänge	-11.36
▁Pelz	-11.36
▁Stoß	-11.36
brunnen	-11.36
stiefel	-11.36
▁Bedienung	-11.36
▁Friedhof	-11.36
▁Gewicht	-11.36
Eisschnellläufer	-11.36
Maskottchen	-11.36
Metallgegenstand	-11.36
bude	-11.36
geschenke	-11.36
ingham	-11.36
rennbahn	-11.36
schaftskollegen	-11.36
sgesellschaft	-11.36
terrasse	-11.36
umgebung	-11.36
▁Abschluss	-11.36
▁Abstammung	-11.36
▁Ansammlung	-11.36
▁Artikel	-11.36
▁Bademantel	-11.36
▁Ballbesitz	-11.36
▁Betrieb	-11.36
▁Buffet	-11.36
▁Collie	-11.36
▁Denkmal	-11.36
▁Dessert	-11.36
▁Endzone	-11.36
▁Fensterputzer	-11.36
▁Front	-11.36
▁Fässer	-11.36
▁Führung	-11.36
▁Gabel	-11.36
▁Garagentor	-11.36
▁Gäste	-11.36
▁Halfpipe	-11.36
▁Harfe	-11.36
▁Hochzeitsfeier	-11.36
▁Huckepack	-11.36
▁Höhle	-11.36
▁Kanone	-11.36
▁Kleinigkeit	-11.36
▁Kongress	-11.36
▁Korridor	-11.36
▁Kutsche	-11.36
▁Labrador	-11.36
▁Lehm	-11.36
▁Lobby	-11.36
▁Matratze	-11.36
▁Mehl	-11.36
▁Montur	-11.36
▁Männliche	-11.36
▁Nike	-11.36
▁Operationssaal	-11.36
▁Orangensaft	-11.36
▁Poncho	-11.36
▁Power	-11.36
▁Priester	-11.36
▁Reporter	-11.36
▁Roboter	-11.36
▁Ruinen	-11.36
▁Schanze	-11.36
▁Schrank	-11.36
▁Schusswaffe	-11.36
▁Schwierigkeiten	-11.36
▁Skilift	-11.36
▁Sprache	-11.36
▁Staffellauf	-11.36
▁Strom	-11.36
▁Surfen	-11.36
▁Söhne	-11.36
▁Tarnhose	-11.36
▁Truthahn	-11.36
▁Türeingang	-11.36
▁Umhängetasche	-11.36
▁Unterricht	-11.36
▁Vorbereitung	-11.36
▁Weingläsern	-11.36
▁Werkzeuggürtel	-11.36
▁Wissenschaftler	-11.36
▁Zoo	-11.36
▁anscheinend	-11.36
▁außerdem	-11.36
▁balancieren	-11.36
▁bastelt	-11.36
▁befestigen	-11.36
▁betrunken	-11.36
▁bewundern	-11.36
▁brät	-11.36
▁buckelnden	-11.36
▁dafür	-11.36
▁deutet	-11.36
▁drängen	-11.36
▁einschließlich	-11.36
▁erledigen	-11.36
▁errichtet	-11.36
▁erzielen	-11.36
▁erzählt	-11.36
▁funktioniert	-11.36
▁gefaltet	-11.36
▁geholfen	-11.36
▁gemischte	-11.36
▁geschnitzte	-11.36
▁gesteckt	-11.36
▁getrocknet	-11.36
▁gewonnen	-11.36
▁grinsend	-11.36
▁heißt	-11.36
▁interviewt	-11.36
▁klassische	-11.36
▁klatschen	-11.36
▁leckere	-11.36
▁misst	-11.36
▁nebligen	-11.36
▁packen	-11.36
▁plantscht	-11.36
▁politischen	-11.36
▁pustet	-11.36
▁reagieren	-11.36
▁räumt	-11.36
▁sanft	-11.36
▁scharfe	-11.36
▁schräg	-11.36
▁sortieren	-11.36
▁sportliche	-11.36
▁stolpert	-11.36
▁streicheln	-11.36
▁stützt	-11.36
▁süße	-11.36
▁umklammert	-11.36
▁unterhalb	-11.36
▁verdunkelten	-11.36
▁verloren	-11.36
▁vermutlich	-11.36
▁verteidigen	-11.36
▁wadet	-11.36
▁zerbrochene	-11.36
▁überkreuzten	-11.36
▁überwiegend	-11.36
parade	-11.36
▁Dirigent	-11.36
▁Esszimmer	-11.36
▁Haupt	-11.36
▁Inneren	-11.36
▁Karikatur	-11.36
▁Kitesurf	-11.36
▁Krabbe	-11.36
▁Riemen	-11.36
▁Vieh	-11.36
▁Wälder	-11.36
▁abgewandt	-11.36
▁bettelt	-11.36
▁knallbunten	-11.36
▁lehrt	-11.36
▁lenkt	-11.36
▁malerische	-11.36
▁rundes	-11.36
▁stecken	-11.36
▁vereisten	-11.36
▁vollständig	-11.36
▁waten	-11.36
design	-11.36
ffnung	-11.36
kissen	-11.36
▁Blöcke	-11.36
▁Medizin	-11.36
▁Terrier	-11.36
▁Disney	-11.36
ordnung	-11.36
gläser	-11.36
▁Fahrradreifen	-11.36
▁Jetski	-11.36
▁probt	-11.36
pfleg	-11.36
▁Afrikanische	-11.36
▁informell	-11.36
▁trommelt	-11.36
▁Trocken	-11.36
▁Doktor	-11.36
▁Indische	-11.36
▁Kletterwand	-11.36
▁Ledermantel	-11.36
▁Open	-11.36
▁mindestens	-11.36
▁hechtet	-11.36
ziegel	-11.36
▁Bauernhof	-11.36
▁Hängebrücke	-11.36
▁geschossen	-11.36
▁Diadem	-11.36
▁Kleinstadt	-11.36
▁Ladung	-11.36
▁Sprühfarbe	-11.36
▁fechten	-11.36
▁Absperrband	-11.36
▁Dritte	-11.36
▁Wheelie	-11.36
▁vorbereiten	-11.36
▁Backsteinwand	-11.36
▁Gemeinde	-11.36
▁stoßen	-11.36
trainer	-11.36
▁Klarinette	-11.36
▁beschmiert	-11.36
▁stöbern	-11.36
▁zupft	-11.36
▁Abhang	-11.36
▁Auszeichnung	-11.36
▁Bäckerei	-11.36
▁Hafengebiet	-11.36
▁Lappen	-11.36
▁verliert	-11.36
▁Kastenwagen	-11.36
▁Rollstühlen	-11.36
▁blass	-11.36
▁Tauchausrüstung	-11.36
▁schreiendes	-11.36
▁Schaumbad	-11.36
wanderung	-11.36
▁durchsichtige	-11.36
▁Wintermantel	-11.36
▁Burg	-11.36
▁spät	-11.36
▁liebe	-11.36
vorstellung	-11.36
▁Programm	-11.36
▁Fliesenboden	-11.36
▁Strohhalm	-11.36
▁Symbol	-11.36
▁rollen	-11.36
▁Kragenhemd	-11.36
▁Erdboden	-11.36
▁Toreinfahrt	-11.36
▁Chips	-11.36
▁Blätterhaufen	-11.36
▁Lama	-11.36
▁Blue	-11.3601
sims	-11.3601
▁deckt	-11.3601
▁Straßenlaterne	-11.3601
▁Nonne	-11.3601
▁verkehrt	-11.3601
▁Schildkröte	-11.3601
▁Freiluftmarkt	-11.3601
▁Mais	-11.3601
▁Marathonlauf	-11.3601
▁Acker	-11.3601
▁beaufsichtigt	-11.3601
▁befragt	-11.3601
▁navigiert	-11.3601
▁Skigebiet	-11.3601
▁Vordach	-11.3601
▁Holzplattform	-11.3601
▁verbringen	-11.3601
▁Plakatwand	-11.3601
zäh	-11.3601
▁Rennbahn	-11.3601
▁Golfspieler	-11.3601
▁Faust	-11.3601
▁Elternteil	-11.3602
▁Blattwerk	-11.3602
▁Konferenztisch	-11.3602
hof	-11.3602
▁Geschäftsmann	-11.3602
afting	-11.3602
▁vierköpfige	-11.3602
▁angemaltem	-11.3602
▁verteilen	-11.3602
▁verzieht	-11.3602
hüte	-11.3602
way	-11.3602
▁Stiel	-11.3602
▁Wasserskifahrer	-11.3602
▁Chef	-11.3602
▁Städtische	-11.3603
▁betritt	-11.3603
stil	-11.3603
▁Berghang	-11.3603
▁Warenkorb	-11.3603
karte	-11.3603
▁Sturm	-11.3603
▁stämmige	-11.3604
▁Pferderennen	-11.3604
▁Gartenstuhl	-11.3604
▁Aufwärmen	-11.3604
▁Betonrampe	-11.3604
▁Schwertern	-11.3604
▁Restaurantküche	-11.3604
▁Fast	-11.3604
▁weißhaariger	-11.3605
turm	-11.3605
▁Kopftüchern	-11.3605
▁Seilschaukel	-11.3605
▁olympischen	-11.3605
▁schattigen	-11.3605
▁ausgestrecktem	-11.3605
▁Inlineskater	-11.3605
▁Freundinnen	-11.3605
▁Saft	-11.3606
▁Ju	-11.3606
▁geschminktem	-11.3606
▁beenden	-11.3606
männer	-11.3606
agt	-11.3606
▁Bru	-11.3606
▁Fußboden	-11.3606
▁Holzboot	-11.3607
▁Bergsteigen	-11.3607
▁Schminke	-11.3607
▁einheimischer	-11.3608
▁Schwan	-11.3608
▁Schaum	-11.3608
▁hellbraunem	-11.3608
▁Pro	-11.3608
▁Kulisse	-11.3609
▁Miami	-11.3609
▁Pinata	-11.3609
▁Seattle	-11.3609
▁Superman	-11.3609
▁bräunlicher	-11.3609
▁Holzstuhl	-11.361
▁Day	-11.361
▁nippt	-11.361
▁Transporter	-11.3611
ieht	-11.3611
▁Schneehaufen	-11.3611
▁Graben	-11.3611
▁Informationen	-11.3611
▁Kollegen	-11.3611
▁Las	-11.3611
▁Babyschaukel	-11.3613
▁Pfoten	-11.3614
▁Zitronen	-11.3614
▁steinernen	-11.3614
▁flauschigen	-11.3614
▁langärmligen	-11.3614
schloss	-11.3614
▁Sam	-11.3614
▁Bauer	-11.3614
flug	-11.3614
▁Marktstand	-11.3615
▁Spielgerät	-11.3615
▁Lehrerin	-11.3615
▁Motorradrennen	-11.3616
▁grauhaariger	-11.3617
▁Schalter	-11.3617
▁lohfarbener	-11.3617
▁Wir	-11.3617
▁Schneemann	-11.3618
▁Spielzug	-11.3618
▁verlassene	-11.3619
▁dicker	-11.362
schlacht	-11.362
▁erhalten	-11.362
▁Tennisspielen	-11.362
▁spanischer	-11.3621
itzt	-11.3622
▁fertigt	-11.3622
▁heran	-11.3623
▁Schutzwesten	-11.3623
▁kanadischen	-11.3623
lterer	-11.3623
▁Rollerskates	-11.3624
▁Urlaubs	-11.3624
▁Landung	-11.3624
▁flaches	-11.3624
▁Flieger	-11.3625
▁erhöhten	-11.3625
▁interessanten	-11.3626
▁Kämpfer	-11.3626
▁Aufkleber	-11.3626
▁Coach	-11.3626
▁heim	-11.3626
weise	-11.363
chnee	-11.363
▁Wasserlauf	-11.363
▁jemandes	-11.3631
▁schlafender	-11.3631
▁Nudeln	-11.3632
▁nächtlichen	-11.3632
▁Basketballkorb	-11.3632
▁Leucht	-11.3632
▁herrlichen	-11.3633
▁verbundenen	-11.3633
küche	-11.3638
▁Lichtern	-11.3638
▁Stadtplatz	-11.3639
▁schwimmenden	-11.3639
ämme	-11.3639
▁Schülerin	-11.364
▁blaugrünen	-11.364
▁letzten	-11.3641
▁medizinischen	-11.3641
▁Ihr	-11.3641
▁nackter	-11.3643
▁Turnier	-11.3643
▁neugeborenes	-11.3643
▁Polizistin	-11.3647
rmeln	-11.365
▁Balletttänzer	-11.365
▁Wasserball	-11.3651
▁blondhaariges	-11.3653
teilen	-11.3654
▁Als	-11.3654
▁geschmückten	-11.3655
▁springenden	-11.3655
▁brechen	-11.3657
▁Logo	-11.3659
▁vorbeifahren	-11.3661
▁zuhören	-11.3662
▁schlafenden	-11.3663
schicht	-11.3665
bungen	-11.3665
▁Beim	-11.3666
▁beeindruckende	-11.3667
▁Fackeln	-11.3668
▁Fliegen	-11.3668
▁anschauen	-11.3672
▁würden	-11.3677
▁Taste	-11.3677
▁Gegenspieler	-11.3678
▁Wasserfahrzeug	-11.368
handschuhen	-11.3681
▁entlanggehen	-11.3682
sort	-11.3684
▁harten	-11.3684
▁Halsketten	-11.3686
liches	-11.3686
Kunstausstellung	-11.3687
▁Bürogebäude	-11.3691
▁beladenen	-11.3692
▁geschoben	-11.3692
▁fertigen	-11.3694
▁Cola	-11.3695
▁Federn	-11.3695
▁Kindergruppe	-11.3698
berg	-11.3701
▁Geiger	-11.3708
▁Stütz	-11.3711
▁Heißluftballons	-11.3711
▁Wangen	-11.3713
▁Kamelen	-11.3715
▁Skulpturen	-11.3721
▁barfüßiges	-11.3721
gefallenen	-11.3725
▁Golden	-11.3729
Stop	-11.3742
▁Derby	-11.3745
kostümen	-11.3746
▁regenbogenfarb	-11.3747
del	-11.376
▁Schaufenstern	-11.3775
▁zweiter	-11.3777
▁Büchern	-11.3778
wi	-11.378
▁Alle	-11.3784
geschäfts	-11.3789
▁schwarzweißen	-11.3794
▁arbeitende	-11.3802
▁zueinander	-11.3804
▁Ta	-11.3805
▁Preis	-11.3806
▁Tages	-11.381
▁Balkonen	-11.381
▁graues	-11.3819
sstand	-11.3823
▁dunkelhaariges	-11.3829
▁brünettes	-11.3831
▁Bahnen	-11.3833
ahn	-11.3839
▁zweiten	-11.3859
▁Tellern	-11.3879
▁festlich	-11.388
▁Masken	-11.3888
▁Per	-11.3897
▁Lastwagens	-11.3899
immer	-11.3904
uft	-11.3922
▁großem	-11.3927
▁sitzendes	-11.3932
ari	-11.396
hlt	-11.3966
nken	-11.3972
liegende	-11.3974
▁gesch	-11.3987
▁Fe	-11.3997
schwarze	-11.4009
aune	-11.4014
iner	-11.4047
▁sitzend	-11.4048
nger	-11.4055
rote	-11.4056
▁Steuer	-11.4059
▁Läufern	-11.4067
zer	-11.407
kle	-11.4076
schaffen	-11.4082
ish	-11.4114
▁Vaters	-11.412
▁ro	-11.4132
lose	-11.4132
vi	-11.4134
▁Lande	-11.4169
rzte	-11.4181
▁Kleidungsstücke	-11.4184
▁pu	-11.4184
▁Grills	-11.42
▁Zigaretten	-11.4228
▁Cr	-11.4231
▁nichts	-11.4233
lag	-11.4238
ierende	-11.4244
outfit	-11.4259
feil	-11.4264
▁lesend	-11.4275
eine	-11.4316
ballspiel	-11.4319
schlange	-11.4347
onne	-11.4355
äht	-11.4356
hen	-11.4379
du	-11.4393
bi	-11.4414
ndige	-11.4425
gesetzten	-11.4462
ähnliche	-11.4476
sraum	-11.448
▁Trainings	-11.4525
▁Reklame	-11.4529
Wh	-11.4534
▁Lou	-11.4563
▁umgedreht	-11.4578
laufenden	-11.4578
ph	-11.4591
uf	-11.4599
▁Au	-11.4645
▁Material	-11.4647
ube	-11.4666
hne	-11.4691
schiedenfarbigen	-11.4693
gelegten	-11.4711
nische	-11.4715
gebäudes	-11.4718
▁ethnische	-11.4723
▁Bo	-11.4799
fisch	-11.4812
▁kniend	-11.4879
Musikinstrumente	-11.491
züge	-11.4927
ide	-11.4951
▁wirken	-11.4959
sicht	-11.4962
tage	-11.4979
indernisparcours	-11.4994
▁Pi	-11.4997
▁Mess	-11.5055
▁Su	-11.5067
▁Alt	-11.5076
▁Wal	-11.5091
▁brünett	-11.5143
▁Hecke	-11.5153
▁Che	-11.5159
▁Segelboote	-11.5225
▁ruhige	-11.5246
wan	-11.5257
eife	-11.5282
cheinwerferlicht	-11.5307
Baseballkleidung	-11.5308
▁spielende	-11.5351
▁all	-11.5361
tragen	-11.5396
▁Teile	-11.5418
▁neu	-11.5424
ossen	-11.547
▁Reisen	-11.5547
achi	-11.5548
ond	-11.559
▁protestieren	-11.5592
farbig	-11.5612
eben	-11.565
Basketball	-11.5651
spiegel	-11.5659
▁hatte	-11.5679
▁bl	-11.5682
spielern	-11.5683
▁hübsch	-11.5684
braun	-11.5693
satz	-11.5739
kü	-11.5756
gruppen	-11.5756
▁gleiche	-11.5761
▁winken	-11.5795
▁lang	-11.5797
ulen	-11.5822
teams	-11.5846
hängt	-11.5846
szeit	-11.5851
stehen	-11.5876
back	-11.5876
▁schwer	-11.5881
▁Jo	-11.5903
▁je	-11.5906
bewegungen	-11.5915
schauen	-11.5917
graue	-11.5944
▁Besuch	-11.5958
uniformen	-11.5967
ose	-11.597
Team	-11.599
liegt	-11.599
tzt	-11.5997
pfer	-11.6001
▁Jung	-11.6004
leine	-11.6008
blasen	-11.6008
Skate	-11.601
gebracht	-11.6014
stehende	-11.6015
▁Künstlerin	-11.6018
board	-11.6022
▁wirk	-11.6023
Logo	-11.6024
brechen	-11.6024
stürzt	-11.6024
▁Badminton	-11.6025
Mitarbeiter	-11.6025
Festival	-11.6025
dreht	-11.6027
Welt	-11.6027
violett	-11.6027
bringt	-11.6028
Puppe	-11.6028
wirft	-11.6028
schneidet	-11.6029
Kugel	-11.6029
lässt	-11.6029
Wettbewerb	-11.603
goldenen	-11.603
küsst	-11.6031
Künstler	-11.6031
Laden	-11.6031
Schuhen	-11.6031
Statue	-11.6031
Sport	-11.6031
Veranstaltung	-11.6031
schlägt	-11.6031
Volleyball	-11.6031
Shorts	-11.6031
Feld	-11.6031
Gebäude	-11.6031
Jacke	-11.6031
Gruppe	-11.6032
Land	-11.6032
▁Pap	-11.6032
gestreiftem	-11.6032
Fußballspieler	-11.6033
paar	-11.6034
gabe	-11.6038
▁bärtige	-11.6044
▁Jahr	-11.6044
Skater	-11.6046
▁altmodische	-11.6047
▁Geburtstag	-11.6047
▁Spitz	-11.6047
▁Passagier	-11.6048
▁schick	-11.6049
▁gesäumt	-11.6049
klettern	-11.605
▁Khaki	-11.6053
bedeckten	-11.6053
seil	-11.6054
▁Leben	-11.6055
blätter	-11.6056
▁Broschüre	-11.6056
▁religiöse	-11.6056
▁zahlreiche	-11.6056
▁Unterhaltung	-11.6056
▁gepolsterte	-11.6056
▁Gesichtsmaske	-11.6057
▁komisch	-11.6058
▁gefrorene	-11.6058
▁mittelgroße	-11.6058
▁ausländische	-11.6058
▁sonn	-11.6059
▁offene	-11.6059
▁Nudel	-11.6059
▁nächtliche	-11.6059
▁Kiefer	-11.606
▁Schiene	-11.606
rück	-11.606
▁Banane	-11.606
▁Möwe	-11.606
▁schmale	-11.6061
▁Flügel	-11.6061
▁ungewöhnlich	-11.6062
▁goldene	-11.6062
▁Rettungsweste	-11.6062
▁Toilette	-11.6062
▁heiße	-11.6062
zuschauen	-11.6064
▁Anzüge	-11.6064
▁steinige	-11.6064
gepackt	-11.6064
▁Schieß	-11.6064
▁übersät	-11.6065
▁Tutu	-11.6066
▁Fotograph	-11.6066
▁Reparatur	-11.6066
▁kaputt	-11.6066
▁interessant	-11.6067
▁Pos	-11.6067
▁erhöht	-11.6067
▁Trink	-11.6067
▁kunstvoll	-11.6067
▁Anweisung	-11.6068
▁verziert	-11.6068
▁Schwester	-11.6069
▁Schneeschuh	-11.6069
▁niedrig	-11.6069
▁Bahngleise	-11.6069
▁Ziegelstein	-11.607
Mannschaften	-11.6073
kante	-11.6074
▁Saiten	-11.6077
becken	-11.6077
▁Eiscrem	-11.608
▁Rolle	-11.608
▁professionell	-11.6085
gebiet	-11.6085
kind	-11.6085
▁Transport	-11.6085
▁indianische	-11.6086
▁schlanke	-11.6086
▁Obdachlose	-11.6086
▁gefleckte	-11.6086
▁Spee	-11.6087
brücke	-11.6089
gerollt	-11.609
▁Reit	-11.609
▁Piraten	-11.6091
shorts	-11.6092
druck	-11.6093
struktur	-11.6093
tafel	-11.6093
wurf	-11.6094
pfad	-11.6094
▁Partner	-11.6095
salon	-11.6095
leiter	-11.6096
führer	-11.6096
worfen	-11.6097
▁schreien	-11.6097
oberfläche	-11.6098
▁Sieb	-11.6098
asino	-11.6098
stühlen	-11.6098
▁Bill	-11.6098
▁Schotter	-11.6098
▁Flag	-11.6098
position	-11.6098
zahl	-11.6098
▁Schreib	-11.6099
▁Schlaf	-11.6099
grube	-11.6099
training	-11.6099
motiv	-11.6099
▁Kühl	-11.6099
▁Kil	-11.6099
gäste	-11.6099
aufnahme	-11.6099
▁vorübergehen	-11.61
ären	-11.61
▁Bleistift	-11.61
crew	-11.61
student	-11.61
streifen	-11.61
helfer	-11.61
▁Zebra	-11.61
kolle	-11.61
berqueren	-11.61
▁Alltag	-11.61
▁Gehörschutz	-11.61
▁Technik	-11.61
▁Unterstützung	-11.61
▁Zusammen	-11.61
▁normal	-11.61
▁süd	-11.61
Kiosk	-11.61
Love	-11.61
Truck	-11.61
Washington	-11.61
amaha	-11.61
beleuchtung	-11.61
erbrot	-11.61
ettungsschwimmer	-11.61
gehört	-11.61
geschirr	-11.61
npiercing	-11.61
personal	-11.61
sprecher	-11.61
stöckigen	-11.61
werbung	-11.61
zufinden	-11.61
ängel	-11.61
▁Abenddämmerung	-11.61
▁Absolventen	-11.61
▁Ananas	-11.61
▁Anblick	-11.61
▁Angelschnur	-11.61
▁Angler	-11.61
▁Anlass	-11.61
▁Apartment	-11.61
▁Apparat	-11.61
▁Ausblick	-11.61
▁Badebekleidung	-11.61
▁Badesachen	-11.61
▁Basketbälle	-11.61
▁Bassgitarre	-11.61
▁Blumenmädchen	-11.61
▁Boston	-11.61
▁Brünette	-11.61
▁Bungee	-11.61
▁Bärten	-11.61
▁Concert	-11.61
▁Dampf	-11.61
▁Dirtbike	-11.61
▁Drähten	-11.61
▁Ehemann	-11.61
▁Einkaufen	-11.61
▁Elektrogitarre	-11.61
▁Essstäbchen	-11.61
▁Falke	-11.61
▁Felsenklippe	-11.61
▁Flanke	-11.61
▁Fundament	-11.61
▁Gabelstapler	-11.61
▁Gasmaske	-11.61
▁Gebirge	-11.61
▁Gedanken	-11.61
▁Geisha	-11.61
▁Gerätschaften	-11.61
▁Gestrüpp	-11.61
▁Glatzenansatz	-11.61
▁Größe	-11.61
▁Halbkreis	-11.61
▁Haltestelle	-11.61
▁Happen	-11.61
▁Harmonika	-11.61
▁Hausaufgaben	-11.61
▁Hockeyschläger	-11.61
▁Hölle	-11.61
▁Insekt	-11.61
▁Kickboxen	-11.61
▁KitchenAid	-11.61
▁Knochen	-11.61
▁Kokosnüsse	-11.61
▁Kunsthandwerk	-11.61
▁Kälte	-11.61
▁Laubbläser	-11.61
▁Leichtathlet	-11.61
▁Leopardenmuster	-11.61
▁Leotard	-11.61
▁Liegestütze	-11.61
▁Maiskolben	-11.61
▁Match	-11.61
▁Matsch	-11.61
▁Medi	-11.61
▁Meerjungfrau	-11.61
▁Mittelalter	-11.61
▁Mundharmonika	-11.61
▁Mütter	-11.61
▁Neun	-11.61
▁Ordnung	-11.61
▁Outfielder	-11.61
▁Oxford	-11.61
▁Papiertüte	-11.61
▁Pendler	-11.61
▁Pickup	-11.61
▁Pinien	-11.61
▁Podest	-11.61
▁Pokal	-11.61
▁Poolbillard	-11.61
▁Rallyeauto	-11.61
▁Rudel	-11.61
▁Rängen	-11.61
▁SUV	-11.61
▁Sakko	-11.61
▁Schläfchen	-11.61
▁Schneeengel	-11.61
▁Schneidebrett	-11.61
▁Schuhputzer	-11.61
▁Shop	-11.61
▁Skipiste	-11.61
▁Skyline	-11.61
▁Sombrero	-11.61
▁Sonnenschein	-11.61
▁Spagat	-11.61
▁Sportereignis	-11.61
▁Starbucks	-11.61
▁Strafzettel	-11.61
▁Strauß	-11.61
▁Strickjacke	-11.61
▁Strähnen	-11.61
▁Stäbchen	-11.61
▁Teammitglied	-11.61
▁Telefonmasten	-11.61
▁Toast	-11.61
▁Trocknen	-11.61
▁Truppe	-11.61
▁Töpferscheibe	-11.61
▁UNICEF	-11.61
▁Universität	-11.61
▁Verstärker	-11.61
▁Volksfest	-11.61
▁Wohnmobil	-11.61
▁Wohnwagen	-11.61
▁Wörter	-11.61
▁Zentrum	-11.61
▁abzuwehren	-11.61
▁baufälligen	-11.61
▁baumgesäumten	-11.61
▁beschnüffelt	-11.61
▁besondere	-11.61
▁besprechen	-11.61
▁biegt	-11.61
▁bieten	-11.61
▁breitkrempigen	-11.61
▁bügelt	-11.61
▁diskutiert	-11.61
▁duscht	-11.61
▁edlen	-11.61
▁elegant	-11.61
▁empor	-11.61
▁erklärt	-11.61
▁erwischen	-11.61
▁fahrbaren	-11.61
▁freuen	-11.61
▁freundlich	-11.61
▁frustriert	-11.61
▁gebunden	-11.61
▁gefilmt	-11.61
▁gefliesten	-11.61
▁gefällten	-11.61
▁gelandet	-11.61
▁genüsslich	-11.61
▁gespreizten	-11.61
▁getackelt	-11.61
▁gewaschen	-11.61
▁gleiten	-11.61
▁glitzernde	-11.61
▁grinst	-11.61
▁hauptsächlich	-11.61
▁heiraten	-11.61
▁identisch	-11.61
▁idyllischen	-11.61
▁inklusive	-11.61
▁innerhalb	-11.61
▁kauern	-11.61
▁knabbert	-11.61
▁knappen	-11.61
▁kostet	-11.61
▁kreisförmigen	-11.61
▁langsam	-11.61
▁laubbedeckten	-11.61
▁liebkost	-11.61
▁lockigem	-11.61
▁lokalen	-11.61
▁lötet	-11.61
▁maskierte	-11.61
▁merkwürdig	-11.61
▁mixt	-11.61
▁musikalische	-11.61
▁muslimische	-11.61
▁neigt	-11.61
▁neongelb	-11.61
▁oberhalb	-11.61
▁ordnet	-11.61
▁parallel	-11.61
▁pflanzt	-11.61
▁planschen	-11.61
▁prachtvollen	-11.61
▁rasieren	-11.61
▁saust	-11.61
▁schippen	-11.61
▁schließen	-11.61
▁schlummert	-11.61
▁sodass	-11.61
▁stramm	-11.61
▁tollen	-11.61
▁ungepflegte	-11.61
▁unterbricht	-11.61
▁verhindern	-11.61
▁verstecken	-11.61
▁vorliest	-11.61
▁zerrissene	-11.61
▁zugedeckt	-11.61
Goalie	-11.61
▁Bürgerkriegs	-11.61
▁Elektronik	-11.61
▁Fire	-11.61
▁Fäuste	-11.61
▁Halb	-11.61
▁Henna	-11.61
▁Husky	-11.61
▁Kapuzenjacke	-11.61
▁Krokodil	-11.61
▁Lenker	-11.61
▁Lokomotive	-11.61
▁Miniatur	-11.61
▁Nacken	-11.61
▁Notebook	-11.61
▁Paintball	-11.61
▁Pfahl	-11.61
▁Schneewehe	-11.61
▁Seetang	-11.61
▁Solo	-11.61
▁Sprinkler	-11.61
▁University	-11.61
▁angerichtet	-11.61
▁bergigen	-11.61
▁daraus	-11.61
▁deutlich	-11.61
▁gefärbten	-11.61
▁kaum	-11.61
▁streiten	-11.61
▁unruhigem	-11.61
▁zweiteiligen	-11.61
▁Bierflaschen	-11.61
▁Chinese	-11.61
▁Cross	-11.61
▁Hochzeitsfoto	-11.61
▁Holzkohle	-11.61
▁Krücken	-11.61
▁Küchentheke	-11.61
▁Maulesel	-11.61
▁Slam	-11.61
▁Steinstufen	-11.61
▁badet	-11.61
▁eigenen	-11.61
▁gescheckte	-11.61
▁toter	-11.61
▁verstreut	-11.61
stocher	-11.61
▁Cricket	-11.61
▁Ernte	-11.61
▁Kino	-11.61
▁Leitung	-11.61
▁Spiderman	-11.61
▁live	-11.61
sperrt	-11.61
stimmung	-11.61
▁Absatzschuhen	-11.61
▁Augenbraue	-11.61
▁Meter	-11.61
▁aufgemalt	-11.61
▁Deere	-11.61
▁Elektriker	-11.61
▁angelehnt	-11.61
▁Pedal	-11.61
▁Talent	-11.61
▁blättert	-11.61
▁Dusche	-11.61
▁Langarmhemd	-11.61
abrio	-11.61
▁Küchentisch	-11.61
▁Werbetafel	-11.61
feder	-11.61
▁Gebäck	-11.61
▁Kopie	-11.61
▁Tuba	-11.61
▁geduldig	-11.61
▁prüfen	-11.61
▁Kunstmuseum	-11.61
▁Kurs	-11.61
▁Pelzmantel	-11.61
▁Rückhand	-11.61
▁Staubwolke	-11.61
Jump	-11.61
organis	-11.61
▁unfertigen	-11.61
▁Cockpit	-11.61
▁grob	-11.61
▁musizieren	-11.61
ohlen	-11.61
▁Innenseite	-11.61
▁stapelt	-11.61
▁Singen	-11.61
▁sowohl	-11.61
trupp	-11.61
▁gestalteten	-11.61
lastwagen	-11.61
▁Schokoladeneis	-11.61
▁Flanellhemd	-11.61
zuschlagen	-11.61
▁Kühlbox	-11.61
▁Funken	-11.61
Court	-11.61
▁Kombi	-11.61
▁Wintermänteln	-11.61
▁angezeigt	-11.61
▁Großküche	-11.61
▁Absatz	-11.61
▁Baseballwerfer	-11.61
▁Dorfbewohner	-11.61
▁Spinnrad	-11.61
▁Country	-11.61
boy	-11.61
▁rasen	-11.61
▁Hafenbecken	-11.61
▁bellen	-11.61
▁mobilen	-11.61
▁bestimmte	-11.61
▁Unterseite	-11.61
▁Prüfung	-11.61
▁Meeresufer	-11.61
▁Kranich	-11.61
▁Notenständer	-11.61
ausflug	-11.61
▁Ausdruck	-11.61
▁Ausführung	-11.61
▁Notizbuch	-11.61
▁fehl	-11.61
▁wischen	-11.61
▁Flohmarkt	-11.61
▁Protestschild	-11.61
tron	-11.61
▁sägen	-11.61
▁Holzpfahl	-11.61
▁Taucherbrille	-11.61
IN	-11.61
▁Barriere	-11.61
▁Boxkampf	-11.61
▁knallgelben	-11.61
▁Angesicht	-11.61
▁Vorhang	-11.61
ladung	-11.61
▁Schulbus	-11.61
▁Bauprojekt	-11.61
▁Kleinbus	-11.61
▁Wäscheleine	-11.6101
▁eingegraben	-11.6101
▁baden	-11.6101
▁Müllbeutel	-11.6101
▁Waage	-11.6101
▁Laubhaufen	-11.6101
▁antiken	-11.6101
homa	-11.6101
▁Essensverkäufer	-11.6101
▁Einheimische	-11.6101
stufe	-11.6101
▁enthält	-11.6101
▁Verkehrsmittel	-11.6101
▁Windjacke	-11.6101
▁Treppengeländer	-11.6101
Down	-11.6101
▁kariertes	-11.6101
▁ragt	-11.6101
undschaft	-11.6101
▁Untergrundbahn	-11.6101
▁Packung	-11.6101
▁Web	-11.6101
▁Hinterteil	-11.6101
▁Sonnenhut	-11.6101
▁Mama	-11.6101
▁Fond	-11.6101
▁Trage	-11.6101
▁Kricketspieler	-11.6101
▁Plastikflasche	-11.6101
▁demonstriert	-11.6101
▁gähnt	-11.6101
▁kriecht	-11.6101
▁einsames	-11.6101
▁gehören	-11.6101
▁reist	-11.6101
▁Barren	-11.6101
▁Akt	-11.6102
▁Straßenlampe	-11.6102
▁Lesen	-11.6102
rotes	-11.6102
▁Marine	-11.6102
Grundschulkinder	-11.6102
▁Hausmeister	-11.6102
▁Feuerleiter	-11.6102
▁Wäschekorb	-11.6102
ansicht	-11.6102
▁Farm	-11.6102
▁Aufdruck	-11.6102
▁obdachloser	-11.6102
▁Blut	-11.6102
▁tropischer	-11.6102
▁verbringt	-11.6102
▁Jogginghose	-11.6102
▁hier	-11.6102
▁Dunking	-11.6102
▁dunkelgrünen	-11.6102
▁Einteiler	-11.6102
▁Bestellung	-11.6102
▁Basketballwurf	-11.6102
gegangen	-11.6103
▁trockenem	-11.6103
▁Festzug	-11.6103
▁Straßenarbeiten	-11.6103
▁Glasflasche	-11.6103
▁Atem	-11.6103
▁Stadtviertel	-11.6104
▁Ford	-11.6104
▁befreit	-11.6104
▁Brautkleid	-11.6104
▁zusammengebaut	-11.6104
haut	-11.6104
▁verspritzt	-11.6104
▁Uniformierte	-11.6104
▁Spielzeugpferd	-11.6104
▁Feuerwehrwagen	-11.6104
▁entladen	-11.6105
▁Rückenschwimmen	-11.6105
▁erhebt	-11.6105
▁Skimütze	-11.6105
▁rustikalen	-11.6105
▁Blumentopf	-11.6106
▁Schwung	-11.6106
▁Steingebäude	-11.6106
▁Eisskulptur	-11.6106
▁schickes	-11.6106
▁Von	-11.6106
mast	-11.6106
▁hellroten	-11.6106
▁förmlicher	-11.6106
▁Pub	-11.6106
▁Steinwand	-11.6106
▁blick	-11.6106
▁Melonen	-11.6106
▁Paddeln	-11.6106
▁Tennisbällen	-11.6106
▁kniehohen	-11.6106
▁neongrünen	-11.6106
▁rangeln	-11.6106
▁winzigen	-11.6106
▁Zügen	-11.6107
▁Rettungs	-11.6107
▁Holztür	-11.6107
▁herauf	-11.6107
▁Bustier	-11.6107
▁Affen	-11.6107
inierte	-11.6108
▁Schuhgeschäft	-11.6108
▁Haarnetz	-11.6108
▁gelbbraunen	-11.6108
▁seltsames	-11.6108
▁abwärts	-11.6108
▁dunkelbrauner	-11.6108
▁Mari	-11.6108
▁Kellnerin	-11.6109
▁Innen	-11.6109
▁Spüle	-11.6109
▁Stammes	-11.6109
▁Gemüsemarkt	-11.6109
▁Meerwasser	-11.611
▁Maultier	-11.611
▁Wanderung	-11.611
▁Keller	-11.611
▁Blumenkleid	-11.611
▁Holzstück	-11.611
▁Radfahren	-11.6111
▁Beifahrer	-11.6111
▁gern	-11.6111
▁Sportplatz	-11.6111
aße	-11.6111
▁Holzrampe	-11.6112
▁Turnübung	-11.6112
schaum	-11.6112
▁nahöstliche	-11.6112
▁vorbeigehenden	-11.6112
▁Skiausrüstung	-11.6112
▁möglich	-11.6112
▁grüßen	-11.6112
▁Anlage	-11.6112
▁SpongeBob	-11.6112
▁befördert	-11.6112
▁behinderte	-11.6112
▁schüttet	-11.6112
▁verdienen	-11.6112
▁Pulver	-11.6112
▁Tintenfisch	-11.6112
▁wirbt	-11.6113
▁Sportspiel	-11.6113
▁violettes	-11.6113
▁herein	-11.6113
▁schlanker	-11.6114
▁indianischer	-11.6114
▁altmodischer	-11.6114
▁goldener	-11.6114
▁Chirurgen	-11.6115
▁gepflegten	-11.6115
▁besprühten	-11.6115
▁Armband	-11.6115
▁übergibt	-11.6115
▁Basketballplatz	-11.6116
▁pflügt	-11.6116
stöcken	-11.6116
▁Kü	-11.6116
▁Hühner	-11.6117
eilt	-11.6117
▁Halt	-11.6118
▁Ohrhörern	-11.6118
▁Limonaden	-11.6118
▁Schärpen	-11.6118
▁cremefarbenen	-11.6118
▁kargen	-11.6118
▁lustigen	-11.6118
▁wolkigen	-11.6118
▁Hacken	-11.6118
▁deutscher	-11.6118
▁Kühen	-11.6118
spitze	-11.6118
▁gebückter	-11.6118
▁Jeansrock	-11.6119
▁Kimonos	-11.6119
▁trockenes	-11.6119
▁dunkles	-11.6119
▁schmutziger	-11.612
▁Latzhose	-11.6122
▁Löcher	-11.6122
▁Blumenfeld	-11.6123
▁unbefestigtem	-11.6123
▁Tenniskleidung	-11.6123
▁Flecken	-11.6124
▁Wasserkante	-11.6125
▁Luftsprung	-11.6126
waren	-11.6126
▁herunterzu	-11.6127
▁Geh	-11.6127
▁Schneehügel	-11.6127
▁Inder	-11.6128
▁Kronen	-11.613
▁Töpferwaren	-11.613
▁mexikanischen	-11.613
▁hinunterfährt	-11.613
▁Sportlerin	-11.6131
▁Hot	-11.6131
▁dünner	-11.6131
▁Gesellschafts	-11.6132
▁führenden	-11.6132
▁Hundeshow	-11.6133
▁Magazin	-11.6134
▁kaputten	-11.6134
▁Fotographen	-11.6134
▁Reparaturen	-11.6134
▁stimmt	-11.6134
▁Schießen	-11.6134
platte	-11.6135
▁Brat	-11.6136
▁Fahrradtrick	-11.6136
▁Medaill	-11.6136
▁gew	-11.6137
Makeup	-11.6137
▁Fußballplatz	-11.6137
▁umgedrehten	-11.6139
▁Töpfen	-11.614
▁Papp	-11.614
fon	-11.6141
▁Sooners	-11.6141
▁mittelgroßen	-11.6142
▁Bag	-11.6142
Kostümen	-11.6142
▁Bre	-11.6143
▁gemalten	-11.6143
ampel	-11.6144
▁Fahren	-11.6144
▁Unterhaltungs	-11.6145
▁schwerer	-11.6145
▁gefrorenen	-11.6146
figuren	-11.6149
ändern	-11.6152
ähnliches	-11.6152
▁Kopfball	-11.6152
▁Schweißer	-11.6153
▁ausländischen	-11.6153
Unterteil	-11.6154
▁Aufgaben	-11.6154
▁nähern	-11.6154
▁Wasserschlauch	-11.6154
▁Anzeige	-11.6156
▁schließt	-11.6156
▁wachsen	-11.6156
▁Werkzeuge	-11.6156
▁Saris	-11.6157
▁grasbewachsenes	-11.6157
ktisch	-11.6158
▁Bauern	-11.6158
▁schwarzhaariger	-11.6158
▁nacheinander	-11.6159
▁großartige	-11.616
gestreckt	-11.6162
▁bef	-11.6164
boarder	-11.6165
bergab	-11.6165
▁fröhlicher	-11.6165
▁Khakihosen	-11.6166
▁ersten	-11.6166
▁Bandmitgliedern	-11.6167
▁Frisch	-11.6169
▁bevölkert	-11.6171
bietet	-11.6171
▁albernen	-11.6172
▁kahlen	-11.6172
▁langer	-11.6174
▁vordere	-11.6175
▁nasses	-11.6176
▁riesiger	-11.6179
▁Eiern	-11.618
▁Rotes	-11.6183
▁Lichter	-11.6188
▁Einkäufern	-11.619
▁vorwärts	-11.6191
▁sollen	-11.6194
▁besuchten	-11.6195
▁Rollen	-11.6195
amerikanischen	-11.6195
▁Snacks	-11.6196
▁Aufnahmen	-11.6202
▁Sesseln	-11.6202
bungs	-11.6209
▁Bewegungen	-11.6211
▁umeinander	-11.6212
▁sei	-11.6214
turn	-11.6214
▁aufgebaut	-11.6217
▁herausragen	-11.6218
äl	-11.6218
▁verw	-11.6221
szenerie	-11.6224
▁Sonnenschirmen	-11.6231
▁glücklicher	-11.6231
▁angezogenes	-11.6231
▁Par	-11.6238
▁Radfahrerin	-11.6238
▁Linien	-11.6238
▁Ziegeln	-11.6238
▁Besucher	-11.6243
▁hochge	-11.6245
pferd	-11.6246
▁Schnauzer	-11.6255
▁belebter	-11.6257
▁Angeln	-11.6261
Afroamerikanerin	-11.6263
▁hellhäutigen	-11.6265
▁Fahrradgeschäft	-11.6267
erung	-11.6267
▁rosafarbenes	-11.6274
▁Schwimmen	-11.628
▁Taxis	-11.6286
▁Baseballspiels	-11.6286
▁Motorrollern	-11.6286
▁Olympia	-11.6286
▁Roben	-11.6287
▁Wasserweg	-11.6296
▁Last	-11.6297
▁Empfangs	-11.6298
inger	-11.6304
▁Angelruten	-11.631
▁Dingen	-11.631
▁afrikanisches	-11.6313
▁verschiedener	-11.6317
▁befestigten	-11.6319
▁Schafen	-11.6321
▁Militärs	-11.6324
▁Piers	-11.6325
▁orientalischen	-11.6333
hy	-11.6338
luft	-11.6342
▁Live	-11.6343
▁Bauarbeiterhelm	-11.6345
kräfte	-11.6347
▁Baseballkappen	-11.6347
reise	-11.6349
▁Reh	-11.6354
▁rasierten	-11.6358
▁Regenschirme	-11.6359
▁indischen	-11.6361
hang	-11.6361
▁Männergruppe	-11.6367
▁goldgelbe	-11.6381
▁Spitzen	-11.6382
▁Matten	-11.6384
▁Waldes	-11.6388
▁schönes	-11.6394
▁stehendes	-11.6417
▁Japaner	-11.6429
▁Hemdchen	-11.6434
▁Eng	-11.6435
▁Reitern	-11.6446
ierung	-11.6447
▁Nasen	-11.6458
▁Holzkiste	-11.6464
▁Objekten	-11.6478
▁neues	-11.6479
sladen	-11.6484
einen	-11.6497
▁Schlangen	-11.6544
ora	-11.6552
▁Tassen	-11.656
vo	-11.657
▁Para	-11.6584
▁guten	-11.6585
ndes	-11.6602
ragende	-11.6611
▁Feldes	-11.6633
▁Seile	-11.6653
▁Reinigungs	-11.6666
upp	-11.6679
ecken	-11.6703
▁Gitarrespieler	-11.6713
Mar	-11.6744
ringen	-11.6777
the	-11.6786
Cart	-11.6805
Akkordeonspieler	-11.6806
▁Life	-11.6831
anten	-11.6839
▁Stofftiere	-11.6893
Industriegebäude	-11.6893
gespann	-11.6897
▁Pferdes	-11.6961
kommende	-11.6988
▁Kekse	-11.7058
▁Rennhunde	-11.7058
▁Dreiräder	-11.7084
▁Lego	-11.7085
▁Kle	-11.7111
fort	-11.7122
färbt	-11.7188
▁hängende	-11.7239
isenbahnschienen	-11.7241
ucher	-11.7259
▁künstlerische	-11.729
▁Rund	-11.7303
Frauenvolleyball	-11.7342
parcours	-11.7343
kühlen	-11.7351
▁Deutsche	-11.7377
ause	-11.7408
▁Pol	-11.7433
sjacke	-11.7467
bart	-11.7475
abhängen	-11.7519
▁Har	-11.7525
▁Chan	-11.7588
letterausrüstung	-11.7611
höhe	-11.7615
▁redend	-11.77
▁Kal	-11.7727
spielerinnen	-11.773
farbigen	-11.7778
▁ausgelegt	-11.7784
▁tätowiert	-11.7803
ula	-11.7813
▁Ch	-11.782
▁falsche	-11.784
isten	-11.7853
ial	-11.7858
▁zw	-11.786
eburtstagskuchen	-11.7864
▁tiefe	-11.7883
▁Deutsch	-11.7889
hilf	-11.7905
blaue	-11.795
▁Sta	-11.7972
haften	-11.7991
▁Asiatisch	-11.8072
▁verletzte	-11.8123
▁wenige	-11.8127
▁schwimmende	-11.8222
▁Mä	-11.8235
chu	-11.8251
▁Plan	-11.8275
▁Busse	-11.8282
eiden	-11.8292
ames	-11.8303
käfig	-11.8371
ller	-11.8372
war	-11.8401
▁Industrie	-11.8423
teig	-11.8497
helmen	-11.8516
zeit	-11.8533
ott	-11.8565
fliegen	-11.8592
▁Ren	-11.8598
▁Backstein	-11.8615
▁Rohre	-11.8655
yo	-11.8679
ette	-11.8683
radfahrer	-11.872
ischt	-11.8751
kinder	-11.8752
▁Blasinstrumente	-11.8787
blickt	-11.879
▁prächtige	-11.8811
schüler	-11.8825
schiff	-11.8827
angehörige	-11.8831
Fi	-11.8841
▁Softballspiel	-11.8947
kisten	-11.8987
▁gek	-11.9015
▁Afro	-11.9016
▁Werbe	-11.9024
ipper	-11.9081
stätte	-11.909
▁Gedenk	-11.909
braunem	-11.9102
führung	-11.911
▁vorbeilaufen	-11.9123
off	-11.9128
steht	-11.9134
blöcken	-11.9145
sorten	-11.9176
drückt	-11.9185
▁Kick	-11.9187
▁verf	-11.9188
ski	-11.9197
chtet	-11.9212
schreibt	-11.922
▁tanzende	-11.923
▁träg	-11.9269
▁leuchten	-11.9277
reiter	-11.9287
▁Begleit	-11.9288
reiten	-11.9289
▁besser	-11.929
▁Straßenschild	-11.9293
hilfe	-11.9323
▁wind	-11.9329
▁tröst	-11.9329
▁Punk	-11.933
beamter	-11.9331
ruhen	-11.9333
presst	-11.9335
wettkampf	-11.934
reicht	-11.9345
▁Rugbyspiel	-11.9345
▁flache	-11.9345
gehoben	-11.9349
atz	-11.9355
wachsen	-11.9355
Anzeige	-11.9356
schließt	-11.9356
ünden	-11.9356
Turnier	-11.9358
dose	-11.9358
spritzen	-11.9359
Roll	-11.9359
Armee	-11.9361
Texas	-11.9361
wirbelt	-11.9362
Muster	-11.9362
zeigt	-11.9362
passenden	-11.9362
Klasse	-11.9362
putzen	-11.9362
füttert	-11.9363
Fest	-11.9363
Arena	-11.9363
Plakat	-11.9363
Bekleidung	-11.9363
taucht	-11.9364
Lkw	-11.9364
Wettkampf	-11.9364
Lauf	-11.9364
Flugzeug	-11.9364
Overall	-11.9364
bringen	-11.9364
Weiß	-11.9364
Maschine	-11.9364
Uniform	-11.9365
trinken	-11.9365
Kunststück	-11.9365
Schaukel	-11.9365
Tasche	-11.9365
Boot	-11.9365
Hosen	-11.9365
Kopf	-11.9365
Ball	-11.9365
Schwimmbecken	-11.9365
trägt	-11.9365
Musik	-11.9365
gräbt	-11.9366
Jungen	-11.9366
▁offen	-11.9366
Rock	-11.9366
Bahnsteig	-11.9366
Mann	-11.9367
Bahnhof	-11.9368
▁Design	-11.9372
öpfen	-11.9372
ecke	-11.9375
▁Wartungs	-11.9379
malt	-11.9379
gelbes	-11.9381
▁Bull	-11.9382
▁Karneval	-11.9387
▁beschädigte	-11.9387
▁beigefarben	-11.9388
▁klare	-11.9388
▁Gesellschaft	-11.9389
▁Bänder	-11.939
▁Meeresfrüchte	-11.939
▁Wunderkerze	-11.939
▁ausgestopfte	-11.939
▁dreckige	-11.939
▁komplizierte	-11.939
▁Muschel	-11.939
pflanze	-11.939
▁Fahrgäste	-11.939
▁Urlaub	-11.939
▁Rollerskate	-11.939
studio	-11.9391
▁Töpferware	-11.9392
▁mexikanische	-11.9392
▁Krone	-11.9392
▁Töpfe	-11.9392
▁kanadische	-11.9393
▁Schutzweste	-11.9393
▁Kid	-11.9393
▁Rollerblade	-11.9393
▁Laterne	-11.9394
▁Short	-11.9394
▁Hinterbeine	-11.9395
▁elektrische	-11.9395
▁gr	-11.9395
▁Gläser	-11.9395
▁Turnschuhe	-11.9395
▁Speise	-11.9395
▁örtliche	-11.9395
▁gepunktete	-11.9395
▁nächste	-11.9395
▁eingezäunte	-11.9395
▁überfüllte	-11.9396
▁habe	-11.9397
zeichnung	-11.9397
▁Teamkolleg	-11.9398
▁menschlich	-11.9398
▁Gewänder	-11.9399
▁Fleck	-11.9399
▁Pirat	-11.9399
▁Tennisspiel	-11.94
▁Tennisschuh	-11.9401
▁einfach	-11.9401
▁historisch	-11.9401
▁Ware	-11.9401
▁Wett	-11.9402
▁Straßenmusik	-11.9402
▁fremd	-11.9402
pflanzen	-11.9403
▁Passant	-11.9403
▁Latz	-11.9404
▁Wasserpistole	-11.9406
polizist	-11.9407
▁beg	-11.9408
▁Bären	-11.9409
stäben	-11.9413
egel	-11.9414
körper	-11.9416
▁Sandale	-11.9418
AM	-11.9418
▁Schlepp	-11.9418
▁verrückt	-11.9418
▁kaukasische	-11.9418
▁kurzhaarige	-11.9418
▁einheimische	-11.9419
▁lohfarbene	-11.9419
▁glatzköpfige	-11.942
drücken	-11.9422
▁geschminkte	-11.9422
graues	-11.9423
▁schmetter	-11.9425
▁tackel	-11.9425
▁Kelle	-11.9425
▁Kirmes	-11.9426
▁Mini	-11.9426
▁Kauf	-11.9427
bogen	-11.9427
kappe	-11.9427
wache	-11.9427
tunnel	-11.9428
tänzer	-11.9428
▁strick	-11.9428
burg	-11.9429
▁Karussel	-11.9429
balken	-11.9429
lampe	-11.9429
▁Woll	-11.9429
wickelt	-11.9429
laster	-11.943
▁künstlich	-11.9431
bändern	-11.9431
händler	-11.9431
restaurant	-11.9431
auslage	-11.9431
sportler	-11.9431
rauen	-11.9431
beutel	-11.9431
club	-11.9431
asketball	-11.9432
mantel	-11.9432
wald	-11.9432
stadt	-11.9432
sachen	-11.9432
▁Bowl	-11.9432
ody	-11.9432
▁Durch	-11.9432
gerüst	-11.9432
▁Riesen	-11.9432
meister	-11.9432
▁knall	-11.9432
motor	-11.9432
handlung	-11.9432
▁Bürger	-11.9432
▁Rummel	-11.9432
▁Spazier	-11.9433
▁Wild	-11.9433
▁erkenn	-11.9433
grund	-11.9433
▁Bäcker	-11.9433
bewohner	-11.9433
eisenbahn	-11.9433
iki	-11.9433
▁Afrika	-11.9433
▁Schmied	-11.9433
brocken	-11.9433
bühne	-11.9433
produkte	-11.9433
Schwimmflügel	-11.9433
marsch	-11.9433
Schlagman	-11.9433
stift	-11.9433
reizt	-11.9433
ezogen	-11.9433
gestaltet	-11.9433
▁Spritz	-11.9433
wirtschaft	-11.9433
Pinguin	-11.9433
▁Comic	-11.9433
▁kosten	-11.9433
▁Boogie	-11.9433
ätzen	-11.9433
anzeige	-11.9433
fäng	-11.9433
▁British	-11.9433
▁Text	-11.9433
▁Elasthan	-11.9433
fällig	-11.9433
hölzer	-11.9433
▁Hollister	-11.9433
▁Kassier	-11.9433
▁Keramik	-11.9433
▁Lakers	-11.9433
▁Nahrung	-11.9433
▁Ninja	-11.9433
▁Rüschen	-11.9433
▁Stachel	-11.9433
Amerika	-11.9433
Barbecue	-11.9433
Boy	-11.9433
Farbspritzern	-11.9433
Fäustlingen	-11.9433
Guitar	-11.9433
Hasenohren	-11.9433
Hippie	-11.9433
Juweliergeschäft	-11.9433
Kreuzfahrtschiff	-11.9433
Leuchtreklame	-11.9433
Münzfernsprecher	-11.9433
Stethoskop	-11.9433
Talkie	-11.9433
Verbindung	-11.9433
Welcome	-11.9433
aktivität	-11.9433
angestellte	-11.9433
anhänger	-11.9433
apparat	-11.9433
besucher	-11.9433
brenner	-11.9433
buggy	-11.9433
bänken	-11.9433
bücher	-11.9433
ction	-11.9433
eifrig	-11.9433
einrichtung	-11.9433
endurchfluteten	-11.9433
erminal	-11.9433
europäischen	-11.9433
fleisch	-11.9433
geblieben	-11.9433
gitarrenähnliche	-11.9433
häuschen	-11.9433
höhle	-11.9433
ispanoamerikaner	-11.9433
kulisse	-11.9433
lehrer	-11.9433
mbiente	-11.9433
objektiv	-11.9433
ootsanlegestelle	-11.9433
packung	-11.9433
podest	-11.9433
quetscht	-11.9433
runzelt	-11.9433
schrank	-11.9433
schuld	-11.9433
spaziergang	-11.9433
strom	-11.9433
system	-11.9433
tollt	-11.9433
uadbike	-11.9433
vogel	-11.9433
zapft	-11.9433
zusammengedrängt	-11.9433
zwanzig	-11.9433
▁Abenteu	-11.9433
▁Abfälle	-11.9433
▁Absätzen	-11.9433
▁Actionfoto	-11.9433
▁Agility	-11.9433
▁Anorak	-11.9433
▁Apotheke	-11.9433
▁Arcade	-11.9433
▁Arkade	-11.9433
▁Aschenbahn	-11.9433
▁Aussichtspunkt	-11.9433
▁Balance	-11.9433
▁Baserunner	-11.9433
▁Beagle	-11.9433
▁Beisammensein	-11.9433
▁Beobachter	-11.9433
▁Berlin	-11.9433
▁Besteck	-11.9433
▁Blondine	-11.9433
▁Boje	-11.9433
▁Broad	-11.9433
▁Bronzestatue	-11.9433
▁Buntstift	-11.9433
▁Burka	-11.9433
▁Bühnenauftritt	-11.9433
▁Cafeteria	-11.9433
▁Camcorder	-11.9433
▁Canyon	-11.9433
▁Champagner	-11.9433
▁Chefkoch	-11.9433
▁Chinatown	-11.9433
▁Coney	-11.9433
▁Cupcake	-11.9433
▁Dalmatiner	-11.9433
▁Delfin	-11.9433
▁Donuts	-11.9433
▁Dragster	-11.9433
▁Einzelhandel	-11.9433
▁Eiskrem	-11.9433
▁Ellenbogen	-11.9433
▁Enkelin	-11.9433
▁Erhebung	-11.9433
▁Erinnerung	-11.9433
▁Explosion	-11.9433
▁Fahrgast	-11.9433
▁Feinkost	-11.9433
▁Fertig	-11.9433
▁First	-11.9433
▁Flach	-11.9433
▁Fließen	-11.9433
▁Flöße	-11.9433
▁Fotoshooting	-11.9433
▁Frankreich	-11.9433
▁Freue	-11.9433
▁Frosch	-11.9433
▁Fußbälle	-11.9433
▁Fähre	-11.9433
▁Fällen	-11.9433
▁Galerie	-11.9433
▁Gastronomiebe	-11.9433
▁Gebäudeeingang	-11.9433
▁Glocke	-11.9433
▁Golfschläger	-11.9433
▁Gottesdienst	-11.9433
▁Großmutter	-11.9433
▁Gummistiefeln	-11.9433
▁Gärtner	-11.9433
▁Halstücher	-11.9433
▁Headset	-11.9433
▁Heimatland	-11.9433
▁Heimwerker	-11.9433
▁Helfer	-11.9433
▁Herrenfriseur	-11.9433
▁Hochdruckreinig	-11.9433
▁Holzfäller	-11.9433
▁Hängegleiter	-11.9433
▁Hörnern	-11.9433
▁Interessantes	-11.9433
▁Internet	-11.9433
▁Irgendein	-11.9433
▁Irokesenfrisur	-11.9433
▁Jalousie	-11.9433
▁Jongleur	-11.9433
▁Jonglier	-11.9433
▁Karaoke	-11.9433
▁Kartoffelchip	-11.9433
▁Kirchenchor	-11.9433
▁Klettergurt	-11.9433
▁Kliff	-11.9433
▁Knieschützern	-11.9433
▁Kondom	-11.9433
▁Korbleger	-11.9433
▁Krankenwagen	-11.9433
▁Käfer	-11.9433
▁Landwirt	-11.9433
▁Leitplanke	-11.9433
▁Lenkrad	-11.9433
▁Lolli	-11.9433
▁Luftmatratze	-11.9433
▁Läden	-11.9433
▁Löschfahrzeug	-11.9433
▁Machete	-11.9433
▁Marschkapelle	-11.9433
▁Mascara	-11.9433
▁Mechaniker	-11.9433
▁Meeresstrand	-11.9433
▁Mega	-11.9433
▁Megaphon	-11.9433
▁Minivan	-11.9433
▁Mittelstreifen	-11.9433
▁Monstertruck	-11.9433
▁Mosaik	-11.9433
▁Moschee	-11.9433
▁Muffin	-11.9433
▁Musikkapelle	-11.9433
▁Mustang	-11.9433
▁Mündern	-11.9433
▁Münztelefon	-11.9433
▁Nagellack	-11.9433
▁Nahost	-11.9433
▁National	-11.9433
▁Neoprenanzügen	-11.9433
▁Nintendo	-11.9433
▁Ollie	-11.9433
▁Orgel	-11.9433
▁Panda	-11.9433
▁Parkettboden	-11.9433
▁Pelikan	-11.9433
▁Pfau	-11.9433
▁Pferderücken	-11.9433
▁Pflege	-11.9433
▁Picknickdecke	-11.9433
▁Polizeiauto	-11.9433
▁Problem	-11.9433
▁Prozession	-11.9433
▁Pulli	-11.9433
▁Retriever	-11.9433
▁Ritter	-11.9433
▁Rollkoffer	-11.9433
▁Rüstung	-11.9433
▁Samurai	-11.9433
▁Sauna	-11.9433
▁Schlammpfütze	-11.9433
▁Schluck	-11.9433
▁Schlüssel	-11.9433
▁Schnappschuss	-11.9433
▁Schneeflocke	-11.9433
▁Schnellboot	-11.9433
▁Schnürsenkel	-11.9433
▁Schottenrock	-11.9433
▁Sehr	-11.9433
▁Serviette	-11.9433
▁Softdrink	-11.9433
▁Spirituosen	-11.9433
▁Sprünge	-11.9433
▁Steigung	-11.9433
▁Strümpfen	-11.9433
▁Substanz	-11.9433
▁Tabak	-11.9433
▁Taille	-11.9433
▁Tarnmuster	-11.9433
▁Tastatur	-11.9433
▁Toyota	-11.9433
▁Transportmittel	-11.9433
▁Trauzeugen	-11.9433
▁Treffen	-11.9433
▁Trägershirt	-11.9433
▁Tulpen	-11.9433
▁Tunika	-11.9433
▁Töchter	-11.9433
▁Ukulele	-11.9433
▁Umarmung	-11.9433
▁Ungefähr	-11.9433
▁Unkraut	-11.9433
▁Vegas	-11.9433
▁Vergrößerungsgl	-11.9433
▁Vielzahl	-11.9433
▁Vogelschwarm	-11.9433
▁Volkswagen	-11.9433
▁Vorschlaghammer	-11.9433
▁Vortragssaal	-11.9433
▁Wasserpfütze	-11.9433
▁Weibliche	-11.9433
▁Weizen	-11.9433
▁Wochenmarkt	-11.9433
▁Wohngegend	-11.9433
▁Wurzel	-11.9433
▁Zahnspange	-11.9433
▁Zauberer	-11.9433
▁Zeigefinger	-11.9433
▁Zementmischer	-11.9433
▁Zirkus	-11.9433
▁Zopf	-11.9433
▁Zugabteil	-11.9433
▁Zusammenkunft	-11.9433
▁Zweck	-11.9433
▁Zwölf	-11.9433
▁abgeschnittenen	-11.9433
▁abseits	-11.9433
▁albert	-11.9433
▁angebunden	-11.9433
▁attackieren	-11.9433
▁aufgewühlte	-11.9433
▁ausführt	-11.9433
▁ausgefransten	-11.9433
▁außergewöhnlich	-11.9433
▁basteln	-11.9433
▁baumbestandene	-11.9433
▁behandelt	-11.9433
▁bergauf	-11.9433
▁berittene	-11.9433
▁beruhigt	-11.9433
▁bewertet	-11.9433
▁bewölktem	-11.9433
▁bittet	-11.9433
▁bloßen	-11.9433
▁brennt	-11.9433
▁britische	-11.9433
▁bummeln	-11.9433
▁buschige	-11.9433
▁chirurgische	-11.9433
▁danach	-11.9433
▁dasselbe	-11.9433
▁dehnt	-11.9433
▁dramatisch	-11.9433
▁drauf	-11.9433
▁dreirädrige	-11.9433
▁drängeln	-11.9433
▁drängt	-11.9433
▁durchnässt	-11.9433
▁eingehüllt	-11.9433
▁eingerahmte	-11.9433
▁eingeschaltete	-11.9433
▁entdeckt	-11.9433
▁entscheiden	-11.9433
▁entschlossen	-11.9433
▁erkundet	-11.9433
▁erscheint	-11.9433
▁erschöpft	-11.9433
▁europäisches	-11.9433
▁extravagant	-11.9433
▁farblich	-11.9433
▁feierliche	-11.9433
▁finden	-11.9433
▁fleißig	-11.9433
▁formellen	-11.9433
▁fremdländische	-11.9433
▁gebadet	-11.9433
▁gebräunte	-11.9433
▁gedruckt	-11.9433
▁gefließten	-11.9433
▁gemähte	-11.9433
▁geometrischen	-11.9433
▁geschwungen	-11.9433
▁getraut	-11.9433
▁gewebte	-11.9433
▁gewinnt	-11.9433
▁gewundene	-11.9433
▁gigantische	-11.9433
▁glätten	-11.9433
▁glättet	-11.9433
▁grindet	-11.9433
▁gruselige	-11.9433
▁grüßt	-11.9433
▁halbwilden	-11.9433
▁harkt	-11.9433
▁hausgemachte	-11.9433
▁hingesetzt	-11.9433
▁hämmert	-11.9433
▁hölzernes	-11.9433
▁interessierten	-11.9433
▁italienische	-11.9433
▁jedoch	-11.9433
▁kahlköpfigen	-11.9433
▁klammert	-11.9433
▁kommunizieren	-11.9433
▁kommuniziert	-11.9433
▁kräftig	-11.9433
▁kurzärmeligen	-11.9433
▁kuscheln	-11.9433
▁langärmigen	-11.9433
▁lauschen	-11.9433
▁lauter	-11.9433
▁lebende	-11.9433
▁lebendige	-11.9433
▁lindgrünen	-11.9433
▁lugt	-11.9433
▁majestätisch	-11.9433
▁matschigen	-11.9433
▁motorisierten	-11.9433
▁müssen	-11.9433
▁nachdenklich	-11.9433
▁neonfarbene	-11.9433
▁operieren	-11.9433
▁patriotische	-11.9433
▁pelzige	-11.9433
▁pflücken	-11.9433
▁präsentieren	-11.9433
▁purpurrote	-11.9433
▁quadratische	-11.9433
▁reibt	-11.9433
▁reißt	-11.9433
▁rundherum	-11.9433
▁räumen	-11.9433
▁rötlichen	-11.9433
▁schleudert	-11.9433
▁schnitzen	-11.9433
▁schottische	-11.9433
▁schubsen	-11.9433
▁schwangere	-11.9433
▁schäbig	-11.9433
▁schöpft	-11.9433
▁seht	-11.9433
▁seichtes	-11.9433
▁skaten	-11.9433
▁spektakulären	-11.9433
▁sprintet	-11.9433
▁spülen	-11.9433
▁stacheligen	-11.9433
▁stemmt	-11.9433
▁synchron	-11.9433
▁säubern	-11.9433
▁tauchen	-11.9433
▁tauscht	-11.9433
▁transportieren	-11.9433
▁unscharfe	-11.9433
▁unterirdische	-11.9433
▁unüberdachten	-11.9433
▁urbanen	-11.9433
▁verborgen	-11.9433
▁verdreckte	-11.9433
▁verregnete	-11.9433
▁verrichtet	-11.9433
▁verschlungene	-11.9433
▁verschwitzt	-11.9433
▁versenkt	-11.9433
▁verteidigt	-11.9433
▁vervollständigt	-11.9433
▁verwahrloste	-11.9433
▁vielfältige	-11.9433
▁vierbeinige	-11.9433
▁vornübergebeugt	-11.9433
▁weht	-11.9433
▁wundervolle	-11.9433
▁wälzt	-11.9433
▁wärmen	-11.9433
▁wühlt	-11.9433
▁wütend	-11.9433
▁zerkleinert	-11.9433
▁zerlumpte	-11.9433
▁zielen	-11.9433
▁zwickt	-11.9433
▁ändert	-11.9433
▁ängstlich	-11.9433
drehen	-11.9433
metall	-11.9433
▁Abfluss	-11.9433
▁Barbie	-11.9433
▁Biergläsern	-11.9433
▁Business	-11.9433
▁Esswaren	-11.9433
▁Föhn	-11.9433
▁Gepäckstücken	-11.9433
▁Hochzeitstag	-11.9433
▁Island	-11.9433
▁Kapuzenteil	-11.9433
▁Kontrabass	-11.9433
▁Kultur	-11.9433
▁Maurer	-11.9433
▁Mixer	-11.9433
▁Plattenspieler	-11.9433
▁Salon	-11.9433
▁Schlittenhunde	-11.9433
▁Shopping	-11.9433
▁Silber	-11.9433
▁Skelett	-11.9433
▁Sonnenanbeter	-11.9433
▁Stroboskoplicht	-11.9433
▁Tamburin	-11.9433
▁Verkleiden	-11.9433
▁Vorbei	-11.9433
▁Wok	-11.9433
▁absolvier	-11.9433
▁betreut	-11.9433
▁darstellt	-11.9433
▁englische	-11.9433
▁furcht	-11.9433
▁geblockt	-11.9433
▁hacken	-11.9433
▁projiziert	-11.9433
▁schlachtet	-11.9433
Kitty	-11.9433
berdachung	-11.9433
grenzt	-11.9433
schläuche	-11.9433
soldat	-11.9433
streift	-11.9433
unfall	-11.9433
würfel	-11.9433
ynchronschwimmer	-11.9433
▁Bereitschaft	-11.9433
▁Cowboystiefeln	-11.9433
▁Filmset	-11.9433
▁Gast	-11.9433
▁Gyro	-11.9433
▁Küstenlinie	-11.9433
▁Leopard	-11.9433
▁Limo	-11.9433
▁Lupe	-11.9433
▁Mischung	-11.9433
▁Regenstiefeln	-11.9433
▁Tiefs	-11.9433
▁Wohnhäuser	-11.9433
▁bewachen	-11.9433
▁blaugrünem	-11.9433
▁bleckt	-11.9433
▁fegen	-11.9433
▁gewandt	-11.9433
▁hätte	-11.9433
▁kontrolliert	-11.9433
▁wählen	-11.9433
llkragenpullover	-11.9433
▁Choreografie	-11.9433
▁East	-11.9433
▁Eingangshalle	-11.9433
▁Gleich	-11.9433
▁Münz	-11.9433
▁Prinzessin	-11.9433
▁Tandem	-11.9433
▁Wildblumen	-11.9433
▁ausgelassen	-11.9433
▁hügeligen	-11.9433
▁interagiert	-11.9433
▁konkurrier	-11.9433
▁leisten	-11.9433
▁sagen	-11.9433
▁weicht	-11.9433
Twister	-11.9433
kanal	-11.9433
▁Kostümierte	-11.9433
▁Leichtathletik	-11.9433
▁Mickey	-11.9433
▁Trikotnummer	-11.9433
Ohio	-11.9433
clown	-11.9433
frau	-11.9433
▁Blechbl	-11.9433
▁Haube	-11.9433
▁Laternenpfahl	-11.9433
▁Rampenlicht	-11.9433
▁beugen	-11.9433
▁bildet	-11.9433
▁spannen	-11.9433
wechsel	-11.9433
▁kontrollieren	-11.9433
Piano	-11.9433
Trockner	-11.9433
▁Blüte	-11.9433
▁Küchenboden	-11.9433
▁Schmerzen	-11.9433
▁stoppen	-11.9433
▁teure	-11.9433
lief	-11.9433
taucher	-11.9433
▁Korken	-11.9433
▁Paddelboot	-11.9433
▁Pappkarton	-11.9433
▁Pappteller	-11.9433
▁Stäbe	-11.9433
▁Sumpfgebiet	-11.9433
▁Tritt	-11.9433
▁erinner	-11.9433
▁offiziellen	-11.9433
▁streut	-11.9433
▁testen	-11.9433
▁vermähltes	-11.9433
▁weinrot	-11.9433
▁Pilz	-11.9433
▁Toten	-11.9433
▁Werbeanzeige	-11.9433
▁föhnt	-11.9433
▁wollen	-11.9433
Feuerwerkskörper	-11.9433
▁Gewächshaus	-11.9433
▁Menü	-11.9433
▁Mets	-11.9433
▁Trop	-11.9433
▁rückt	-11.9433
flank	-11.9433
orld	-11.9433
▁Freiwillige	-11.9433
Hüpf	-11.9433
pumpe	-11.9433
▁Puzzle	-11.9433
▁Spazierstöcken	-11.9433
▁Wanderstöcke	-11.9433
▁eingepacktes	-11.9433
▁herzförmige	-11.9433
▁zerren	-11.9433
Klötze	-11.9433
perücke	-11.9433
schuss	-11.9433
▁erfahrener	-11.9433
uadraten	-11.9433
▁Spitzbart	-11.9433
▁kreisch	-11.9433
fordert	-11.9433
äkelt	-11.9433
▁Blutdruck	-11.9433
▁Fechtwettkampf	-11.9433
▁Freiluftkonzert	-11.9433
▁Corgi	-11.9433
▁Jogginganzug	-11.9433
▁reflektierender	-11.9433
South	-11.9433
erobern	-11.9433
wirtschaftlichen	-11.9433
▁Abschleppwagen	-11.9433
▁Würstchen	-11.9433
▁täglichen	-11.9433
▁angeln	-11.9433
▁Bühnenlicht	-11.9433
▁Steaks	-11.9433
▁Voll	-11.9433
wall	-11.9433
▁Laderampe	-11.9433
▁angeschnallt	-11.9433
▁Bildhauer	-11.9433
▁Spritzwasser	-11.9433
▁Sparring	-11.9433
verkaufsstand	-11.9433
wetter	-11.9433
▁Drahtseil	-11.9433
▁Abdeckung	-11.9433
▁Aufnahmestudio	-11.9433
▁Picknickbank	-11.9433
▁Paddle	-11.9433
nudel	-11.9433
▁Erdbeere	-11.9433
▁Notfall	-11.9433
▁schwitzt	-11.9433
▁Diashow	-11.9433
▁Drahtzaun	-11.9433
▁Totenkopf	-11.9433
▁geformt	-11.9433
▁Einsatzkräfte	-11.9433
▁Farn	-11.9433
▁Green	-11.9433
▁Naturprodukte	-11.9433
▁Rentier	-11.9433
▁Skimboarde	-11.9433
▁Verwendung	-11.9433
▁Drummer	-11.9433
▁Außentreppe	-11.9433
▁Friseursalon	-11.9433
▁Meereswelle	-11.9433
▁Schutthaufen	-11.9433
▁backen	-11.9433
▁Gesichtsschutz	-11.9434
▁scherz	-11.9434
▁Eierkuchen	-11.9434
gewinkelt	-11.9434
▁Grube	-11.9434
▁Pant	-11.9434
Play	-11.9434
▁geeignete	-11.9434
▁Berufskleidung	-11.9434
fußballspiel	-11.9434
haube	-11.9434
messe	-11.9434
▁Sonnenaufgang	-11.9434
▁Wee	-11.9434
▁Steindenkmal	-11.9434
▁unechten	-11.9434
▁Kampfrichter	-11.9434
▁Wartebereich	-11.9434
▁betreibt	-11.9434
▁überschlagen	-11.9434
aufdruck	-11.9434
▁Weihnachtszeit	-11.9434
▁ankommenden	-11.9434
▁proben	-11.9434
▁Stirnbändern	-11.9434
▁Tonstudio	-11.9434
▁Zucker	-11.9434
▁Amish	-11.9434
▁Chinesisch	-11.9434
▁meditiert	-11.9434
ausstattung	-11.9434
▁Zehen	-11.9434
▁Fechtkampf	-11.9434
▁Bügel	-11.9434
▁Spät	-11.9434
▁Schriftzug	-11.9434
▁Schwarm	-11.9434
▁goldfarbener	-11.9434
▁Rummelplatz	-11.9434
▁blutende	-11.9434
▁duckt	-11.9434
umhang	-11.9434
▁ernten	-11.9434
Touch	-11.9434
erbsen	-11.9434
▁eilen	-11.9434
▁Fabrikarbeiter	-11.9434
▁rockt	-11.9434
▁Unterarm	-11.9434
▁Sense	-11.9434
▁Vorderrad	-11.9434
▁Asphaltstraße	-11.9434
▁Schrott	-11.9434
▁Springen	-11.9434
▁Sturzhelm	-11.9434
▁grell	-11.9434
▁Werferhügel	-11.9434
Five	-11.9434
▁Anleitung	-11.9434
▁Puma	-11.9434
▁Linse	-11.9434
▁Außenwand	-11.9434
▁Theaterstück	-11.9434
telalterlicher	-11.9434
▁Soda	-11.9434
▁Polospieler	-11.9434
▁Werk	-11.9434
▁bezeichnet	-11.9434
▁Frack	-11.9434
▁Kunstprojekt	-11.9434
▁Bassist	-11.9434
▁Taschenlampe	-11.9434
▁Transportwagen	-11.9434
IG	-11.9434
kuppe	-11.9434
▁Hunderte	-11.9434
▁Abfall	-11.9434
jenige	-11.9434
gesagt	-11.9435
▁Lachen	-11.9435
▁Schlammgrube	-11.9435
▁Rockkonzert	-11.9435
▁Sonnentag	-11.9435
richter	-11.9435
▁formal	-11.9435
▁Audi	-11.9435
▁Wache	-11.9435
▁Ziegelstraße	-11.9435
▁Laufbekleidung	-11.9435
▁Radsportler	-11.9435
▁angeschaut	-11.9435
▁Sonnenschild	-11.9435
marke	-11.9435
▁Plastikrutsche	-11.9435
▁Musikfestival	-11.9435
streu	-11.9435
▁Abschlag	-11.9435
▁Brand	-11.9435
▁Papierteller	-11.9435
▁Herbsttag	-11.9435
▁Sattelzug	-11.9435
▁herausgestreckt	-11.9435
▁Plastikbecher	-11.9435
▁Vierergruppe	-11.9435
▁Verlassen	-11.9435
▁Gruppenfoto	-11.9435
ough	-11.9435
▁Weinflasche	-11.9435
▁Imbissstand	-11.9435
▁Gitarrenspieler	-11.9435
▁Hero	-11.9435
▁gefertigt	-11.9435
▁Müllhaufen	-11.9435
▁VW	-11.9435
▁galoppiert	-11.9435
▁ignoriert	-11.9435
▁prahlt	-11.9435
▁renoviert	-11.9435
▁stutzt	-11.9435
▁qualmt	-11.9435
▁Gartenstühlen	-11.9435
▁Weinglas	-11.9435
▁Skistöcken	-11.9435
▁bespritzen	-11.9435
▁Spruchbänder	-11.9435
▁Ausland	-11.9435
zange	-11.9435
tüm	-11.9435
berschlag	-11.9435
▁Schulband	-11.9435
zahn	-11.9436
▁Ballontier	-11.9436
kurv	-11.9436
▁breitet	-11.9436
▁Hinterrad	-11.9436
▁Kürbisfeld	-11.9436
▁Arbeitstag	-11.9436
▁Dog	-11.9436
▁BMW	-11.9436
▁Patientin	-11.9436
▁Brustkorb	-11.9436
▁Seitenstraße	-11.9436
▁Skiläufer	-11.9436
▁Gruppenbild	-11.9436
▁riss	-11.9436
▁Hahn	-11.9436
telalterlichen	-11.9436
▁Bahnarbeiter	-11.9436
▁messen	-11.9436
▁dort	-11.9436
▁Baseman	-11.9436
▁Oben	-11.9436
▁Gartenwerkzeug	-11.9436
rztin	-11.9436
▁Bowlingspieler	-11.9436
▁abzufangen	-11.9436
▁Geschirrspüler	-11.9436
▁Sumoringer	-11.9436
▁Windsurfer	-11.9436
▁beleibter	-11.9436
▁jugendlicher	-11.9436
▁Darsteller	-11.9436
▁Wii	-11.9436
▁geduckter	-11.9436
▁Deli	-11.9437
▁brechenden	-11.9437
▁Kö	-11.9437
▁Gefährt	-11.9437
▁Ringträger	-11.9437
▁Geländemaschine	-11.9437
▁Handgriff	-11.9437
▁Kiesweg	-11.9437
▁Eisläufer	-11.9437
▁Sprungwurf	-11.9437
▁Bücherei	-11.9437
▁Back	-11.9437
▁Satz	-11.9437
▁Obstkarren	-11.9437
▁Plastikstuhl	-11.9437
▁Schildkappe	-11.9437
▁Iro	-11.9437
▁Teppichboden	-11.9437
▁Lederkleidung	-11.9437
eckigen	-11.9438
▁Walk	-11.9438
▁Seesack	-11.9438
leute	-11.9438
▁Spielzeuglaster	-11.9438
zone	-11.9438
pool	-11.9438
▁darum	-11.9438
▁Dokumente	-11.9438
lebt	-11.9438
▁gestürzt	-11.9438
KE	-11.9438
▁rost	-11.9438
MA	-11.9438
▁Metallgeländer	-11.9438
▁Arbeitsplatz	-11.9439
▁Blumendruck	-11.9439
▁Stoffhut	-11.9439
▁Wade	-11.9439
▁Drachenkostüm	-11.9439
▁Schwimmanzug	-11.9439
▁Seilrutsche	-11.9439
▁Torwart	-11.9439
▁Anziehen	-11.9439
▁Inderin	-11.9439
▁Metallstück	-11.9439
dium	-11.9439
▁lässig	-11.9439
▁Bergpfad	-11.9439
▁Dart	-11.9439
▁Metallschüssel	-11.9439
▁Side	-11.9439
▁Kochjacke	-11.9439
▁Big	-11.9439
üche	-11.9439
▁Haarsalon	-11.944
▁Los	-11.944
▁Barett	-11.944
▁klarem	-11.944
▁flachem	-11.944
▁Touristengruppe	-11.944
▁gleichauf	-11.944
▁hellblauem	-11.944
▁Hundeschlitten	-11.944
▁Sprungtritt	-11.944
▁besteigen	-11.944
blättern	-11.9441
▁Jet	-11.9441
▁Musikstück	-11.9441
öne	-11.9441
▁Bandkollegen	-11.9441
▁gekreuzten	-11.9441
▁Sportbekleidung	-11.9441
▁versetzt	-11.9441
▁Hindernisse	-11.9442
▁Brettern	-11.9442
▁Buden	-11.9442
▁Fensterbank	-11.9442
▁hellblauer	-11.9442
▁untergehende	-11.9442
▁Binde	-11.9442
gger	-11.9442
▁Wandtafel	-11.9442
▁Matrosen	-11.9442
ity	-11.9442
▁arabischer	-11.9442
▁Lächelnde	-11.9442
▁Rennkleidung	-11.9442
▁Skijacke	-11.9442
▁Bohrer	-11.9442
▁schützend	-11.9442
▁Schultertasche	-11.9443
▁fallenden	-11.9443
▁Sporthose	-11.9443
▁Couchtisch	-11.9443
▁rastet	-11.9443
▁Eistüten	-11.9443
▁Markisen	-11.9443
▁Schläuchen	-11.9443
▁Unterlagen	-11.9443
▁französischen	-11.9443
▁getupften	-11.9443
▁mechanischen	-11.9443
▁prunkvollen	-11.9443
▁senffarbenen	-11.9443
▁Hab	-11.9443
▁Backwaren	-11.9443
▁abgelegt	-11.9443
▁Sai	-11.9443
▁verzerrtes	-11.9444
förmiges	-11.9444
▁ärmelloses	-11.9444
▁Regenjacke	-11.9444
▁Port	-11.9444
▁Schindeln	-11.9444
▁Frühlings	-11.9444
ständen	-11.9444
▁abgestimmten	-11.9444
▁Haustier	-11.9444
▁verläuft	-11.9444
▁Kaffeetisch	-11.9444
▁breites	-11.9445
▁Afrikanerin	-11.9445
▁Maus	-11.9445
▁Spielautomaten	-11.9445
reflektierende	-11.9445
▁hochgehalten	-11.9445
▁DS	-11.9445
▁Stadtgebiet	-11.9445
▁Sonnenblume	-11.9445
▁Rest	-11.9446
eift	-11.9446
▁schmutzigem	-11.9446
▁Geschäftsanzug	-11.9446
▁Marktstraße	-11.9446
▁Seilspielzeug	-11.9446
▁schreitet	-11.9446
▁zusammengerollt	-11.9446
▁schickt	-11.9446
▁sonnt	-11.9446
gehängt	-11.9447
▁Verkleidung	-11.9447
▁Dutzende	-11.9447
▁Militärkleidung	-11.9447
▁Vorder	-11.9447
▁kaukasischer	-11.9448
▁kurzhaariger	-11.9448
▁Schlepper	-11.9448
▁verrückter	-11.9448
▁Designer	-11.9448
▁beigefarbener	-11.9448
betriebenen	-11.9448
▁mal	-11.9449
▁umgibt	-11.9449
▁Fußballnetz	-11.9449
Free	-11.9449
▁Radweg	-11.9449
▁Zeltplatz	-11.9449
▁Schülerinnen	-11.9449
▁Holzgebäude	-11.9449
▁Baseballplatz	-11.945
▁Bodyboard	-11.945
öden	-11.9451
▁Attraktion	-11.9451
▁Whirlpool	-11.9451
▁Farbstiften	-11.9451
▁Freiheitsstatue	-11.9451
▁Frucht	-11.9451
▁Jazz	-11.9451
▁Liga	-11.9451
▁Planschbecken	-11.9451
▁Spanien	-11.9451
▁gekauft	-11.9451
▁gestrichenen	-11.9451
▁knurrt	-11.9451
▁manövriert	-11.9451
▁Knieschonern	-11.9451
▁Briefkasten	-11.9451
▁gedreht	-11.9452
▁ausstreckt	-11.9452
▁Gemüsestand	-11.9452
▁hochgelegten	-11.9452
▁Blickfeld	-11.9453
▁Fau	-11.9453
▁gestellt	-11.9453
▁Bergwand	-11.9453
▁errichten	-11.9453
▁Eisstand	-11.9454
Wartungsarbeiten	-11.9454
▁hochzuheben	-11.9454
ufer	-11.9455
▁Spuren	-11.9455
▁einzigartigen	-11.9455
▁umgekippten	-11.9455
gerissenen	-11.9455
▁förmlichen	-11.9455
▁Sandwiches	-11.9455
▁angekettet	-11.9455
▁angegriffen	-11.9455
▁Treppenhauses	-11.9455
▁wohl	-11.9455
▁Steinweg	-11.9455
▁Straßenmusikant	-11.9456
▁mehrfarbigem	-11.9456
▁schwerem	-11.9456
▁Offiziere	-11.9456
▁Straßenstand	-11.9457
▁hochspringen	-11.9457
▁schweißen	-11.9457
▁Handbewegungen	-11.9457
pfeln	-11.9458
▁schneebedecktem	-11.9459
▁Zugfahrt	-11.9459
▁herausgeputzt	-11.9459
tcher	-11.9459
▁Schokoladen	-11.9459
▁übergroßen	-11.946
▁Campern	-11.946
▁Handtüchern	-11.946
▁Kniestrümpfen	-11.946
▁Säcken	-11.946
▁irgendwelchen	-11.946
▁verkehrsreichen	-11.946
wolken	-11.946
▁Baumaschinen	-11.946
▁Cowboyhüten	-11.946
▁Kartoffeln	-11.946
▁Warten	-11.946
Verkehrspolizist	-11.946
▁Suppen	-11.946
▁größerer	-11.946
▁seltsamer	-11.946
▁Kochkleidung	-11.946
▁Ständen	-11.9461
ktor	-11.9461
▁Angriffs	-11.9461
▁Zombies	-11.9461
▁trübes	-11.9462
▁Stückchen	-11.9462
mbo	-11.9462
▁ausruhen	-11.9463
▁Torte	-11.9463
▁Sportgeschäft	-11.9463
▁Star	-11.9463
▁Hundeschau	-11.9463
▁erste	-11.9463
▁Cowboykleidung	-11.9464
▁Glasur	-11.9464
▁arme	-11.9464
▁erklettert	-11.9464
▁Spare	-11.9464
spekt	-11.9465
▁Joe	-11.9465
heruntergelassen	-11.9465
▁Fechter	-11.9466
▁rotbraunen	-11.9466
klappe	-11.9466
Wartungsarbeiter	-11.9467
▁niedliches	-11.9467
probe	-11.9467
▁Schiffes	-11.9467
▁wer	-11.9468
katze	-11.9468
▁Rod	-11.9468
▁Teamkollegen	-11.9468
▁menschlichen	-11.9468
zeichnungen	-11.9469
▁öffentlicher	-11.9469
▁überreicht	-11.9469
▁Wanderin	-11.947
▁Alp	-11.947
▁Spieß	-11.947
▁militärischer	-11.9471
▁gegnerischer	-11.9472
maus	-11.9472
▁farbiger	-11.9472
▁professioneller	-11.9472
▁Baumgruppe	-11.9473
▁Stadtbild	-11.9473
Geburtstagsfeier	-11.9473
▁Spielzeugzug	-11.9474
▁frischgebackene	-11.9474
Le	-11.9475
bares	-11.9476
▁Wasserpistolen	-11.9477
▁Fahrgästen	-11.9477
▁Muscheln	-11.9477
▁Wunderkerzen	-11.9477
▁ausgestopften	-11.9477
▁dreckigen	-11.9477
▁komplizierten	-11.9477
▁Meeresfrüchten	-11.9477
▁Bändern	-11.9478
köpfen	-11.9479
gan	-11.9479
▁beschädigtes	-11.948
▁Viertel	-11.948
▁Karnevals	-11.948
▁mollige	-11.948
▁Designs	-11.948
inkt	-11.948
▁Wassernähe	-11.9481
▁geschminkter	-11.9481
mpfen	-11.9482
▁Softballspiels	-11.9482
▁Schrift	-11.9482
▁hellem	-11.9482
▁übersäten	-11.9482
▁komischen	-11.9482
▁Restauranttisch	-11.9482
gepackten	-11.9483
▁schicken	-11.9483
▁School	-11.9483
▁Motiv	-11.9483
▁Obama	-11.9483
▁gedeckten	-11.9483
▁Objektiv	-11.9483
▁Mönche	-11.9483
▁Schwamm	-11.9484
▁Handvoll	-11.9484
▁warmer	-11.9484
▁bräunlichen	-11.9484
riges	-11.9485
▁Stra	-11.9485
fahrzeuge	-11.949
▁bevorstehende	-11.9492
mmt	-11.9493
▁gepolsterten	-11.9494
▁Schwestern	-11.9494
▁Broschüren	-11.9494
▁Gesichtsmasken	-11.9494
▁religiösen	-11.9494
▁zahlreichen	-11.9494
▁bärtigen	-11.9494
tschen	-11.9494
▁unbekannten	-11.9495
▁per	-11.9495
▁angemalten	-11.9496
▁selbe	-11.9496
▁Athleten	-11.9497
▁Oberhemden	-11.9497
▁Teddybären	-11.9497
▁Zeichnungen	-11.9497
▁Straßenkleidung	-11.9497
▁ähnlicher	-11.9497
▁Sandplatz	-11.9497
▁festlichen	-11.9498
▁Schuluniform	-11.9498
▁neun	-11.9498
▁Lebens	-11.9498
▁Khakis	-11.9498
▁Tutus	-11.9498
▁Polizeiuniform	-11.95
▁übergeben	-11.9501
hause	-11.9501
▁Autofahrer	-11.9502
▁rohe	-11.9502
▁San	-11.9503
rischen	-11.9503
▁Hunderennen	-11.9506
▁Kamele	-11.9506
▁Fin	-11.9506
▁Polizeifahrzeug	-11.9508
duell	-11.9508
▁liegender	-11.9509
hauses	-11.951
▁sichtbaren	-11.951
▁deutschen	-11.9512
▁übernimmt	-11.9512
▁zerleg	-11.9512
gehalten	-11.9513
▁Weide	-11.9516
sweise	-11.9516
▁Blondes	-11.9517
▁Schwimmring	-11.9517
▁lilafarbenes	-11.9517
▁städtischer	-11.9519
▁hintereinander	-11.9521
▁hübscher	-11.9522
▁Parkweg	-11.9522
▁modischen	-11.9524
▁gebauten	-11.9525
▁Zahlen	-11.9525
▁Windel	-11.9527
▁Perücken	-11.9529
▁akustischen	-11.9529
▁wartenden	-11.9531
Hochstart	-11.9531
▁werdender	-11.9531
▁Handgerät	-11.9533
▁kaltes	-11.9535
▁Fußballtrikots	-11.9536
▁Eiswagens	-11.9536
nähnlichen	-11.9537
▁tiefes	-11.9537
▁traurigen	-11.9539
oble	-11.9539
▁Küchenarbeits	-11.9541
▁Trompeter	-11.9543
▁blasen	-11.9546
▁Kabinen	-11.9547
▁Winterjacken	-11.9547
▁Kna	-11.9548
Dance	-11.9549
äuser	-11.9549
▁Gewehre	-11.9552
▁Rollschuhen	-11.9553
▁Drinks	-11.9554
▁Skates	-11.9555
▁bed	-11.9556
▁verletzten	-11.9556
▁zusammenzu	-11.9559
▁Bahnschiene	-11.9563
▁Beamten	-11.9564
▁Hintern	-11.9564
getragen	-11.9569
zuhören	-11.957
▁hellrosafarbene	-11.9572
mble	-11.9573
▁tanzenden	-11.9576
Spenden	-11.9577
gart	-11.9577
▁Jahren	-11.958
▁Posen	-11.9581
met	-11.9597
▁Herde	-11.9601
▁bessere	-11.9602
▁Kochmütze	-11.961
gedrückt	-11.9613
▁frisches	-11.9621
▁Bie	-11.9636
stiegs	-11.964
▁Baugerät	-11.964
▁Metallrohr	-11.9654
kippt	-11.9658
Pho	-11.9662
▁Ladengeschäft	-11.9667
rill	-11.9668
▁Sportteam	-11.9673
▁laufender	-11.9679
welt	-11.9693
weil	-11.9699
▁Schraub	-11.9706
▁nachgemachte	-11.971
astet	-11.9717
iverse	-11.9723
Wanderausrüstung	-11.9732
IS	-11.974
▁Gartenarbeit	-11.9746
▁Cl	-11.9748
▁Kla	-11.9752
Grand	-11.9757
rotestkundgebung	-11.9759
ive	-11.976
berführung	-11.9763
arren	-11.9776
▁Boa	-11.9814
▁Not	-11.9815
FC	-11.9815
▁bestaun	-11.9815
▁danebensteh	-11.9848
EL	-11.9861
orb	-11.9864
▁winkend	-11.9873
lipper	-11.9878
dung	-11.9884
▁verlie	-11.9886
▁bräunliche	-11.9893
ussel	-11.9913
▁dunkelblaue	-11.9915
▁Dia	-11.9915
Basketballspiel	-11.9918
gesehen	-12
igt	-12
steig	-12.0009
rainingsgerät	-12.0012
ackt	-12.0017
▁Spar	-12.0025
▁Steinb	-12.0029
▁Del	-12.0033
ilitärangehörige	-12.0041
Pad	-12.0052
ffen	-12.007
esso	-12.0072
spiegelt	-12.008
▁typische	-12.0086
▁prächtig	-12.0096
▁Metallk	-12.0108
▁Blasinstrument	-12.0123
Geländefahrer	-12.0233
▁Krieg	-12.0265
low	-12.0274
▁Gewürze	-12.0307
klasse	-12.0312
▁Lei	-12.0329
gekle	-12.0344
ox	-12.0378
▁Batter	-12.0404
uge	-12.0447
zusammengefunden	-12.0478
sia	-12.0491
▁freie	-12.0496
ON	-12.0501
Re	-12.0514
Ski	-12.0579
Baseballteam	-12.0584
▁Flo	-12.0601
itat	-12.0606
▁schreibend	-12.0621
▁Gi	-12.0636
▁abgele	-12.0637
itte	-12.0651
▁Gel	-12.0724
weite	-12.0737
No	-12.0852
aiteninstrumente	-12.0872
gehend	-12.0877
▁gebl	-12.0898
Do	-12.0982
stützen	-12.1006
Car	-12.1007
▁herunterge	-12.1018
busses	-12.1119
▁Heck	-12.1131
▁gebogen	-12.1147
▁Wasserstrahl	-12.1216
▁spanisch	-12.1297
▁falsch	-12.1324
dler	-12.1342
sstation	-12.1384
ayo	-12.1436
halte	-12.1535
ethnischer	-12.1728
▁irgendein	-12.1895
▁gegrillte	-12.1937
utt	-12.196
geschlagenen	-12.1981
▁Markierung	-12.2042
▁kühl	-12.2057
strahlen	-12.2059
▁Sitze	-12.2081
bedeckte	-12.2119
schling	-12.2122
▁gebogene	-12.2141
▁Fra	-12.2152
▁Doppeldeckerbus	-12.2166
▁Mac	-12.2283
▁unterstütz	-12.2293
Menschenschlange	-12.2523
▁Keks	-12.2541
▁Rennhund	-12.2543
front	-12.2595
tige	-12.2643
schä	-12.267
▁Schleif	-12.2744
schienen	-12.276
▁Fac	-12.276
etzen	-12.2785
▁leer	-12.2805
spannt	-12.282
▁Kleidungsstück	-12.2901
gefunden	-12.2928
rzt	-12.2933
ssenschaftliches	-12.3227
▁Reinig	-12.3255
▁Aufstell	-12.3274
▁geblümte	-12.3275
nig	-12.3301
mmen	-12.3319
▁Metallto	-12.3343
▁aufregende	-12.3432
▁Klub	-12.3434
Fallschirmspring	-12.3439
karierten	-12.3447
typischen	-12.345
▁traditionell	-12.3488
▁vornehm	-12.349
kletter	-12.353
▁weiblich	-12.3625
▁niedliche	-12.3632
▁lös	-12.3693
▁Bekannte	-12.3729
hill	-12.377
plakat	-12.3773
rren	-12.3777
RO	-12.3813
liebte	-12.3813
▁wunderschön	-12.3821
ival	-12.3832
staunen	-12.3832
▁aufzufü	-12.3919
hören	-12.3968
▁Empfang	-12.3997
bäume	-12.4016
käufer	-12.4045
heruntergefallen	-12.4077
rohre	-12.409
gebaut	-12.409
schuhen	-12.4095
absperrung	-12.4099
streckt	-12.4147
echten	-12.4153
▁hellhäutig	-12.4156
▁indisch	-12.4174
▁vorbeiflie	-12.4194
▁Biene	-12.4202
viertel	-12.4214
▁Bik	-12.422
▁beeindrucken	-12.4241
gelenk	-12.4245
▁Stände	-12.426
klappt	-12.4262
Shi	-12.4265
laufbahn	-12.4268
östlichen	-12.4274
zukommen	-12.4279
schriebenen	-12.4279
▁wirbeln	-12.4282
haben	-12.4283
zufangen	-12.4287
tänzerin	-12.4296
▁Sprüh	-12.4302
gibt	-12.4306
lichkeiten	-12.4318
hockeyspieler	-12.4323
▁Schwei	-12.4326
elben	-12.4327
äser	-12.4328
gleitet	-12.433
▁dunkle	-12.4334
▁tätowier	-12.4337
▁Kenn	-12.4338
▁Hüt	-12.4338
kehrt	-12.4341
latten	-12.4344
▁trockene	-12.4344
▁trübe	-12.4348
Obama	-12.4353
Motiv	-12.4353
Objektiv	-12.4353
School	-12.4353
Schrift	-12.4353
Schwamm	-12.4353
hebt	-12.4353
gedeckten	-12.4353
stimmt	-12.4353
▁pro	-12.4353
pink	-12.4355
sprüht	-12.4355
Sooners	-12.4356
Magazin	-12.4357
Aufkleber	-12.4358
Coach	-12.4358
Kämpfer	-12.4358
nackter	-12.4359
passt	-12.4359
Basketballkorb	-12.4359
Spielzeugauto	-12.436
probieren	-12.436
schlendern	-12.436
zündet	-12.436
heim	-12.436
Rasenmäher	-12.436
Geländefahrzeug	-12.4361
binden	-12.4361
Staubsauger	-12.4361
gepflasterte	-12.4361
Stil	-12.4362
beugt	-12.4362
Sandwich	-12.4362
ießen	-12.4362
Gi	-12.4362
Feuerwehrauto	-12.4362
Frisur	-12.4362
Präsentation	-12.4362
Video	-12.4362
Stunt	-12.4363
gefüllten	-12.4363
fasst	-12.4363
Linie	-12.4363
Banner	-12.4363
Hotel	-12.4363
Figur	-12.4363
durch	-12.4363
Kiste	-12.4363
Show	-12.4363
Torhüter	-12.4363
Kampf	-12.4364
Röcken	-12.4364
beißt	-12.4364
Traktor	-12.4364
silbernen	-12.4364
Studenten	-12.4364
blondem	-12.4364
▁orangefarben	-12.4364
paddelt	-12.4364
bewegt	-12.4364
▁Pep	-12.4364
gießt	-12.4364
Clown	-12.4365
Steinen	-12.4365
Lastwagen	-12.4365
Strecke	-12.4365
Laptop	-12.4365
Badehose	-12.4365
Cowboy	-12.4365
Einkaufswagen	-12.4365
Stand	-12.4365
▁schön	-12.4365
Fahrzeug	-12.4365
starrt	-12.4365
Trick	-12.4365
Badeanzug	-12.4365
Eimer	-12.4365
Sweatshirt	-12.4365
städtischen	-12.4365
Rampe	-12.4365
Baseballspieler	-12.4365
Pool	-12.4365
Familie	-12.4365
schwimmt	-12.4365
Pullover	-12.4366
Gesicht	-12.4366
Pferd	-12.4366
Bühne	-12.4366
Kamera	-12.4366
Wasser	-12.4366
Hintergrund	-12.4366
gebackenen	-12.4366
Nummer	-12.4366
schießen	-12.4367
Footballspieler	-12.4367
▁brau	-12.4367
Loch	-12.4367
pinkfarbene	-12.4368
Ich	-12.437
Top	-12.437
laufender	-12.4371
herum	-12.4371
Rot	-12.4371
Eis	-12.4372
Buch	-12.4372
Art	-12.4373
raten	-12.4374
▁Inlineskate	-12.4378
▁Bahngleis	-12.438
▁flauschige	-12.438
▁Pflanz	-12.4384
▁förmlich	-12.4384
blöcke	-12.4385
▁Model	-12.4385
▁langärmlige	-12.4386
▁Zombie	-12.4387
dessen	-12.4388
▁Angriff	-12.4388
▁sehe	-12.4388
▁langärmelige	-12.4388
▁Warte	-12.4389
wolke	-12.4389
▁Camper	-12.439
▁Handtücher	-12.439
▁Schokolade	-12.439
▁Säcke	-12.439
▁irgendwelche	-12.439
▁verkehrsreiche	-12.439
▁Kimono	-12.439
▁Suppe	-12.439
▁übergroße	-12.439
▁Kniestrümpfe	-12.439
▁Kartoffel	-12.4391
verschmiert	-12.4391
stöcke	-12.4392
▁Limonade	-12.4392
▁Ohrhörer	-12.4392
▁Schärpe	-12.4392
▁karge	-12.4392
▁lustige	-12.4392
▁wolkige	-12.4392
▁Hacke	-12.4392
▁Pfote	-12.4393
▁Zitrone	-12.4393
▁steinerne	-12.4393
▁Kühe	-12.4393
▁befindliche	-12.4394
▁dekorative	-12.4394
▁Masse	-12.4394
▁Cowboyhüte	-12.4394
▁umzäunte	-12.4394
▁Olympische	-12.4395
▁Einkaufstüte	-12.4395
▁Wolke	-12.4395
▁Tomate	-12.4395
▁Baumaschine	-12.4395
▁Knöpfe	-12.4395
▁Röcke	-12.4396
schlossenen	-12.4396
▁Räder	-12.4396
▁Socke	-12.4396
▁Drache	-12.4396
Monitor	-12.4397
▁Patient	-12.4398
gerissen	-12.4398
▁einzigartig	-12.4398
▁umgekippt	-12.4398
pfel	-12.4398
▁halt	-12.4398
▁Perle	-12.4399
bluse	-12.44
▁Chirurg	-12.44
▁dahin	-12.44
▁cremefarbene	-12.44
▁gepflegt	-12.44
▁Grab	-12.44
▁Kolleg	-12.4401
▁Demonstrant	-12.4402
▁Nachricht	-12.4402
▁Süßigkeit	-12.4403
▁Rück	-12.4403
▁Elefant	-12.4403
▁Information	-12.4403
▁besprüht	-12.4406
▁Spur	-12.4406
pistole	-12.4407
eva	-12.4407
▁Body	-12.4407
▁Lade	-12.4407
▁Absperr	-12.4411
▁Dutzend	-12.4411
übungen	-12.4411
▁Spül	-12.4412
▁Wahl	-12.4412
▁Schmink	-12.4412
▁Kontroll	-12.4413
▁Hilf	-12.4414
▁Eck	-12.4414
▁Maschendraht	-12.4416
▁Lehr	-12.4417
▁Kaugummi	-12.4417
▁lin	-12.4418
▁Bohr	-12.4418
▁arabische	-12.4418
▁Bandmitglied	-12.4419
▁Einkäufe	-12.4419
▁weißhaarige	-12.442
ücke	-12.442
▁Wasserspreng	-12.442
▁Werf	-12.442
attraktion	-12.4421
▁Männe	-12.4421
getre	-12.4421
schlitten	-12.4421
röcken	-12.4422
▁brennen	-12.4424
▁pflüg	-12.4424
▁befrei	-12.4424
▁Tauch	-12.4424
zuklettern	-12.4425
▁ausgefallene	-12.4426
▁stürmische	-12.4426
kreuz	-12.4426
pfosten	-12.4426
▁Wohnhaus	-12.4426
▁neugierig	-12.4426
▁knietief	-12.4426
schlüssel	-12.4427
säule	-12.4427
▁weinend	-12.4427
dress	-12.4428
gegend	-12.4428
wanderweg	-12.4428
raffe	-12.4429
möbeln	-12.4429
▁Prä	-12.4429
chwertern	-12.443
plattform	-12.443
ügel	-12.443
nroll	-12.443
chiedsrichter	-12.443
konzert	-12.443
▁irgendw	-12.443
gänger	-12.4431
leitung	-12.4431
monitor	-12.4431
pfanne	-12.4431
laterne	-12.4431
stadion	-12.4431
mäher	-12.4431
abteilung	-12.4431
opfbedeckung	-12.4431
wundert	-12.4431
ockey	-12.4431
arena	-12.4432
indernis	-12.4432
triebs	-12.4432
▁Langha	-12.4432
formation	-12.4432
Mou	-12.4432
rogramm	-12.4432
▁Sanitä	-12.4432
lohmarkt	-12.4432
ädchen	-12.4432
▁Disk	-12.4432
kunst	-12.4432
▁Fed	-12.4432
▁medit	-12.4432
ohrmaschine	-12.4432
▁Brief	-12.4432
ikini	-12.4432
nägel	-12.4432
insel	-12.4432
fußball	-12.4432
ountry	-12.4432
▁Hasen	-12.4432
börse	-12.4432
egnet	-12.4432
winkel	-12.4432
mänteln	-12.4433
regal	-12.4433
▁Metzger	-12.4433
wendung	-12.4433
flügeln	-12.4433
▁Elektro	-12.4433
▁Flanell	-12.4433
tägliche	-12.4433
prüf	-12.4433
kittel	-12.4433
▁Klapp	-12.4433
schnallt	-12.4433
▁Jugend	-12.4433
Piercing	-12.4433
▁Hartholz	-12.4433
willig	-12.4433
tattoo	-12.4433
ehrt	-12.4433
upft	-12.4433
fried	-12.4433
stöber	-12.4433
▁scheu	-12.4433
eduldig	-12.4433
Dekoration	-12.4433
angebot	-12.4433
geflochten	-12.4433
▁Scheitel	-12.4433
▁Weit	-12.4433
Terri	-12.4433
prenger	-12.4433
sorg	-12.4433
säcken	-12.4433
karton	-12.4433
▁Schnitz	-12.4433
▁Sumpf	-12.4433
▁buckel	-12.4433
Stones	-12.4433
kanister	-12.4433
ograph	-12.4433
ungsvoll	-12.4433
▁Benzin	-12.4433
ändigen	-12.4433
▁Zwischen	-12.4433
▁origin	-12.4433
Propeller	-12.4433
Rallye	-12.4433
ahverkehrs	-12.4433
anorama	-12.4433
kragen	-12.4433
ollywood	-12.4433
pullover	-12.4433
quamarin	-12.4433
▁Baltimore	-12.4433
▁Calvin	-12.4433
▁Chemie	-12.4433
▁Eisschnelllauf	-12.4433
▁Geschwister	-12.4433
▁Hill	-12.4433
▁Sushi	-12.4433
▁gärtner	-12.4433
Energi	-12.4433
exam	-12.4433
gekrönt	-12.4433
pavill	-12.4433
pedal	-12.4433
▁Aluminium	-12.4433
▁Außenbord	-12.4433
▁Converse	-12.4433
▁Donnerstag	-12.4433
▁Gebirgs	-12.4433
▁Kakteen	-12.4433
▁Konditor	-12.4433
▁Kristall	-12.4433
▁Lanzen	-12.4433
▁Lava	-12.4433
▁Manager	-12.4433
▁Memor	-12.4433
▁Sauerstoff	-12.4433
▁Schränk	-12.4433
▁Scrabble	-12.4433
▁Slalom	-12.4433
▁Sonntag	-12.4433
▁Stewardess	-12.4433
▁Thai	-12.4433
▁Umkleide	-12.4433
▁Vegetation	-12.4433
▁Wikinger	-12.4433
▁Zigeuner	-12.4433
▁beruhigen	-12.4433
▁feuchte	-12.4433
▁größten	-12.4433
▁hüf	-12.4433
▁inspirier	-12.4433
▁läng	-12.4433
▁salutier	-12.4433
▁zitronen	-12.4433
▁zöger	-12.4433
Ausstattung	-12.4433
Birthday	-12.4433
EGO	-12.4433
Equipment	-12.4433
Fallschirmsegeln	-12.4433
Gießkanne	-12.4433
Interview	-12.4433
Küchenutensilien	-12.4433
Lateinamerikaner	-12.4433
Mehrfamilienhaus	-12.4433
OME	-12.4433
Sehenswürdigkeit	-12.4433
Shrit	-12.4433
Spielzeuggitarre	-12.4433
Stabhochspringer	-12.4433
Thomas	-12.4433
Wohnviertel	-12.4433
achthafen	-12.4433
agiert	-12.4433
ahrradmechaniker	-12.4433
ankees	-12.4433
artikel	-12.4433
atamaran	-12.4433
aufensterbummel	-12.4433
außer	-12.4433
bearbeitung	-12.4433
beauftragte	-12.4433
begierig	-12.4433
berreste	-12.4433
blüte	-12.4433
break	-12.4433
chnurrbärtiger	-12.4433
darbietung	-12.4433
darsteller	-12.4433
dimensionierte	-12.4433
efäß	-12.4433
envertreter	-12.4433
ernsteinfarbener	-12.4433
fabrik	-12.4433
farbenprächtigen	-12.4433
fassade	-12.4433
fertiggestellten	-12.4433
frisur	-12.4433
fählen	-12.4433
fällen	-12.4433
fälscht	-12.4433
fässer	-12.4433
gafft	-12.4433
gebirge	-12.4433
gedehnten	-12.4433
geschnittenem	-12.4433
gespült	-12.4433
gestiegen	-12.4433
gesägten	-12.4433
getäfelten	-12.4433
gitarrist	-12.4433
glaublich	-12.4433
gleichmäßig	-12.4433
gyptische	-12.4433
hereinbrechenden	-12.4433
hildren	-12.4433
hmallow	-12.4433
hrfurcht	-12.4433
igital	-12.4433
ignier	-12.4433
imbiss	-12.4433
kabine	-12.4433
kameraden	-12.4433
katessen	-12.4433
kesenhaarschnitt	-12.4433
knäuel	-12.4433
kolonne	-12.4433
kombi	-12.4433
kontrolle	-12.4433
kronen	-12.4433
krügen	-12.4433
köche	-12.4433
kühler	-12.4433
leitungsfahrzeug	-12.4433
lfass	-12.4433
liga	-12.4433
lotst	-12.4433
lympioniken	-12.4433
löffel	-12.4433
maskottchen	-12.4433
mikroskop	-12.4433
milienmitglieder	-12.4433
munikationsgerät	-12.4433
nbürste	-12.4433
ngstreckenläufer	-12.4433
nkränze	-12.4433
nttäusch	-12.4433
ntücher	-12.4433
nöchelt	-12.4433
ollschuhlaufende	-12.4433
ontainer	-12.4433
ooping	-12.4433
opilot	-12.4433
ordentlich	-12.4433
overal	-12.4433
picknick	-12.4433
prungschanze	-12.4433
präsentation	-12.4433
rahmten	-12.4433
rakete	-12.4433
rchitektonischen	-12.4433
reparaturen	-12.4433
rieselungsanlage	-12.4433
rommlern	-12.4433
rrangement	-12.4433
runzelnd	-12.4433
rüpp	-12.4433
sbehörde	-12.4433
sbuffet	-12.4433
schatteten	-12.4433
schbombe	-12.4433
schürze	-12.4433
sponsert	-12.4433
ssenszubereitung	-12.4433
staat	-12.4433
stattet	-12.4433
stoffbällen	-12.4433
strauch	-12.4433
stylisti	-12.4433
städt	-12.4433
sängern	-12.4433
tablett	-12.4433
teilnehmer	-12.4433
teleskop	-12.4433
tensilien	-12.4433
tfahrgelegenheit	-12.4433
trampelt	-12.4433
transporter	-12.4433
tribüne	-12.4433
triebene	-12.4433
tsartikeln	-12.4433
tudentenwohnheim	-12.4433
uddelt	-12.4433
uerflöte	-12.4433
ufenthalt	-12.4433
ulkan	-12.4433
umrandeten	-12.4433
ungsbetrieb	-12.4433
unterlage	-12.4433
uperheldenkostüm	-12.4433
urgunderfarbener	-12.4433
versammlung	-12.4433
verschmutz	-12.4433
vitrine	-12.4433
welpe	-12.4433
werkstatt	-12.4433
wickeln	-12.4433
wärmer	-12.4433
wässerungs	-12.4433
xotisch	-12.4433
ydrauli	-12.4433
zäunen	-12.4433
äppchen	-12.4433
öckchen	-12.4433
öhrchen	-12.4433
üdische	-12.4433
üffel	-12.4433
ümpfe	-12.4433
▁Abdeckplane	-12.4433
▁Abendbrottisch	-12.4433
▁Abwehrspieler	-12.4433
▁Ahornblatt	-12.4433
▁Akrobatik	-12.4433
▁Akrobatin	-12.4433
▁Alaska	-12.4433
▁Allradfahrzeug	-12.4433
▁Alphabet	-12.4433
▁Amputierte	-12.4433
▁Angehörige	-12.4433
▁Ankunft	-12.4433
▁Anruf	-12.4433
▁Antiquitäten	-12.4433
▁Aqua	-12.4433
▁Arbeitnehmer	-12.4433
▁Archäologen	-12.4433
▁Armbanduhr	-12.4433
▁Asphaltbelag	-12.4433
▁Auditorium	-12.4433
▁Aufgeregte	-12.4433
▁Augenblick	-12.4433
▁Auswirkung	-12.4433
▁Badeshorts	-12.4433
▁Barrikade	-12.4433
▁Baseballcap	-12.4433
▁Basecap	-12.4433
▁Baumgrenze	-12.4433
▁Beanie	-12.4433
▁Beschreibung	-12.4433
▁Beschäftigter	-12.4433
▁Besprechung	-12.4433
▁Bistro	-12.4433
▁Blumentöpfe	-12.4433
▁Blümchen	-12.4433
▁Blütenblätter	-12.4433
▁Bodybuilder	-12.4433
▁Bodysuit	-12.4433
▁Bohnen	-12.4433
▁Bordercollie	-12.4433
▁Bottich	-12.4433
▁Boutique	-12.4433
▁Brasilien	-12.4433
▁Brautstrauß	-12.4433
▁Brezeln	-12.4433
▁Brokkoli	-12.4433
▁Brotlaib	-12.4433
▁Brötchen	-12.4433
▁Brüder	-12.4433
▁Brüsten	-12.4433
▁Budweiser	-12.4433
▁Bulldogge	-12.4433
▁Burrito	-12.4433
▁Bögen	-12.4433
▁Cadillac	-12.4433
▁Caprihosen	-12.4433
▁Capris	-12.4433
▁Challenge	-12.4433
▁Chemikalie	-12.4433
▁Chevrolet	-12.4433
▁Circus	-12.4433
▁Cocktails	-12.4433
▁Company	-12.4433
▁Crocs	-12.4433
▁Dackel	-12.4433
▁Davidstern	-12.4433
▁Defense	-12.4433
▁Delphin	-12.4433
▁Detail	-12.4433
▁Didgeridoo	-12.4433
▁Dojo	-12.4433
▁Dollar	-12.4433
▁Doppel	-12.4433
▁Dudelsäcke	-12.4433
▁Durag	-12.4433
▁Dünen	-12.4433
▁Edelstahl	-12.4433
▁Ehepaar	-12.4433
▁Eichhörnchen	-12.4433
▁Eidechse	-12.4433
▁Eiffelturm	-12.4433
▁Einkaufsbummel	-12.4433
▁Einzelpersonen	-12.4433
▁Eiskunstläufer	-12.4433
▁Elementary	-12.4433
▁Ellbogen	-12.4433
▁Empanadas	-12.4433
▁Engelskostümen	-12.4433
▁Engelsstatue	-12.4433
▁Entertainer	-12.4433
▁Entscheidung	-12.4433
▁Erfrischung	-12.4433
▁Eröffnung	-12.4433
▁Espresso	-12.4433
▁Ethn	-12.4433
▁Etwa	-12.4433
▁Express	-12.4433
▁Eyeliner	-12.4433
▁Fachkräfte	-12.4433
▁Factory	-12.4433
▁Fahrradtaxi	-12.4433
▁Fantas	-12.4433
▁Farbwalze	-12.4433
▁Fernsehkamera	-12.4433
▁Feuchtgebiet	-12.4433
▁Feuerhydranten	-12.4433
▁Flannel	-12.4433
▁Fleece	-12.4433
▁Fliegenfischen	-12.4433
▁Flucht	-12.4433
▁Flyer	-12.4433
▁Folklore	-12.4433
▁Force	-12.4433
▁Formalitäten	-12.4433
▁Forschungs	-12.4433
▁Fototermin	-12.4433
▁Fotovorlage	-12.4433
▁Foyer	-12.4433
▁Francisco	-12.4433
▁Frisör	-12.4433
▁Fußspuren	-12.4433
▁Fähigkeiten	-12.4433
▁Führer	-12.4433
▁Fülle	-12.4433
▁Ganzkörper	-12.4433
▁Gasgrill	-12.4433
▁Gebetsteppich	-12.4433
▁Gebrauch	-12.4433
▁Gebüsch	-12.4433
▁Gedicht	-12.4433
▁Geflügel	-12.4433
▁Gefälle	-12.4433
▁Gehgestell	-12.4433
▁Geistliche	-12.4433
▁Gestalt	-12.4433
▁Gewalt	-12.4433
▁Gewebe	-12.4433
▁Gitarrenkoffer	-12.4433
▁Glasbläser	-12.4433
▁Glühbirne	-12.4433
▁Grafik	-12.4433
▁Gremi	-12.4433
▁Grouch	-12.4433
▁Großeltern	-12.4433
▁Großvater	-12.4433
▁Grundstück	-12.4433
▁Gässchen	-12.4433
▁Güter	-12.4433
▁Haltegurt	-12.4433
▁Handmixer	-12.4433
▁Hantel	-12.4433
▁Hauseingang	-12.4433
▁Heineken	-12.4433
▁Helikopter	-12.4433
▁Herbstlaub	-12.4433
▁Hijab	-12.4433
▁Hipster	-12.4433
▁Hirsch	-12.4433
▁Hirtenhund	-12.4433
▁Holzklötzen	-12.4433
▁Holzscheit	-12.4433
▁Holzstamm	-12.4433
▁Holzstäbe	-12.4433
▁Hulk	-12.4433
▁Hälfte	-12.4433
▁Hündin	-12.4433
▁Infield	-12.4433
▁Innenräumen	-12.4433
▁Interesse	-12.4433
▁Iowa	-12.4433
▁Italien	-12.4433
▁Jagd	-12.4433
▁Jerseys	-12.4433
▁Jesus	-12.4433
▁Jäger	-12.4433
▁Jüngere	-12.4433
▁Kalifornien	-12.4433
▁Kanada	-12.4433
▁Kandidat	-12.4433
▁Kapitäns	-12.4433
▁Kartengeber	-12.4433
▁Katzenbabies	-12.4433
▁Kawasaki	-12.4433
▁Kieselsteine	-12.4433
▁Kiesstrand	-12.4433
▁Kinderfahrräder	-12.4433
▁Kirschblüten	-12.4433
▁Konserven	-12.4433
▁Kornfeld	-12.4433
▁Kosmetik	-12.4433
▁Krankenpfleger	-12.4433
▁Krügen	-12.4433
▁Kundgebung	-12.4433
▁Kunstartikeln	-12.4433
▁Kunststofftasse	-12.4433
▁Kätzchen	-12.4433
▁Labradoodle	-12.4433
▁Lametta	-12.4433
▁Landungssteg	-12.4433
▁Langlauf	-12.4433
▁Langläufer	-12.4433
▁Lattenzaun	-12.4433
▁Laufstall	-12.4433
▁LeBron	-12.4433
▁Leadsänger	-12.4433
▁Leckerbissen	-12.4433
▁Leckerli	-12.4433
▁Lederschuhe	-12.4433
▁Lehnstuhl	-12.4433
▁Lineal	-12.4433
▁Liveauftritt	-12.4433
▁Luftballontiere	-12.4433
▁Lunch	-12.4433
▁Lutscher	-12.4433
▁Luxuswa	-12.4433
▁Längsstreifen	-12.4433
▁Lätzchen	-12.4433
▁Mammutbaum	-12.4433
▁Mannequin	-12.4433
▁Martini	-12.4433
▁Matador	-12.4433
▁Meißel	-12.4433
▁Metallbauwerk	-12.4433
▁Metallgebilde	-12.4433
▁Metallkiste	-12.4433
▁Mexiko	-12.4433
▁Michael	-12.4433
▁Michigan	-12.4433
▁Minnesota	-12.4433
▁Mohikaner	-12.4433
▁Mulch	-12.4433
▁Multi	-12.4433
▁Muslim	-12.4433
▁NER	-12.4433
▁Needle	-12.4433
▁Netzstrümpfen	-12.4433
▁Neujahrs	-12.4433
▁Nonnentracht	-12.4433
▁Nägel	-12.4433
▁Oakland	-12.4433
▁Ocean	-12.4433
▁Offizielle	-12.4433
▁Ohrenschützern	-12.4433
▁Ohrschützern	-12.4433
▁Ohrstöpseln	-12.4433
▁Oliven	-12.4433
▁Ordner	-12.4433
▁Orioles	-12.4433
▁Osterei	-12.4433
▁Pabst	-12.4433
▁Palmwedeln	-12.4433
▁Panzer	-12.4433
▁Papagei	-12.4433
▁Pappschachtel	-12.4433
▁Parkgarage	-12.4433
▁Pavillon	-12.4433
▁Pfannkuchen	-12.4433
▁Pfarrer	-12.4433
▁Pfauenkostüm	-12.4433
▁Pferch	-12.4433
▁Pferdefuhrwerk	-12.4433
▁Pferdeschwänzen	-12.4433
▁Pianist	-12.4433
▁Pickel	-12.4433
▁Pingpong	-12.4433
▁Pitbull	-12.4433
▁Plastikwanne	-12.4433
▁Portrait	-12.4433
▁Postkarten	-12.4433
▁Presse	-12.4433
▁Presslufthammer	-12.4433
▁Prince	-12.4433
▁Pritschenwagen	-12.4433
▁Puderzucker	-12.4433
▁Pulk	-12.4433
▁Rasiercreme	-12.4433
▁Rasiermesser	-12.4433
▁Rasseln	-12.4433
▁Rasterlocken	-12.4433
▁Regenguss	-12.4433
▁Regenschrim	-12.4433
▁Regierung	-12.4433
▁Reifenspur	-12.4433
▁Reißverschluss	-12.4433
▁Religiöse	-12.4433
▁Ribbon	-12.4433
▁Richtern	-12.4433
▁Ringkämpfer	-12.4433
▁Risiko	-12.4433
▁Rollhockey	-12.4433
▁Rothaarige	-12.4433
▁Sarong	-12.4433
▁Schaffner	-12.4433
▁Schaukelgestell	-12.4433
▁Scheffel	-12.4433
▁Scheune	-12.4433
▁Schlapphut	-12.4433
▁Schleuder	-12.4433
▁Schlips	-12.4433
▁Schnabel	-12.4433
▁Schneidbrett	-12.4433
▁Schneiderin	-12.4433
▁Schneidersitz	-12.4433
▁Schnellimbiss	-12.4433
▁Schnurrbärten	-12.4433
▁Schnüren	-12.4433
▁Schottenröcken	-12.4433
▁Schraubendreher	-12.4433
▁Schraubenzieher	-12.4433
▁Schreien	-12.4433
▁Schuhputzstand	-12.4433
▁Schulkantine	-12.4433
▁Schweinefleisch	-12.4433
▁Schwerarbeiter	-12.4433
▁Schwäne	-12.4433
▁Schönheit	-12.4433
▁Seahawks	-12.4433
▁Seehafen	-12.4433
▁Segway	-12.4433
▁Seifenwasser	-12.4433
▁Seminar	-12.4433
▁Servieren	-12.4433
▁Sessellift	-12.4433
▁Session	-12.4433
▁Shampoo	-12.4433
▁Siegerpo	-12.4433
▁Signal	-12.4433
▁Situation	-12.4433
▁Sketch	-12.4433
▁Sockenhaltern	-12.4433
▁Sonnenhüten	-12.4433
▁Souschef	-12.4433
▁Soße	-12.4433
▁Space	-12.4433
▁Spachtel	-12.4433
▁Spaghetti	-12.4433
▁Sperrholz	-12.4433
▁Spezial	-12.4433
▁Spielkonsole	-12.4433
▁Sportfans	-12.4433
▁Sprecher	-12.4433
▁Stadtplan	-12.4433
▁Startnummer	-12.4433
▁Stepp	-12.4433
▁Steppdecke	-12.4433
▁Stollen	-12.4433
▁Stolz	-12.4433
▁Stoppschild	-12.4433
▁Streikschildern	-12.4433
▁Stretching	-12.4433
▁Stromleitungen	-12.4433
▁Strommasten	-12.4433
▁Sträuchern	-12.4433
▁Sturzflug	-12.4433
▁Styroporbecher	-12.4433
▁Stöckelschuhen	-12.4433
▁Sweater	-12.4433
▁Synchron	-12.4433
▁Talkshow	-12.4433
▁Tambour	-12.4433
▁Tanzschritt	-12.4433
▁Tanzvorführung	-12.4433
▁Tarnanzügen	-12.4433
▁Tarnfarben	-12.4433
▁Tarnjacke	-12.4433
▁Taubenschwarm	-12.4433
▁Technologie	-12.4433
▁Themen	-12.4433
▁Tieflader	-12.4433
▁Tortillas	-12.4433
▁Tourbus	-12.4433
▁Trampelpfad	-12.4433
▁Transformator	-12.4433
▁Trauung	-12.4433
▁Treib	-12.4433
▁Tribal	-12.4433
▁Trinkgeld	-12.4433
▁Trittsteinen	-12.4433
▁Truthähne	-12.4433
▁Tuniken	-12.4433
▁Tätigkeiten	-12.4433
▁Tüchern	-12.4433
▁Tümpel	-12.4433
▁Umriss	-12.4433
▁Unrat	-12.4433
▁Unternehmer	-12.4433
▁Untertasse	-12.4433
▁Urinal	-12.4433
▁Vader	-12.4433
▁Ventilator	-12.4433
▁Verdächtige	-12.4433
▁Verwunderung	-12.4433
▁Vitrine	-12.4433
▁Vorderpfoten	-12.4433
▁Vorräte	-12.4433
▁Vorspeise	-12.4433
▁Völker	-12.4433
▁Wachleute	-12.4433
▁Waggon	-12.4433
▁Wahrzeichen	-12.4433
▁Wandbemalung	-12.4433
▁Wandgemälde	-12.4433
▁Warnkegel	-12.4433
▁Wasserspritzer	-12.4433
▁Westernstil	-12.4433
▁Wischmob	-12.4433
▁Wonder	-12.4433
▁Wrestler	-12.4433
▁Würfel	-12.4433
▁Würste	-12.4433
▁Zahnarzt	-12.4433
▁Zange	-12.4433
▁Zaubertrick	-12.4433
▁Zehenspitzen	-12.4433
▁Zentimeter	-12.4433
▁Zickzack	-12.4433
▁Ziegelpflaster	-12.4433
▁Zielfernrohr	-12.4433
▁Ziffer	-12.4433
▁Zivil	-12.4433
▁Zuckerrohr	-12.4433
▁Zuggleise	-12.4433
▁Zugwaggons	-12.4433
▁Zukunft	-12.4433
▁Zuneigung	-12.4433
▁Zwiebel	-12.4433
▁Zwillinge	-12.4433
▁Zwillings	-12.4433
▁abendlichen	-12.4433
▁abfallenden	-12.4433
▁abgefüllte	-12.4433
▁abgestorbene	-12.4433
▁abgetrennt	-12.4433
▁abprallen	-12.4433
▁abwischt	-12.4433
▁adrett	-12.4433
▁aggressiv	-12.4433
▁aktiv	-12.4433
▁alkoholische	-12.4433
▁angeleuchtet	-12.4433
▁angeordnet	-12.4433
▁angeseilt	-12.4433
▁angestrengt	-12.4433
▁anspruchsvolle	-12.4433
▁applaudiert	-12.4433
▁atemberaubend	-12.4433
▁attackiert	-12.4433
▁aufgesetztem	-12.4433
▁aufgesetzter	-12.4433
▁aufgespießte	-12.4433
▁aufreizende	-12.4433
▁aufzufallen	-12.4433
▁ausdruckslos	-12.4433
▁ausgetrocknete	-12.4433
▁ausgewählt	-12.4433
▁baumbewachsenen	-12.4433
▁baumlosen	-12.4433
▁baumreichen	-12.4433
▁bauschige	-12.4433
▁befördern	-12.4433
▁behaarte	-12.4433
▁beiderseits	-12.4433
▁beinhaltet	-12.4433
▁belegten	-12.4433
▁benötigt	-12.4433
▁bepackt	-12.4433
▁berühmten	-12.4433
▁beschließen	-12.4433
▁beseitigen	-12.4433
▁besichtigen	-12.4433
▁besonders	-12.4433
▁bespricht	-12.4433
▁beteiligen	-12.4433
▁betonierten	-12.4433
▁bewaffneten	-12.4433
▁bewegungslos	-12.4433
▁bewölkter	-12.4433
▁bezaubernde	-12.4433
▁blühender	-12.4433
▁bockendes	-12.4433
▁bowlt	-12.4433
▁brasilianische	-12.4433
▁brusttief	-12.4433
▁buddeln	-12.4433
▁bummelt	-12.4433
▁bäuchlings	-12.4433
▁chaotische	-12.4433
▁chinesiche	-12.4433
▁coolen	-12.4433
▁dargestellt	-12.4433
▁dehnen	-12.4433
▁diversen	-12.4433
▁dominiert	-12.4433
▁drapier	-12.4433
▁driftet	-12.4433
▁dummes	-12.4433
▁duneklhaarige	-12.4433
▁dunkelgrüner	-12.4433
▁durchquert	-12.4433
▁durchtrennt	-12.4433
▁dösen	-12.4433
▁döst	-12.4433
▁düster	-12.4433
▁ebenso	-12.4433
▁eingebuddelt	-12.4433
▁einzutau	-12.4433
▁ekstatisch	-12.4433
▁elektronisches	-12.4433
▁entleert	-12.4433
▁entlädt	-12.4433
▁entsorgt	-12.4433
▁entsprechende	-12.4433
▁entwirren	-12.4433
▁erfolgreich	-12.4433
▁erforschen	-12.4433
▁erfrischenden	-12.4433
▁erhellt	-12.4433
▁erklären	-12.4433
▁erledigt	-12.4433
▁ermöglich	-12.4433
▁ernstem	-12.4433
▁erzielt	-12.4433
▁europäischer	-12.4433
▁exzentrisch	-12.4433
▁faltet	-12.4433
▁ferngesteuerten	-12.4433
▁festgemacht	-12.4433
▁festzuhalten	-12.4433
▁filetier	-12.4433
▁filmen	-12.4433
▁flattern	-12.4433
▁flattert	-12.4433
▁flexible	-12.4433
▁flickt	-12.4433
▁fliederfarbenen	-12.4433
▁fliederfarbener	-12.4433
▁fließenden	-12.4433
▁flipp	-12.4433
▁flussabwärts	-12.4433
▁flüstern	-12.4433
▁flüstert	-12.4433
▁folkloristische	-12.4433
▁frequentierten	-12.4433
▁frisst	-12.4433
▁frühen	-12.4433
▁früher	-12.4433
▁fügt	-12.4433
▁gebildet	-12.4433
▁gedämpfte	-12.4433
▁geerntete	-12.4433
▁gefährlich	-12.4433
▁geheimnisvoller	-12.4433
▁gehäutete	-12.4433
▁geknöpften	-12.4433
▁gekräuselte	-12.4433
▁gekühlten	-12.4433
▁gelangweilt	-12.4433
▁gelaunt	-12.4433
▁gelockte	-12.4433
▁gemauerten	-12.4433
▁gemächlich	-12.4433
▁geneigtem	-12.4433
▁geneigten	-12.4433
▁gerahmte	-12.4433
▁gesattelte	-12.4433
▁geschleudert	-12.4433
▁geschlungen	-12.4433
▁geselligen	-12.4433
▁gestylt	-12.4433
▁getrennt	-12.4433
▁getönten	-12.4433
▁geworden	-12.4433
▁goldfarbenes	-12.4433
▁grasbedeckten	-12.4433
▁halbhohen	-12.4433
▁halbnackte	-12.4433
▁halbwüchsiger	-12.4433
▁handgemachten	-12.4433
▁hantiert	-12.4433
▁hawaiianischer	-12.4433
▁heimischen	-12.4433
▁hellrotem	-12.4433
▁herabhängenden	-12.4433
▁herannahenden	-12.4433
▁heranrollenden	-12.4433
▁herbstlichen	-12.4433
▁hergestellt	-12.4433
▁herrscht	-12.4433
▁herzustellen	-12.4433
▁himmelblaue	-12.4433
▁hingefallen	-12.4433
▁hochgezogen	-12.4433
▁holländische	-12.4433
▁hungrig	-12.4433
▁händchenhaltend	-12.4433
▁identifizier	-12.4433
▁installiert	-12.4433
▁internationale	-12.4433
▁interviewen	-12.4433
▁irgendwohin	-12.4433
▁islamische	-12.4433
▁jüdischen	-12.4433
▁jüdischer	-12.4433
▁kahlrasiertem	-12.4433
▁kegelförmigen	-12.4433
▁kennzeichnet	-12.4433
▁kitzelt	-12.4433
▁klatschnass	-12.4433
▁klimpert	-12.4433
▁knielangen	-12.4433
▁knipst	-12.4433
▁korpulentes	-12.4433
▁kreativ	-12.4433
▁kristallklaren	-12.4433
▁könnte	-12.4433
▁kürzlich	-12.4433
▁lachsfarbenen	-12.4433
▁lauscht	-12.4433
▁leht	-12.4433
▁leuchtorange	-12.4433
▁linkshändiger	-12.4433
▁lungert	-12.4433
▁lutscht	-12.4433
▁manövrieren	-12.4433
▁menschenleeren	-12.4433
▁metallenen	-12.4433
▁metallisch	-12.4433
▁modelliert	-12.4433
▁moosbedeckten	-12.4433
▁multi	-12.4433
▁musiziert	-12.4433
▁mürrisch	-12.4433
▁natur	-12.4433
▁natürlich	-12.4433
▁niemand	-12.4433
▁nuckelt	-12.4433
▁nötig	-12.4433
▁olive	-12.4433
▁olivgrüne	-12.4433
▁operiert	-12.4433
▁organgefarbenen	-12.4433
▁pastellfarbenen	-12.4433
▁perfekte	-12.4433
▁plaudern	-12.4433
▁praktizieren	-12.4433
▁prallen	-12.4433
▁primitiv	-12.4433
▁provisorisch	-12.4433
▁rausgeworfen	-12.4433
▁regennassen	-12.4433
▁reiht	-12.4433
▁reißen	-12.4433
▁restliche	-12.4433
▁rettet	-12.4433
▁riesengroße	-12.4433
▁ringsum	-12.4433
▁rittlings	-12.4433
▁rodelt	-12.4433
▁russische	-12.4433
▁rötlichem	-12.4433
▁schafft	-12.4433
▁schattenhafte	-12.4433
▁schief	-12.4433
▁schlittert	-12.4433
▁schluckt	-12.4433
▁schmuddelig	-12.4433
▁schnüffeln	-12.4433
▁schroffen	-12.4433
▁schubst	-12.4433
▁schwitzender	-12.4433
▁schäumende	-12.4433
▁schürt	-12.4433
▁schütter	-12.4433
▁selbstgebauten	-12.4433
▁signiert	-12.4433
▁speisen	-12.4433
▁speit	-12.4433
▁spezielle	-12.4433
▁spinnt	-12.4433
▁sprühen	-12.4433
▁stapf	-12.4433
▁stattfindet	-12.4433
▁sternförmige	-12.4433
▁stets	-12.4433
▁steuern	-12.4433
▁streitet	-12.4433
▁striegelt	-12.4433
▁struppiger	-12.4433
▁synchronisierte	-12.4433
▁tauschen	-12.4433
▁technische	-12.4433
▁testet	-12.4433
▁textet	-12.4433
▁trabenden	-12.4433
▁tragbare	-12.4433
▁transparenten	-12.4433
▁trennt	-12.4433
▁trotzt	-12.4433
▁trug	-12.4433
▁töpfert	-12.4433
▁unbeholfen	-12.4433
▁unebenen	-12.4433
▁verbeugen	-12.4433
▁verbirgt	-12.4433
▁verboten	-12.4433
▁vereinzelten	-12.4433
▁verglasten	-12.4433
▁verhüllte	-12.4433
▁vermischt	-12.4433
▁verquirlt	-12.4433
▁versorgt	-12.4433
▁versunken	-12.4433
▁vertieft	-12.4433
▁verursacht	-12.4433
▁verwitterten	-12.4433
▁verzweifelt	-12.4433
▁vesammelt	-12.4433
▁vierrädrigen	-12.4433
▁vietnamesische	-12.4433
▁visiert	-12.4433
▁waagerecht	-12.4433
▁wackelig	-12.4433
▁wagemutige	-12.4433
▁wasserdichte	-12.4433
▁wattierte	-12.4433
▁wehende	-12.4433
▁weitläufige	-12.4433
▁wetteifert	-12.4433
▁wichtiges	-12.4433
▁winterlichen	-12.4433
▁wünschen	-12.4433
▁würzt	-12.4433
▁zeitgenössische	-12.4433
▁zementierten	-12.4433
▁zerbricht	-12.4433
▁zeremoniellen	-12.4433
▁zerfetzten	-12.4433
▁zerklüftete	-12.4433
▁zerzaust	-12.4433
▁zotteliger	-12.4433
▁zugeknöpft	-12.4433
▁zurückgebundene	-12.4433
▁zweispurigen	-12.4433
▁ärztliche	-12.4433
▁äußer	-12.4433
▁überfluteten	-12.4433
▁überrascht	-12.4433
▁übrig	-12.4433
▁Arbeitswesten	-12.4433
▁Campen	-12.4433
▁Fingerspitzen	-12.4433
▁Flam	-12.4433
▁Fäden	-12.4433
▁Garnelen	-12.4433
▁Hitze	-12.4433
▁Hochzeitskuchen	-12.4433
▁Holzsteg	-12.4433
▁Jury	-12.4433
▁Schuppen	-12.4433
▁Story	-12.4433
▁Tatort	-12.4433
▁Visier	-12.4433
▁Winkel	-12.4433
▁sendet	-12.4433
▁versorgen	-12.4433
Videothek	-12.4433
antworte	-12.4433
geschickt	-12.4433
lücken	-12.4433
porträt	-12.4433
verdient	-12.4433
▁Akrobaten	-12.4433
▁Angebot	-12.4433
▁Angst	-12.4433
▁Antwort	-12.4433
▁Atlanta	-12.4433
▁Augenschein	-12.4433
▁Badezeug	-12.4433
▁Bahnhofsgebäude	-12.4433
▁Böschung	-12.4433
▁Crew	-12.4433
▁Diagramm	-12.4433
▁Eingeborene	-12.4433
▁Garden	-12.4433
▁Gebilde	-12.4433
▁Gehege	-12.4433
▁Geheimnis	-12.4433
▁Gewichthebe	-12.4433
▁Gips	-12.4433
▁Gurke	-12.4433
▁Heels	-12.4433
▁Herstellung	-12.4433
▁Hufeisen	-12.4433
▁Kipplast	-12.4433
▁Kolonial	-12.4433
▁Kräuter	-12.4433
▁Küstenwache	-12.4433
▁Laborant	-12.4433
▁Lebkuchenh	-12.4433
▁Leckerei	-12.4433
▁Lift	-12.4433
▁Muskeln	-12.4433
▁Nachbarn	-12.4433
▁Nüsse	-12.4433
▁Presslufthämmer	-12.4433
▁Putz	-12.4433
▁Rinder	-12.4433
▁Rockstar	-12.4433
▁Schließfächer	-12.4433
▁Schuljungen	-12.4433
▁Scooby	-12.4433
▁Sekt	-12.4433
▁Slum	-12.4433
▁Sprühdosen	-12.4433
▁Steinhäuser	-12.4433
▁Steinsäulen	-12.4433
▁Stromkreise	-12.4433
▁Tropfen	-12.4433
▁Verzierung	-12.4433
▁Warnkleidung	-12.4433
▁Weise	-12.4433
▁Wimpern	-12.4433
▁Wissenschafts	-12.4433
▁Zusammensein	-12.4433
▁abgeschirmte	-12.4433
▁altertümliche	-12.4433
▁applaudieren	-12.4433
▁atmet	-12.4433
▁bewachsenen	-12.4433
▁dokumentier	-12.4433
▁eingelassenen	-12.4433
▁erregt	-12.4433
▁fühle	-12.4433
▁gefärbter	-12.4433
▁hellgrüner	-12.4433
▁kamera	-12.4433
▁kultivier	-12.4433
▁liefern	-12.4433
▁magere	-12.4433
▁massiert	-12.4433
▁organisieren	-12.4433
▁positioniert	-12.4433
▁predi	-12.4433
▁reagiert	-12.4433
▁riecht	-12.4433
▁schlürf	-12.4433
▁schmiert	-12.4433
▁schmoll	-12.4433
▁schwebende	-12.4433
▁worauf	-12.4433
ACE	-12.4433
Campus	-12.4433
Damenunterwäsche	-12.4433
Keep	-12.4433
Plüschtierpreise	-12.4433
Spielzeugtraktor	-12.4433
Stripe	-12.4433
berry	-12.4433
court	-12.4433
dusche	-12.4433
erlangen	-12.4433
fächer	-12.4433
kutsche	-12.4433
pfiff	-12.4433
reinigungs	-12.4433
spaß	-12.4433
zäunung	-12.4433
▁Bastel	-12.4433
▁Bericht	-12.4433
▁Bootsfahrern	-12.4433
▁Clownsnase	-12.4433
▁Coffee	-12.4433
▁Dachdecker	-12.4433
▁Fairway	-12.4433
▁Guck	-12.4433
▁Kenia	-12.4433
▁Kickboxer	-12.4433
▁Meister	-12.4433
▁Niko	-12.4433
▁Patriot	-12.4433
▁Pfeffer	-12.4433
▁Planken	-12.4433
▁Plattenladen	-12.4433
▁Pokemon	-12.4433
▁Reagenzgläser	-12.4433
▁Refle	-12.4433
▁SWAT	-12.4433
▁Schichten	-12.4433
▁Selbst	-12.4433
▁Series	-12.4433
▁Sesamstraße	-12.4433
▁Stall	-12.4433
▁Wasserlache	-12.4433
▁auspackt	-12.4433
▁bäckt	-12.4433
▁dreifarbiger	-12.4433
▁lungern	-12.4433
▁verfallene	-12.4433
▁überwacht	-12.4433
Manöver	-12.4433
finster	-12.4433
vieh	-12.4433
wältig	-12.4433
▁Amerikanische	-12.4433
▁Bettdecke	-12.4433
▁Bissen	-12.4433
▁Bunte	-12.4433
▁Cheese	-12.4433
▁Eisenstange	-12.4433
▁Geigenspieler	-12.4433
▁Glück	-12.4433
▁Kok	-12.4433
▁Liebe	-12.4433
▁Metro	-12.4433
▁Souvenir	-12.4433
▁Stacheldraht	-12.4433
▁Tresen	-12.4433
▁anmutende	-12.4433
▁bellt	-12.4433
▁berät	-12.4433
▁formiert	-12.4433
▁gemessen	-12.4433
▁geringer	-12.4433
▁gewellt	-12.4433
▁sausen	-12.4433
▁startet	-12.4433
▁weiche	-12.4433
schnapp	-12.4433
▁Parkuhr	-12.4433
AGA	-12.4433
berschwemm	-12.4433
dding	-12.4433
glu	-12.4433
krug	-12.4433
schleier	-12.4433
äcks	-12.4433
▁Benzinkanister	-12.4433
▁Center	-12.4433
▁Centr	-12.4433
▁Dachshund	-12.4433
▁Kanne	-12.4433
▁Longboard	-12.4433
▁Mobil	-12.4433
▁Segelflieger	-12.4433
▁Spielkarten	-12.4433
▁Steiger	-12.4433
▁Wells	-12.4433
▁besorgt	-12.4433
▁einhändigen	-12.4433
▁kauen	-12.4433
▁kuppel	-12.4433
▁schwierige	-12.4433
geblich	-12.4433
geschehen	-12.4433
▁Araber	-12.4433
▁Fahrradtour	-12.4433
▁Für	-12.4433
▁Insassen	-12.4433
▁Song	-12.4433
▁erzeugt	-12.4433
▁gepanzerte	-12.4433
▁toben	-12.4433
▁zeltet	-12.4433
arkasse	-12.4433
gewiesen	-12.4433
kanne	-12.4433
ometern	-12.4433
tönen	-12.4433
▁Automaten	-12.4433
▁Freundesgruppe	-12.4433
▁Gleitschirm	-12.4433
▁Hebebühne	-12.4433
▁Kettenkarussell	-12.4433
▁Notenblatt	-12.4433
▁Sandsturm	-12.4433
▁Stuhlreihen	-12.4433
▁Umzugswagen	-12.4433
▁anstatt	-12.4433
▁handge	-12.4433
egrenz	-12.4433
▁Gär	-12.4433
▁Krä	-12.4433
kratz	-12.4433
laubt	-12.4433
▁Gesteins	-12.4433
▁Kennzeichnung	-12.4433
▁Laken	-12.4433
▁abenteuerl	-12.4433
▁sorgt	-12.4433
▁sumpfiges	-12.4433
▁toten	-12.4433
▁verzehr	-12.4433
Clog	-12.4433
athlet	-12.4433
atoren	-12.4433
down	-12.4433
lebens	-12.4433
motion	-12.4433
notet	-12.4433
stick	-12.4433
▁Display	-12.4433
▁Flugblatt	-12.4433
▁Heckklappe	-12.4433
▁Livekonzert	-12.4433
▁gesprenkelt	-12.4433
▁kriege	-12.4433
▁reckt	-12.4433
▁saftig	-12.4433
▁vertrau	-12.4433
hundert	-12.4433
personen	-12.4433
▁Menschenmassen	-12.4433
▁Nutz	-12.4433
▁Weih	-12.4433
▁alltägliche	-12.4433
▁buckelndes	-12.4433
▁schulterlange	-12.4433
lied	-12.4433
▁Bühnenmitte	-12.4433
▁Eistee	-12.4433
▁Harlem	-12.4433
▁Ritualtanz	-12.4433
▁Rückansicht	-12.4433
▁Schlafsäcken	-12.4433
▁kulturellen	-12.4433
▁privat	-12.4433
▁schwule	-12.4433
▁sticht	-12.4433
inky	-12.4433
srael	-12.4433
▁böse	-12.4433
geschichtete	-12.4433
shop	-12.4433
▁Bears	-12.4433
▁Grabenbagger	-12.4433
▁Mexikanische	-12.4433
▁Rückbank	-12.4433
▁Schneesturm	-12.4433
▁hispanisch	-12.4433
▁strahlt	-12.4433
lenker	-12.4433
tätig	-12.4433
▁Plätz	-12.4433
▁pausier	-12.4433
kreuzung	-12.4433
▁Friedensschild	-12.4433
▁Showgirl	-12.4433
▁Nagelpistole	-12.4433
▁Snap	-12.4433
▁Wartezimmer	-12.4433
▁verkünde	-12.4433
leistung	-12.4433
▁Scheitelpunkt	-12.4433
▁blinzel	-12.4433
ächtig	-12.4433
▁Boogieboard	-12.4433
▁Hebevorrichtung	-12.4433
▁Union	-12.4433
▁aufbäumenden	-12.4433
▁freiwillig	-12.4433
▁schert	-12.4433
▁zufrieden	-12.4433
▁Insel	-12.4433
▁Snoo	-12.4433
▁denselben	-12.4433
▁hütet	-12.4433
kupier	-12.4433
▁Drachenflieger	-12.4433
▁Schrein	-12.4433
▁hindern	-12.4433
▁leerstehenden	-12.4433
frohe	-12.4433
▁Preisrichter	-12.4433
▁Warteraum	-12.4433
▁Weitsprung	-12.4433
▁kostenlose	-12.4433
▁sprudel	-12.4433
Gallo	-12.4433
kunststück	-12.4433
▁Farbdose	-12.4433
▁Schriftzüge	-12.4433
▁Umschlagtuch	-12.4433
▁Werkbank	-12.4433
▁Wettläufer	-12.4433
bagger	-12.4433
▁Mähne	-12.4433
▁Sandsack	-12.4433
▁schirmt	-12.4433
free	-12.4433
▁Propangas	-12.4433
▁Rettungshelfer	-12.4433
▁gezeichneten	-12.4433
▁glatten	-12.4433
▁rasch	-12.4433
▁rechteckigen	-12.4433
ekunden	-12.4433
▁Comicfigur	-12.4433
▁Motorschlitten	-12.4433
▁Pinguine	-12.4433
▁Sec	-12.4433
▁Strich	-12.4433
▁demselben	-12.4433
Nieder	-12.4433
ogaübungen	-12.4433
▁Filmplakat	-12.4433
▁Gummischuhen	-12.4433
▁Legosteine	-12.4433
▁braucht	-12.4433
▁scheucht	-12.4433
▁sorgen	-12.4433
▁Hopper	-12.4433
green	-12.4433
▁Hockeytorhüter	-12.4433
▁Kunststoffrohr	-12.4433
▁Wettschwimmen	-12.4433
▁Herztattoo	-12.4433
bögen	-12.4433
▁Segelschiff	-12.4433
Collegestudenten	-12.4433
kunstwerk	-12.4433
stopft	-12.4433
▁Campingstühlen	-12.4433
▁Hartholzboden	-12.4433
▁Notenblättern	-12.4433
▁Piercings	-12.4433
▁Schriftzeichen	-12.4433
▁Statur	-12.4433
▁boxt	-12.4433
▁knete	-12.4433
arionette	-12.4433
nzeile	-12.4433
▁leder	-12.4433
folie	-12.4434
kündig	-12.4434
▁Pont	-12.4434
▁Walkman	-12.4434
▁koreanische	-12.4434
▁Bademütze	-12.4434
▁Curling	-12.4434
▁Papierkr	-12.4434
▁Speiseraum	-12.4434
▁Spinnkurs	-12.4434
▁Bonbon	-12.4434
▁Laufschuhen	-12.4434
▁Reaktion	-12.4434
▁spreizt	-12.4434
▁vorhandene	-12.4434
Drag	-12.4434
Künste	-12.4434
▁Brüstung	-12.4434
▁Bukett	-12.4434
▁Schoner	-12.4434
▁beschrifte	-12.4434
Event	-12.4434
▁Freiwurf	-12.4434
▁Kunststofffolie	-12.4434
▁Lederstühlen	-12.4434
▁Reiseführer	-12.4434
▁Rettungskraft	-12.4434
▁Trinkbecher	-12.4434
▁Kleinbusses	-12.4434
▁Nadel	-12.4434
ongoli	-12.4434
▁Leuchtturm	-12.4434
▁Rauchwolke	-12.4434
kanu	-12.4434
▁Schiebe	-12.4434
▁Zuhörerschaft	-12.4434
Hello	-12.4434
▁Freiluftbühne	-12.4434
▁Förderband	-12.4434
▁Ballettklasse	-12.4434
▁Punkrock	-12.4434
▁Rezept	-12.4434
▁Rodgers	-12.4434
▁sumpfigen	-12.4434
▁Justi	-12.4434
▁Körn	-12.4434
▁Dolch	-12.4434
▁Elektrogerät	-12.4434
▁Schlafanzügen	-12.4434
▁Speerwurf	-12.4434
▁Metzgerei	-12.4434
▁angehobenen	-12.4434
▁Protestierende	-12.4434
▁Päckchen	-12.4434
▁abgeleckt	-12.4434
Ausschnitt	-12.4434
▁Fanghandschuh	-12.4434
▁Heft	-12.4434
▁Lederweste	-12.4434
▁Monument	-12.4434
▁Möglichkeit	-12.4434
▁Schleifmaschine	-12.4434
▁Driv	-12.4434
▁Vorstadt	-12.4434
eschlagener	-12.4434
▁Bürgerstein	-12.4434
▁Karotte	-12.4434
▁Unterführung	-12.4434
▁fitte	-12.4434
▁Angreifer	-12.4434
▁Miene	-12.4434
Torpfostens	-12.4434
rimmig	-12.4434
▁Lampenmast	-12.4434
▁Filmcrew	-12.4434
▁Vorstadthaus	-12.4434
▁bitten	-12.4434
Ballsport	-12.4434
chmiedewerkzeuge	-12.4434
gekämmte	-12.4434
▁Reitwettbewerb	-12.4434
▁Bauchtänzerin	-12.4434
▁Bleistiftrock	-12.4434
▁Brieftasche	-12.4434
▁Fluggäste	-12.4434
▁zwirbelt	-12.4434
Steak	-12.4434
▁Schulklasse	-12.4434
▁betagte	-12.4434
▁hoff	-12.4434
▁Heim	-12.4434
Dinner	-12.4434
▁Betonsperren	-12.4434
▁Modelleisenbahn	-12.4434
▁Seestern	-12.4434
▁Verkehrskegel	-12.4434
▁bebaut	-12.4434
▁Exponat	-12.4434
▁Videoaufnahme	-12.4434
▁schockier	-12.4434
▁wehrt	-12.4434
▁Strohhüte	-12.4434
cake	-12.4434
▁Extrem	-12.4434
▁stattfindenden	-12.4434
▁strömenden	-12.4434
▁verpack	-12.4434
MCA	-12.4434
▁Neongrün	-12.4434
▁kill	-12.4434
schutzanzügen	-12.4434
▁Katzenbaby	-12.4434
▁Wirbel	-12.4434
▁Boxershorts	-12.4434
▁Hasenkostüm	-12.4434
▁Naturpfad	-12.4434
▁ungepflasterte	-12.4434
▁Alarm	-12.4434
▁Stump	-12.4434
abdrücken	-12.4434
▁Castro	-12.4434
▁Eiszapfen	-12.4434
▁WAR	-12.4434
▁betreiben	-12.4434
zweig	-12.4434
▁Durcheinander	-12.4434
▁Ferngläs	-12.4434
▁Heimweg	-12.4434
▁Lederoberteil	-12.4434
▁tri	-12.4434
▁Stirnlampe	-12.4434
▁Zementlaster	-12.4434
▁Postmitarbeiter	-12.4434
Sporthallenboden	-12.4434
▁erkennbar	-12.4434
▁feuern	-12.4434
▁trommeln	-12.4434
türmt	-12.4434
▁vertreiben	-12.4434
▁verängstigt	-12.4434
▁platzt	-12.4434
▁Straßenmarathon	-12.4434
betriebs	-12.4434
▁Minirock	-12.4434
▁Tret	-12.4434
▁Gummihammer	-12.4434
▁Polizeikräfte	-12.4434
▁Topfpflanzen	-12.4434
Telefontechniker	-12.4434
▁Schreibmaschine	-12.4434
chnitzerei	-12.4434
▁Flugbegleitung	-12.4434
▁Diskus	-12.4434
achtsam	-12.4434
▁Weihnachtsmotiv	-12.4434
▁Abflug	-12.4434
▁Jackson	-12.4434
▁Springreite	-12.4434
▁speist	-12.4434
▁Formation	-12.4434
▁Cargo	-12.4434
▁schrill	-12.4434
ajor	-12.4434
nabsperrungen	-12.4434
▁Morgenrock	-12.4434
▁Notenpult	-12.4434
▁Campingstuhl	-12.4434
▁Unterholz	-12.4434
▁Saxophonisten	-12.4434
berhang	-12.4434
▁Patrick	-12.4434
ylon	-12.4434
▁Telefonleitung	-12.4434
▁Gurtzeug	-12.4434
▁Halsbändern	-12.4434
▁Matrosenanzug	-12.4434
▁sonniger	-12.4434
▁wodurch	-12.4435
▁Boxring	-12.4435
▁Gesichtsfarbe	-12.4435
▁pusten	-12.4435
▁Kühlgerät	-12.4435
tracht	-12.4435
▁Riesenrad	-12.4435
▁Tageslicht	-12.4435
▁gekrümmt	-12.4435
▁landschaftliche	-12.4435
▁Einkaufskorb	-12.4435
▁einheitliche	-12.4435
ND	-12.4435
▁entwirft	-12.4435
▁Hawaiihemd	-12.4435
▁Holzfußboden	-12.4435
▁Streitkräfte	-12.4435
▁verspielt	-12.4435
▁Will	-12.4435
▁Head	-12.4435
▁wäh	-12.4435
▁Lagerraum	-12.4435
▁Schublade	-12.4435
▁Fragen	-12.4435
▁körperlich	-12.4435
▁Backsteinweg	-12.4435
▁Absprung	-12.4435
▁Abzeichen	-12.4435
▁Festsaal	-12.4435
▁Laufgitter	-12.4435
▁Laufstrecke	-12.4435
▁verhaftet	-12.4435
▁Schießplatz	-12.4435
▁Unterwasser	-12.4435
▁Unterhosen	-12.4435
▁aufgehenden	-12.4435
▁Verkehrsschild	-12.4435
▁Rodeoarena	-12.4435
poster	-12.4435
▁Bahntunnel	-12.4435
▁Poker	-12.4435
▁gelenkt	-12.4435
▁Arbeitsbank	-12.4435
▁Bambusstange	-12.4435
▁Hochsprung	-12.4435
▁Opfer	-12.4435
▁Kasten	-12.4435
▁Malbuch	-12.4435
rudel	-12.4435
▁Mandel	-12.4435
▁Dienst	-12.4435
▁Houst	-12.4435
▁Schießstand	-12.4435
▁Hindernispfad	-12.4435
▁Szenerie	-12.4435
gezeichnet	-12.4435
▁Abwasser	-12.4435
▁Fischabteilung	-12.4435
▁Laufoberteil	-12.4435
▁Pana	-12.4435
▁Schulalter	-12.4435
▁Sitzbank	-12.4435
▁Laufhosen	-12.4435
▁Liege	-12.4435
▁Fahrbahn	-12.4435
▁sechsköpfige	-12.4435
▁Zügel	-12.4435
▁Vase	-12.4435
▁Mahl	-12.4435
aschmittel	-12.4435
▁Zeltplane	-12.4435
▁kurvige	-12.4435
▁Skysurf	-12.4435
▁Außenanlage	-12.4435
▁Behandlung	-12.4435
▁Unfallort	-12.4435
▁vornüber	-12.4435
mps	-12.4435
▁Baseballstadion	-12.4435
▁Japanerinnen	-12.4435
▁Kampfanzügen	-12.4435
▁Metallpfanne	-12.4435
▁Metallpfosten	-12.4435
▁Tanzstudio	-12.4435
▁überladenen	-12.4435
▁Schwelle	-12.4435
▁Kissenschlacht	-12.4435
▁Samml	-12.4435
▁abzuspielen	-12.4435
▁Friseurstuhl	-12.4435
eitungs	-12.4435
▁herabgelassen	-12.4435
ative	-12.4436
▁waldige	-12.4436
▁Herzschlag	-12.4436
gesackt	-12.4436
▁Wenn	-12.4436
schwelle	-12.4436
▁Reishut	-12.4436
▁Computermonitor	-12.4436
▁Goldschmuck	-12.4436
einheit	-12.4436
▁hellrotes	-12.4436
▁jonglieren	-12.4436
geklapptem	-12.4436
▁Vorgarten	-12.4436
kabel	-12.4436
▁verpasst	-12.4436
▁Anstr	-12.4436
▁Sanitäter	-12.4436
▁Straßenkreuzung	-12.4436
teller	-12.4436
▁Cellospieler	-12.4436
▁Hornspieler	-12.4436
▁Saxofonspieler	-12.4436
▁Klebe	-12.4436
▁Abbild	-12.4436
Sky	-12.4436
▁Umschlag	-12.4436
▁Militärhosen	-12.4436
▁Grabung	-12.4436
▁Test	-12.4436
▁geballte	-12.4436
▁Crou	-12.4436
▁MacBook	-12.4436
warengeschäft	-12.4436
▁Großmarkt	-12.4436
▁Notre	-12.4436
▁Mofa	-12.4436
▁Karo	-12.4436
▁Karateturnier	-12.4436
▁Kugelbad	-12.4436
▁Tupfe	-12.4436
▁Inderinnen	-12.4436
▁Risse	-12.4436
▁Banjospieler	-12.4436
▁Lacrossespieler	-12.4436
▁Tanzposition	-12.4436
▁Kofferraum	-12.4436
ausgang	-12.4436
▁Metallobjekte	-12.4436
▁Lachende	-12.4436
ackbrett	-12.4436
▁Geschenkpapier	-12.4436
▁Rollwagen	-12.4436
▁Grillrestaurant	-12.4436
▁Gummiente	-12.4436
▁Federhut	-12.4436
IR	-12.4437
▁Anspr	-12.4437
▁Fotoalbum	-12.4437
▁Sportstudio	-12.4437
äugt	-12.4437
▁Belag	-12.4437
▁Vorhand	-12.4437
mong	-12.4437
▁Kehr	-12.4437
▁Gemüseauslage	-12.4437
welle	-12.4437
▁Rollschuhbahn	-12.4437
▁entsetzt	-12.4437
▁Metallgerüst	-12.4437
iabol	-12.4437
▁Stierkampf	-12.4437
▁dasteht	-12.4437
▁festgehalten	-12.4437
▁Essenstisch	-12.4437
otschaft	-12.4437
▁Arbeitsfläche	-12.4437
ansässigen	-12.4437
▁Plastikeimer	-12.4437
▁Mittelpunkt	-12.4437
▁erörtert	-12.4437
▁lümmelt	-12.4437
▁patrouilliert	-12.4437
▁veranstaltet	-12.4437
▁Warm	-12.4437
▁arrangiert	-12.4437
stoppt	-12.4437
teppich	-12.4437
▁zuerst	-12.4437
▁Möbelgeschäft	-12.4437
▁Brautpaar	-12.4437
▁Rudermannschaft	-12.4437
▁gelbbraunem	-12.4437
▁Imbisswagen	-12.4437
räzis	-12.4437
▁Bierdose	-12.4437
▁gesprüht	-12.4437
▁Becherglas	-12.4437
HL	-12.4437
▁Billi	-12.4437
▁Gummiball	-12.4437
unterhalt	-12.4437
vorspiel	-12.4437
▁Kochtopf	-12.4437
▁Cater	-12.4437
▁Holzmöbeln	-12.4437
▁Holzkreuz	-12.4437
▁Holzpfosten	-12.4437
▁Holzblöcke	-12.4437
▁Wickelt	-12.4437
▁künstlichem	-12.4437
▁Schutzanzug	-12.4437
▁Karatekampf	-12.4437
▁Zufahrt	-12.4437
abend	-12.4437
▁Abteil	-12.4438
▁Dogge	-12.4438
wägen	-12.4438
▁heftige	-12.4438
▁Algen	-12.4438
▁Vesp	-12.4438
▁sogar	-12.4438
▁stiert	-12.4438
▁Bergwanderweg	-12.4438
▁OU	-12.4438
▁Backg	-12.4438
▁kicher	-12.4438
▁schreienden	-12.4438
▁Begleitung	-12.4438
▁Penn	-12.4438
buster	-12.4438
▁Feuerwehrhelm	-12.4438
▁Laubwerk	-12.4438
talk	-12.4438
▁Zustand	-12.4438
▁Skibrille	-12.4438
▁stürmt	-12.4438
▁Metallstruktur	-12.4438
▁Abfahrt	-12.4438
▁Steinbrücke	-12.4438
▁Steinoberfläche	-12.4438
▁Grünanlage	-12.4438
▁Mike	-12.4438
VE	-12.4438
▁Kegelhut	-12.4438
▁Kasino	-12.4438
▁Zielort	-12.4439
▁beschneidet	-12.4439
▁bewirft	-12.4439
▁zurückgelegt	-12.4439
▁CD	-12.4439
▁Waldgegend	-12.4439
▁Gegnerische	-12.4439
▁Friseurladen	-12.4439
▁flie	-12.4439
▁beginnender	-12.4439
▁Lila	-12.4439
▁Peter	-12.4439
▁Fahrersitz	-12.4439
▁Schaukelpferd	-12.4439
▁Darth	-12.4439
▁Baufahrzeug	-12.4439
▁Bou	-12.4439
▁abhebt	-12.4439
▁Ratte	-12.4439
▁Cand	-12.4439
▁staunend	-12.4439
▁vorbeifahrenden	-12.4439
gekämpft	-12.4439
▁Ufernähe	-12.4439
▁Zune	-12.4439
▁Straßenansicht	-12.4439
▁Büroarbeit	-12.4439
brettern	-12.4439
▁Baseballuniform	-12.4439
▁Fensterfront	-12.4439
▁Puten	-12.4439
elbstgebastelten	-12.4439
▁Betonmisch	-12.4439
▁DI	-12.4439
AR	-12.444
▁Autoschlüssel	-12.444
▁Aufsicht	-12.444
▁Metallbank	-12.444
▁orts	-12.444
▁Sonnebrille	-12.444
aukler	-12.444
scheine	-12.444
▁Armbändern	-12.444
▁Lagen	-12.444
▁Holzbalken	-12.444
▁hellgrauen	-12.444
stellender	-12.444
▁bisschen	-12.444
▁Wohnhauses	-12.444
▁knietiefes	-12.444
▁neugieriges	-12.444
CK	-12.444
▁Namensschildern	-12.444
kleidern	-12.444
▁bearbeiten	-12.444
enkranz	-12.444
▁Schwimmhalle	-12.444
GT	-12.444
▁wider	-12.444
▁verschmiertem	-12.444
▁ausgefallenem	-12.444
▁schlicht	-12.444
▁stürmischem	-12.444
▁langärmeligem	-12.444
▁langärmligem	-12.444
▁Astro	-12.444
plane	-12.444
▁Rennausrüstung	-12.4441
▁Spieltunnel	-12.4441
▁Ihrem	-12.4441
▁strahlendem	-12.4441
▁Fußbrücke	-12.4441
▁beschreibt	-12.4441
hake	-12.4441
EP	-12.4441
▁Turnkleidung	-12.4441
▁vergraben	-12.4441
▁Bilderbuch	-12.4441
▁Zugführer	-12.4441
▁vorübergehend	-12.4441
▁dir	-12.4441
▁Metallrahmen	-12.4441
▁Bron	-12.4441
uddhistische	-12.4441
▁Vorteil	-12.4441
▁Rout	-12.4441
▁Nische	-12.4441
▁verlegen	-12.4441
▁Büchertasche	-12.4442
einfahrt	-12.4442
▁Biergarten	-12.4442
nny	-12.4442
▁Augenschutz	-12.4442
▁Skateranlage	-12.4442
▁Skaterpark	-12.4442
Turf	-12.4442
▁Verkaufstand	-12.4442
▁Spiegelungen	-12.4442
arley	-12.4442
deckel	-12.4442
▁Gepäcktasche	-12.4442
▁geblasen	-12.4442
▁Styl	-12.4443
aumelt	-12.4443
▁Metallgitter	-12.4443
▁Holzleiter	-12.4443
▁Holzbrücke	-12.4443
▁Holzstruktur	-12.4443
▁Arbeitsort	-12.4443
▁Straßenlauf	-12.4443
rney	-12.4443
▁Brotstand	-12.4443
hahn	-12.4443
▁Heil	-12.4443
▁Kompa	-12.4443
Streichorchester	-12.4444
▁Mord	-12.4444
▁Wakeboarding	-12.4444
▁Identi	-12.4444
▁Standbild	-12.4444
▁Bergspitze	-12.4444
bock	-12.4444
▁Kirschbäume	-12.4444
▁Metallarbeiter	-12.4444
▁Bahnrennen	-12.4444
▁teilnehmende	-12.4444
▁Partnerin	-12.4444
▁Rechen	-12.4444
geklebt	-12.4445
▁Etage	-12.4445
▁Cost	-12.4445
isierung	-12.4445
▁Miniröcke	-12.4445
mpft	-12.4445
▁schwingenden	-12.4445
▁Hockeyfeld	-12.4445
▁herunterkommt	-12.4445
▁Verletz	-12.4445
▁Nass	-12.4445
▁Skaterbahn	-12.4445
kizz	-12.4445
yho	-12.4445
gabel	-12.4445
▁Holztreppe	-12.4445
Kirmesattraktion	-12.4445
▁Soldatinnen	-12.4445
▁Metalldach	-12.4446
▁Holzhütte	-12.4446
ierkasten	-12.4446
dock	-12.4446
▁Glasscheibe	-12.4446
▁Glasbehälter	-12.4446
▁kahlem	-12.4446
▁Hausparty	-12.4446
▁Haustür	-12.4446
▁Betongebäude	-12.4446
▁Stofftasche	-12.4446
▁Düsenfl	-12.4446
▁Landmaschine	-12.4446
▁Zuschauerraum	-12.4446
▁Ladenfenster	-12.4447
▁Lotterielos	-12.4447
▁Kebabs	-12.4447
▁Barkeeperin	-12.4447
▁Eisfläche	-12.4447
▁schlechtem	-12.4448
▁Kaffeehaus	-12.4448
▁Gehende	-12.4448
Piratenschiff	-12.4448
▁Summer	-12.4448
▁Faden	-12.4448
▁LA	-12.4448
▁Metallskulptur	-12.4448
▁tiefblauen	-12.4449
lton	-12.4449
▁Mole	-12.4449
▁stra	-12.4449
▁Steinstraße	-12.4449
▁komisches	-12.4449
▁Beat	-12.4449
▁ungewöhnliches	-12.4449
▁Kaugummiblase	-12.4449
▁PC	-12.445
▁westliche	-12.445
▁Kara	-12.445
▁Wisch	-12.445
rochen	-12.445
▁anzuz	-12.445
▁Bauten	-12.4451
AS	-12.4451
▁Bri	-12.4452
bauch	-12.4452
▁Sportjacke	-12.4453
▁Sportgerät	-12.4454
▁Av	-12.4454
▁stilles	-12.4454
inamerikanischen	-12.4454
sschacht	-12.4455
▁Sommerkleidung	-12.4455
▁Betonbau	-12.4455
Wahlkampf	-12.4456
zzle	-12.4456
mensch	-12.4456
▁einarmige	-12.4456
▁Cur	-12.4457
▁qualmende	-12.4457
▁hum	-12.4458
leuchtungskörper	-12.4459
▁Tanzende	-12.4459
▁Wanderschuhe	-12.446
schmecke	-12.446
Cyclone	-12.446
Warn	-12.4461
Staffel	-12.4462
rdbeer	-12.4463
ngungen	-12.4463
▁Rec	-12.4465
eranda	-12.4465
▁Tanne	-12.4465
rbeitsplatz	-12.4465
▁dahingleite	-12.4466
▁Leuchtstäbe	-12.4467
▁verschmierte	-12.4468
▁abgeschlossen	-12.4468
durchschnittlich	-12.4468
▁massi	-12.4468
▁Monitore	-12.4469
▁blockier	-12.447
MC	-12.4473
Boss	-12.4474
Kurzhaar	-12.4475
gewisse	-12.4476
▁Bärenkostüm	-12.4476
Astronautenanzug	-12.4478
Hähnchen	-12.4481
▁Hind	-12.4485
veteran	-12.4486
▁Protestant	-12.4488
▁Bongotrommel	-12.449
pper	-12.4491
rgeld	-12.4491
▁Piratenkostüm	-12.4493
Anlege	-12.4494
gesicht	-12.4498
▁Pack	-12.4498
Paris	-12.4503
überdachte	-12.4504
schabt	-12.451
▁Schneeräum	-12.4513
▁erstaunt	-12.4515
wärmt	-12.4518
▁Herbstblätter	-12.452
„	-14.7117
q	-14.7118
Z	-14.7119
