<unk>	0
<s>	0
</s>	0
▁a	-2.49644
.	-2.64206
▁A	-3.09567
▁in	-3.26132
▁the	-3.66546
▁on	-3.87795
▁is	-3.94228
▁and	-3.96271
▁man	-3.96308
▁of	-4.03446
▁with	-4.13895
,	-4.58455
▁woman	-4.62163
▁are	-4.64824
▁to	-4.81151
▁Two	-4.82399
▁at	-4.89479
▁wearing	-4.99849
▁people	-5.02598
▁white	-5.16613
▁shirt	-5.20191
▁young	-5.23074
▁black	-5.27478
▁his	-5.28342
▁an	-5.29182
▁while	-5.3024
▁blue	-5.33343
▁red	-5.40539
▁sitting	-5.40711
▁girl	-5.44634
s	-5.45307
▁dog	-5.4554
▁boy	-5.46943
▁men	-5.48223
▁	-5.48279
▁standing	-5.48372
▁playing	-5.50185
▁group	-5.55527
▁street	-5.59702
▁down	-5.62962
▁walking	-5.64203
-	-5.66245
▁front	-5.7213
▁her	-5.7227
▁holding	-5.74926
▁water	-5.89309
▁by	-5.91718
▁The	-5.93031
▁up	-6.04568
▁women	-6.0468
▁An	-6.04755
▁for	-6.04871
▁green	-6.049
▁one	-6.05388
▁looking	-6.08931
▁outside	-6.10057
▁child	-6.10169
▁Three	-6.11794
▁little	-6.13208
▁large	-6.15236
▁through	-6.16831
▁brown	-6.21491
▁yellow	-6.21495
▁two	-6.22402
▁ball	-6.27458
▁hat	-6.2815
▁from	-6.28159
▁their	-6.28599
▁as	-6.29343
▁into	-6.30299
▁person	-6.32815
▁children	-6.36492
▁other	-6.37122
▁next	-6.37243
▁small	-6.41066
▁dressed	-6.4175
▁over	-6.42986
▁out	-6.43266
▁building	-6.46645
▁riding	-6.50113
▁running	-6.50629
▁People	-6.51148
▁near	-6.52176
▁jacket	-6.53004
▁another	-6.53963
▁around	-6.54072
▁some	-6.58523
▁field	-6.58818
▁sidewalk	-6.589
▁orange	-6.61307
▁beach	-6.61752
▁crowd	-6.62871
▁stands	-6.6647
▁pink	-6.66491
▁jumping	-6.67324
▁sits	-6.6736
▁behind	-6.67712
▁snow	-6.68213
'	-6.68832
▁table	-6.68937
▁grass	-6.7144
▁background	-6.73832
▁stand	-6.75992
▁bike	-6.77168
▁air	-6.77743
▁city	-6.80118
▁player	-6.81115
▁Man	-6.82203
▁girls	-6.83671
▁looks	-6.83869
▁wall	-6.84433
▁top	-6.847
▁off	-6.86836
▁that	-6.87077
▁dress	-6.89534
▁camera	-6.90179
▁dogs	-6.90358
▁park	-6.91001
▁talking	-6.92443
▁something	-6.92961
▁older	-6.94839
▁along	-6.95695
▁walks	-6.96246
▁play	-6.96424
▁guitar	-6.96557
▁hair	-6.97415
▁lady	-6.97819
▁soccer	-6.98096
▁together	-6.98096
▁blond	-6.98653
▁working	-6.98686
▁food	-7.00158
▁gray	-7.00625
▁boys	-7.02607
▁smiling	-7.02927
▁game	-7.04251
▁hand	-7.04338
▁has	-7.044
▁picture	-7.04531
▁plays	-7.07255
▁car	-7.0741
▁Asian	-7.07859
▁holds	-7.09622
▁Four	-7.11747
▁road	-7.12694
▁him	-7.12706
▁bench	-7.13335
▁it	-7.13594
▁glasses	-7.14655
▁pants	-7.14655
▁sit	-7.15645
▁stage	-7.15647
▁shorts	-7.16112
▁walk	-7.16393
▁carrying	-7.16637
▁couple	-7.19586
▁baby	-7.2003
▁them	-7.20224
▁face	-7.2061
▁bicycle	-7.20632
▁tree	-7.21311
▁side	-7.22066
▁Several	-7.23545
▁rock	-7.24546
▁old	-7.24603
▁pool	-7.2463
▁long	-7.24991
▁taking	-7.25715
▁race	-7.26003
▁each	-7.2645
▁head	-7.26991
▁doing	-7.28321
▁watching	-7.30642
▁across	-7.30739
ing	-7.30862
▁dirt	-7.31329
▁jeans	-7.31401
▁area	-7.31441
▁male	-7.32096
▁middle	-7.32523
▁dark	-7.34082
▁back	-7.34301
▁boat	-7.35184
▁jumps	-7.35565
▁hands	-7.36198
▁ground	-7.37338
▁room	-7.38163
▁day	-7.38577
▁performing	-7.39009
▁who	-7.40659
▁eating	-7.40684
▁female	-7.411
▁being	-7.42009
▁guy	-7.42396
▁baseball	-7.42821
▁coat	-7.42839
▁using	-7.44573
▁football	-7.45014
▁suit	-7.4506
▁t	-7.45442
▁under	-7.45891
▁mouth	-7.45898
▁watch	-7.46227
▁striped	-7.46361
▁horse	-7.46377
▁he	-7.46795
▁sign	-7.47205
▁purple	-7.47256
▁sand	-7.48592
▁band	-7.48629
▁store	-7.4863
haired	-7.49921
▁runs	-7.51669
▁look	-7.52795
▁Young	-7.53788
▁tennis	-7.53816
▁sunglasses	-7.54301
▁reading	-7.54307
▁three	-7.55771
▁clothing	-7.55782
▁microphone	-7.55832
▁mountain	-7.56829
▁players	-7.57179
▁There	-7.5728
shirt	-7.5737
▁toy	-7.58264
▁ocean	-7.59289
▁past	-7.60301
▁watches	-7.60334
▁basketball	-7.60343
▁uniform	-7.60366
▁its	-7.60486
▁during	-7.60836
▁restaurant	-7.6188
▁climbing	-7.61896
▁kids	-7.62125
▁helmet	-7.62991
▁train	-7.64511
▁against	-7.64567
▁window	-7.65194
▁dancing	-7.6617
▁be	-7.66182
▁team	-7.66846
▁rides	-7.67616
▁elderly	-7.67828
▁chair	-7.67966
▁work	-7.68372
▁posing	-7.71229
▁wooden	-7.71229
▁One	-7.7123
▁about	-7.71807
▁trees	-7.71927
▁outdoor	-7.71962
ed	-7.72247
▁having	-7.72388
▁covered	-7.73042
▁waiting	-7.74172
▁all	-7.74183
▁swimming	-7.74747
▁they	-7.75112
▁getting	-7.75347
▁floor	-7.75427
▁or	-7.76351
▁construction	-7.77164
▁trying	-7.77172
▁skateboard	-7.77246
▁bag	-7.7735
▁workers	-7.78092
▁very	-7.78399
▁fence	-7.78988
▁colorful	-7.79624
▁busy	-7.79665
▁ice	-7.80245
▁singing	-7.80279
▁Woman	-7.8154
▁This	-7.82181
▁jump	-7.8227
▁high	-7.8412
▁cart	-7.85248
▁hill	-7.8564
▁line	-7.86349
▁laying	-7.86798
▁shirts	-7.86852
▁book	-7.8704
▁cap	-7.87148
▁truck	-7.87706
▁bright	-7.88127
▁Men	-7.88144
▁tan	-7.882
▁ride	-7.88393
▁path	-7.89513
▁kitchen	-7.89517
▁market	-7.89517
▁cellphone	-7.89765
▁inside	-7.90065
▁bus	-7.90393
▁making	-7.90911
▁hats	-7.90959
▁grassy	-7.91
▁others	-7.91478
▁clothes	-7.92325
▁light	-7.9251
▁brick	-7.926
▁track	-7.92609
▁umbrella	-7.93331
▁"	-7.93341
▁outfit	-7.93522
▁body	-7.93766
▁big	-7.93779
▁motorcycle	-7.94052
▁takes	-7.94059
▁towards	-7.94735
▁full	-7.95183
▁night	-7.95214
▁metal	-7.95215
▁enjoying	-7.9597
▁swing	-7.96196
▁river	-7.9669
▁open	-7.98384
▁paper	-7.98507
▁ready	-7.99637
▁tank	-7.99717
▁she	-8.01982
▁Five	-8.02821
▁sweater	-8.03143
▁piece	-8.03198
▁lake	-8.0361
▁shop	-8.03972
▁trick	-8.03991
▁above	-8.05221
▁several	-8.05221
▁run	-8.05626
▁painting	-8.06405
▁going	-8.06884
▁stone	-8.07255
▁dance	-8.08073
▁hard	-8.08515
▁colored	-8.08567
▁snowy	-8.08621
▁wave	-8.08928
▁vest	-8.08934
▁shopping	-8.09357
▁stick	-8.09361
▁backpack	-8.0977
▁music	-8.10039
▁many	-8.10151
▁surrounded	-8.10203
▁onto	-8.10373
▁worker	-8.10668
▁uniforms	-8.10901
▁crowded	-8.12991
▁smiles	-8.13031
▁board	-8.13171
▁beside	-8.13186
▁photo	-8.13228
▁outdoors	-8.14312
▁gear	-8.1455
▁adults	-8.14919
▁pole	-8.15019
▁drinking	-8.15496
▁phone	-8.16361
▁2	-8.16418
▁house	-8.16828
▁kid	-8.16829
▁bar	-8.17728
▁gathered	-8.19121
▁event	-8.20033
▁hanging	-8.20042
▁set	-8.20539
▁catch	-8.20869
▁subway	-8.20974
▁bridge	-8.20974
▁African	-8.20974
▁family	-8.21926
▁flowers	-8.22194
▁arms	-8.2232
e	-8.22422
▁fire	-8.22877
▁preparing	-8.22888
hair	-8.23398
▁costume	-8.23398
▁toddler	-8.23414
▁object	-8.23423
▁leaning	-8.23862
▁away	-8.24182
d	-8.24378
▁short	-8.2439
▁rope	-8.24419
▁hockey	-8.24841
▁sleeping	-8.24844
y	-8.24935
▁steps	-8.2494
▁Many	-8.24949
"	-8.2504
▁does	-8.25836
▁fishing	-8.25888
▁after	-8.26131
▁fountain	-8.26379
▁machine	-8.26389
▁lot	-8.2641
▁guys	-8.2681
▁Children	-8.26829
▁plaid	-8.26829
▁beautiful	-8.2782
▁take	-8.28428
▁adult	-8.28435
t	-8.28512
▁asian	-8.28876
▁like	-8.28947
▁arm	-8.29391
▁graffiti	-8.30884
▁police	-8.30925
▁stairs	-8.30964
▁shoes	-8.3214
▁forest	-8.33016
▁four	-8.33043
▁selling	-8.33067
▁shirtless	-8.33082
▁sunny	-8.34124
▁setting	-8.34128
er	-8.35728
▁pose	-8.35859
▁racing	-8.36312
▁rocks	-8.36456
▁glass	-8.37375
▁putting	-8.37424
▁corner	-8.3743
▁slide	-8.3819
▁chairs	-8.38274
▁tall	-8.38518
▁both	-8.38548
▁pushing	-8.38556
▁throwing	-8.38583
▁drink	-8.39187
▁Some	-8.39679
▁between	-8.39681
▁public	-8.39681
▁volleyball	-8.39681
▁have	-8.39681
▁parade	-8.39681
▁American	-8.40413
▁equipment	-8.40831
▁ladies	-8.40831
▁laughing	-8.40851
▁someone	-8.41519
▁computer	-8.41557
▁flag	-8.41567
▁trail	-8.41885
▁sun	-8.4199
▁instruments	-8.42345
▁couch	-8.43152
▁view	-8.43763
▁wood	-8.43875
▁ramp	-8.43876
▁fish	-8.44282
▁plastic	-8.4436
▁woods	-8.44809
▁pictures	-8.44881
▁sweatshirt	-8.45096
▁party	-8.45499
▁concrete	-8.45565
▁which	-8.45565
▁playground	-8.45568
▁poses	-8.46034
▁beard	-8.46264
▁statue	-8.46299
▁winter	-8.46785
▁dock	-8.46785
▁midair	-8.4802
▁yard	-8.48032
aged	-8.49399
▁number	-8.50038
▁cowboy	-8.50093
▁skirt	-8.50104
▁get	-8.52686
▁toward	-8.52744
▁bikes	-8.52965
▁attire	-8.5309
▁seated	-8.53131
▁what	-8.53187
▁reads	-8.53219
▁cream	-8.54432
▁left	-8.54432
▁sky	-8.54432
▁just	-8.54435
▁distance	-8.5444
▁beer	-8.55368
▁works	-8.55441
▁cutting	-8.55767
▁cooking	-8.55779
▁bed	-8.55863
▁cross	-8.57015
▁cliff	-8.57116
▁pulling	-8.57135
▁where	-8.57136
▁vests	-8.57806
▁bags	-8.58064
▁rider	-8.58076
▁tent	-8.58088
▁T	-8.58096
▁Little	-8.58486
▁court	-8.59874
▁edge	-8.59881
▁appears	-8.60015
▁buildings	-8.60656
▁instrument	-8.60858
▁school	-8.61283
▁showing	-8.6135
▁crossing	-8.61354
▁show	-8.62173
▁mountains	-8.62497
▁scarf	-8.62712
▁right	-8.62715
▁perform	-8.63636
▁jersey	-8.6373
▁make	-8.63741
▁station	-8.64161
▁Women	-8.64161
▁nearby	-8.64169
▁filled	-8.642
▁performs	-8.64589
▁apron	-8.65184
▁cup	-8.65191
▁horses	-8.65551
▁home	-8.6563
▁Frisbee	-8.65632
▁driving	-8.65632
▁few	-8.65632
▁carries	-8.65636
▁grill	-8.66537
▁art	-8.6693
▁leaves	-8.67134
▁shore	-8.67163
▁bowling	-8.6718
▁friends	-8.67346
▁flower	-8.68141
▁structure	-8.68155
▁cigarette	-8.68185
▁fruit	-8.68206
▁smile	-8.68215
▁rain	-8.68548
▁boots	-8.68643
▁parked	-8.68901
▁no	-8.69189
▁snowboarder	-8.69707
▁vendor	-8.69737
▁net	-8.69747
▁Person	-8.70178
▁goggles	-8.70182
▁lined	-8.70301
▁cars	-8.70792
▁bottle	-8.71272
▁door	-8.71304
▁vehicle	-8.71308
▁skateboarder	-8.71331
▁concert	-8.7174
▁martial	-8.7174
▁shot	-8.71751
▁time	-8.71764
▁painted	-8.71793
▁drums	-8.71986
▁talks	-8.72061
ly	-8.72466
▁hit	-8.7289
▁coffee	-8.73328
▁lying	-8.73328
▁smoking	-8.73332
▁flying	-8.73356
▁dresses	-8.7342
▁rocky	-8.73445
▁eyes	-8.73526
a	-8.74298
▁Group	-8.74471
▁mother	-8.74471
▁newspaper	-8.745
▁roof	-8.74939
▁conversation	-8.74941
▁safety	-8.74941
▁bunch	-8.74957
▁bathing	-8.74968
▁kicking	-8.74981
▁swinging	-8.75089
▁prepares	-8.75195
▁arts	-8.75403
▁flags	-8.75536
▁younger	-8.75738
▁waves	-8.75767
▁paint	-8.75864
▁gather	-8.76025
▁bucket	-8.76145
▁box	-8.76476
▁gentleman	-8.7658
▁practicing	-8.7658
▁spectators	-8.76584
▁gloves	-8.76676
▁parking	-8.77012
▁costumes	-8.77307
▁ladder	-8.77763
▁Boy	-8.77807
▁competition	-8.78247
▁this	-8.78247
▁different	-8.78247
▁listening	-8.7826
▁cleaning	-8.78276
▁uses	-8.78403
▁jackets	-8.78924
▁bull	-8.79431
▁can	-8.79434
▁blanket	-8.79501
▁scene	-8.79943
▁staring	-8.79956
▁bearded	-8.80008
▁items	-8.80062
▁skateboarding	-8.8013
▁there	-8.80482
▁meal	-8.81156
▁hold	-8.81175
▁pile	-8.81175
▁bikini	-8.81205
▁surfer	-8.81205
▁desk	-8.81211
▁balloon	-8.81238
▁empty	-8.81578
▁audience	-8.81666
▁giving	-8.81666
▁various	-8.81666
▁lawn	-8.81666
▁railing	-8.8303
▁rodeo	-8.83421
▁Someone	-8.83423
▁Indian	-8.83424
▁onlookers	-8.83439
▁leaps	-8.835
▁bicycles	-8.83816
▁drinks	-8.84085
▁display	-8.84644
▁cake	-8.84699
▁Girl	-8.8477
▁platform	-8.85206
▁sliding	-8.85206
▁hot	-8.85208
▁pointing	-8.85217
▁gathering	-8.8528
▁vegetables	-8.85325
▁go	-8.85605
▁bowl	-8.86441
▁basket	-8.86589
▁cement	-8.87024
▁facing	-8.87024
▁feet	-8.87024
▁wet	-8.87029
▁class	-8.87033
▁sports	-8.87193
n	-8.87512
▁flip	-8.8837
▁bird	-8.88445
▁biker	-8.88526
▁suits	-8.888
▁before	-8.88876
▁silver	-8.88876
▁competing	-8.88876
▁wedding	-8.88877
▁gold	-8.88877
▁speaking	-8.88889
▁match	-8.8901
es	-8.89436
▁surfboard	-8.90223
▁mask	-8.90268
▁tie	-8.90288
▁purse	-8.90312
▁helmets	-8.90386
▁Six	-8.90763
▁classroom	-8.90763
▁coming	-8.90767
▁huge	-8.90769
▁counter	-8.90805
▁gets	-8.91393
▁wait	-8.91943
▁teams	-8.92243
▁stop	-8.92253
▁ski	-8.92323
▁lap	-8.92682
▁traditional	-8.92686
▁tries	-8.9269
▁surfing	-8.92715
▁students	-8.92865
▁sings	-8.92865
▁climbs	-8.9299
▁do	-8.93961
▁break	-8.941
▁rail	-8.94113
▁animal	-8.94214
▁military	-8.94647
▁chasing	-8.94647
▁bride	-8.94647
▁kissing	-8.94679
▁alley	-8.94743
▁throw	-8.96133
▁stroller	-8.96193
▁screen	-8.96611
▁same	-8.96647
▁writing	-8.96648
▁walkway	-8.96672
▁fighting	-8.96701
▁sort	-8.98132
▁shoulder	-8.98259
▁skier	-8.98275
▁pass	-8.98551
▁country	-8.98682
▁sunset	-8.98689
▁kneeling	-8.98692
▁streets	-8.98867
▁waits	-8.99144
▁talk	-9.00275
▁place	-9.00302
▁runner	-9.00339
▁mirror	-9.00718
▁business	-9.00766
▁females	-9.00768
▁waving	-9.00771
▁attempting	-9.00801
▁lit	-9.00941
▁violin	-9.0236
▁close	-9.02835
▁marathon	-9.02898
▁seen	-9.02911
▁outfits	-9.04179
▁scooter	-9.04645
▁son	-9.04648
▁officer	-9.04653
▁signs	-9.0494
▁base	-9.05026
▁father	-9.05072
▁course	-9.05077
▁blowing	-9.05105
▁overlooking	-9.05118
▁says	-9.05143
▁bubbles	-9.05285
▁enjoy	-9.06739
▁hole	-9.06878
▁bald	-9.07232
▁collar	-9.07248
▁life	-9.07294
▁leather	-9.07294
▁urban	-9.07294
▁happy	-9.07295
▁meat	-9.07295
▁In	-9.0731
▁fixing	-9.0732
▁skating	-9.07337
▁leans	-9.07338
▁balloons	-9.0785
▁site	-9.08311
▁lights	-9.08663
▁S	-9.08966
▁artist	-9.09117
▁skate	-9.09118
▁leg	-9.09127
▁swim	-9.09132
▁electric	-9.09558
▁Construction	-9.09567
▁foreground	-9.09567
▁alone	-9.09567
▁five	-9.09582
▁helping	-9.09617
▁brightly	-9.09622
▁tables	-9.09705
▁musicians	-9.09799
▁umbrellas	-9.1094
▁end	-9.11341
▁clown	-9.11442
▁plate	-9.11456
▁asleep	-9.11893
▁giant	-9.11893
▁headphones	-9.11893
▁foot	-9.11894
▁goal	-9.11898
▁mud	-9.11899
▁made	-9.11901
▁gym	-9.11903
▁legs	-9.12333
▁faces	-9.12428
▁office	-9.14272
▁diving	-9.14274
▁stadium	-9.14274
▁video	-9.14274
▁doorway	-9.1428
▁roller	-9.14281
▁washing	-9.14285
▁drawing	-9.14286
▁well	-9.14311
▁sandals	-9.14315
▁passing	-9.14353
▁among	-9.14596
▁wears	-9.146
▁musical	-9.1473
▁makes	-9.14984
▁sticks	-9.155
▁swings	-9.15673
▁canoe	-9.16175
▁way	-9.16397
▁golf	-9.16692
▁accordion	-9.16713
▁multicolored	-9.16718
▁falling	-9.16758
in	-9.1679
▁officers	-9.17197
▁row	-9.18706
▁photographer	-9.18751
▁cat	-9.18771
▁laptop	-9.18776
▁toys	-9.18825
▁leash	-9.1914
▁barefoot	-9.19166
▁teenage	-9.19202
▁shallow	-9.19213
▁church	-9.19213
▁traffic	-9.19214
▁performance	-9.19215
▁reaching	-9.19239
▁picking	-9.19246
▁van	-9.19265
▁skiing	-9.19308
▁dirty	-9.19387
▁heads	-9.19594
▁throws	-9.19753
▁new	-9.21317
▁C	-9.21696
▁hiking	-9.21777
▁digging	-9.21777
▁below	-9.21778
r	-9.22682
▁shovel	-9.23903
▁microscope	-9.23947
▁garden	-9.24337
▁fun	-9.24397
▁hugging	-9.24409
▁tunnel	-9.24409
▁passes	-9.24427
▁hoodie	-9.24433
▁relaxing	-9.24437
▁catches	-9.2445
▁upside	-9.2454
▁gives	-9.2454
▁catching	-9.246
▁males	-9.24663
▁P	-9.25195
▁atop	-9.26194
▁wheel	-9.26216
▁climb	-9.26534
▁kick	-9.26544
▁move	-9.26616
▁tattoo	-9.2663
▁cut	-9.26639
▁stunt	-9.2665
▁prepare	-9.26657
▁drum	-9.26684
▁desert	-9.27063
▁Chinese	-9.27111
▁Christmas	-9.27111
▁beige	-9.27111
▁brunette	-9.27111
▁sweeping	-9.27118
▁leaping	-9.27131
▁sleeps	-9.272
▁dancers	-9.27439
▁shows	-9.27933
▁bat	-9.29248
▁photograph	-9.29274
▁hose	-9.29381
▁sled	-9.29385
▁daughter	-9.29406
▁singer	-9.29434
▁sculpture	-9.29434
▁pond	-9.29881
▁conversing	-9.29889
▁telescope	-9.29889
▁Black	-9.29889
▁flies	-9.2989
▁teeth	-9.29891
▁cafe	-9.29896
▁resting	-9.29944
▁trunks	-9.30053
▁sea	-9.31942
▁eat	-9.32248
▁tire	-9.32286
▁friend	-9.32308
▁chef	-9.32315
▁shoe	-9.32321
▁gun	-9.32332
▁project	-9.32686
▁coats	-9.32701
▁straw	-9.32745
▁karate	-9.32746
▁mural	-9.32746
▁underneath	-9.32746
▁wrestling	-9.32746
▁jogging	-9.32746
▁cold	-9.32746
▁racket	-9.32747
▁held	-9.32747
▁pier	-9.32747
▁splashing	-9.32755
▁town	-9.32759
▁how	-9.32857
▁points	-9.32865
ids	-9.3296
o	-9.33011
▁plants	-9.33027
▁mat	-9.34454
▁cane	-9.35229
▁hula	-9.35687
▁including	-9.35687
▁moving	-9.35687
▁themselves	-9.35687
▁curly	-9.35688
▁B	-9.35891
▁balls	-9.36018
▁without	-9.3611
▁shoulders	-9.36312
▁D	-9.37314
▁cloth	-9.38126
▁cyclist	-9.38284
▁bicyclist	-9.38287
▁hiker	-9.3829
▁Old	-9.38694
▁Small	-9.38718
▁opposing	-9.38718
▁picnic	-9.38718
▁trampoline	-9.38718
▁carnival	-9.38718
▁produce	-9.38718
▁dinner	-9.38718
▁crosswalk	-9.38719
▁crying	-9.38723
▁button	-9.38729
▁makeup	-9.38735
▁pulled	-9.38746
▁circle	-9.38754
▁deep	-9.38764
▁taken	-9.38771
▁Workers	-9.38804
▁matching	-9.3883
▁wooded	-9.38833
▁individuals	-9.38989
▁opening	-9.38994
m	-9.39326
▁tricks	-9.40378
up	-9.40687
▁help	-9.40702
▁turn	-9.41298
▁block	-9.4131
▁wear	-9.41357
▁nose	-9.41386
▁knee	-9.41398
▁infant	-9.41412
▁performer	-9.41453
▁slope	-9.41477
▁lab	-9.41803
▁lone	-9.41825
▁trash	-9.41842
▁surface	-9.41843
▁center	-9.41844
▁sewing	-9.41846
▁stuffed	-9.41855
▁rolling	-9.41857
▁neck	-9.41863
▁closed	-9.41881
▁members	-9.42055
▁attempts	-9.42137
▁dances	-9.43488
▁square	-9.44586
▁cow	-9.446
▁booth	-9.44621
▁fight	-9.44675
▁ring	-9.44709
▁balcony	-9.45068
▁himself	-9.45068
▁third	-9.45068
▁blouse	-9.45068
▁softball	-9.45069
▁lunch	-9.45075
▁pushes	-9.45075
▁goes	-9.45094
▁These	-9.45147
▁lays	-9.45344
▁deck	-9.46883
▁see	-9.47875
▁log	-9.47884
▁pot	-9.47894
▁kind	-9.47895
▁device	-9.47941
▁athlete	-9.47959
▁indoor	-9.47967
▁staircase	-9.48402
▁gate	-9.48402
▁festival	-9.48402
▁bent	-9.48403
▁formal	-9.48406
▁waterfall	-9.48416
▁boxes	-9.48431
▁speaks	-9.48555
▁sandy	-9.48599
▁chases	-9.48673
▁pulls	-9.48702
▁puts	-9.48796
▁skis	-9.49159
▁eye	-9.49626
▁robe	-9.49842
▁waters	-9.50192
▁s	-9.50757
▁stream	-9.51247
on	-9.51311
▁wetsuit	-9.51367
▁covering	-9.51374
▁rest	-9.51389
▁Guy	-9.51395
▁gymnast	-9.51849
▁grocery	-9.5185
▁shaking	-9.5185
▁puddle	-9.5185
▁fallen	-9.51853
▁garb	-9.51872
▁not	-9.51873
▁overalls	-9.51888
▁paved	-9.51903
▁drives	-9.52024
▁swims	-9.52509
▁enjoys	-9.52526
▁books	-9.54104
▁hammer	-9.54843
▁driver	-9.54943
▁pitcher	-9.54953
▁sheet	-9.54964
▁jean	-9.54998
covered	-9.55001
▁dancer	-9.55037
k	-9.55238
▁fair	-9.55393
▁nice	-9.55403
▁heavy	-9.55421
▁laundry	-9.55421
▁pouring	-9.55421
▁gentlemen	-9.55421
▁porch	-9.55422
▁shaving	-9.55422
▁steep	-9.55422
▁ledge	-9.55425
▁airplane	-9.55428
▁marching	-9.55445
▁Older	-9.5545
▁customers	-9.55618
▁fingers	-9.55681
▁teenagers	-9.55839
▁robes	-9.55876
▁mid	-9.55879
▁bicyclists	-9.55933
▁hikers	-9.55933
▁kicks	-9.55995
▁birds	-9.56264
▁put	-9.57053
▁tracks	-9.57631
▁windows	-9.58339
▁podium	-9.58561
▁sale	-9.58561
▁kayak	-9.58575
▁lift	-9.58591
▁laugh	-9.58658
▁khaki	-9.58682
▁round	-9.58688
▁hoop	-9.587
▁teenager	-9.5871
▁clear	-9.5906
▁local	-9.59125
▁opposite	-9.59125
▁oriental	-9.59125
▁paddling	-9.59125
▁palm	-9.59125
▁foreign	-9.59125
▁piano	-9.59125
▁protective	-9.59125
▁wrapped	-9.59126
▁attached	-9.59126
▁Here	-9.59128
▁polo	-9.5913
▁backyard	-9.59131
▁golden	-9.59133
▁reaches	-9.59133
▁cloudy	-9.59144
▁evening	-9.59144
▁checking	-9.59163
▁ship	-9.59171
▁shooting	-9.59174
▁lies	-9.59199
▁shoveling	-9.59222
▁hangs	-9.59378
▁colors	-9.59395
▁arena	-9.59523
▁blocks	-9.5964
▁lots	-9.60759
▁poles	-9.60959
▁I	-9.61877
▁clean	-9.62395
▁tongue	-9.62408
▁mound	-9.62408
▁raft	-9.6244
▁part	-9.62454
▁keyboard	-9.62465
▁saxophone	-9.62465
▁string	-9.6247
▁sell	-9.62471
▁wheelchair	-9.6251
▁poster	-9.62525
▁New	-9.62951
▁curb	-9.62964
▁balancing	-9.62971
▁camouflage	-9.62971
▁denim	-9.62971
▁fabric	-9.62971
▁inflatable	-9.62971
▁luggage	-9.62971
▁pavement	-9.62971
▁Child	-9.62971
▁nap	-9.62977
▁wine	-9.63025
▁fenced	-9.63138
▁cones	-9.63323
ers	-9.63811
▁M	-9.64267
▁seat	-9.66458
▁frame	-9.6646
▁hurdle	-9.66465
▁flight	-9.66466
▁professional	-9.66469
▁bottom	-9.6651
▁image	-9.66524
▁swimsuit	-9.66529
like	-9.66632
▁kiss	-9.66836
▁fresh	-9.66953
▁low	-9.66958
▁juggling	-9.66971
▁married	-9.66971
▁tractor	-9.66971
skinned	-9.66971
▁railroad	-9.66972
▁courtyard	-9.66973
▁goalie	-9.66975
▁buying	-9.67018
▁floating	-9.6702
▁landscape	-9.67137
▁laughs	-9.6744
▁eats	-9.67582
▁un	-9.67659
▁skirts	-9.68376
▁motorcycles	-9.69425
S	-9.70508
▁spray	-9.70572
▁bandanna	-9.70575
▁G	-9.70585
▁guard	-9.70606
▁pair	-9.70633
▁appear	-9.70636
▁post	-9.70642
▁fall	-9.70651
▁stool	-9.70666
▁towel	-9.70671
▁Dog	-9.70689
▁soldier	-9.70706
▁step	-9.7071
▁musician	-9.70719
▁type	-9.70754
▁tub	-9.70887
▁acoustic	-9.71138
▁either	-9.71138
▁floral	-9.71138
▁happily	-9.71138
▁marketplace	-9.71138
▁suspended	-9.71138
▁Santa	-9.71138
▁bread	-9.71138
▁carriage	-9.71138
▁club	-9.71138
▁Male	-9.71141
▁garbage	-9.71141
▁bucking	-9.71145
▁scaffolding	-9.71166
▁pajamas	-9.71166
▁touching	-9.71169
▁cheering	-9.71175
▁socks	-9.71184
▁shown	-9.71191
▁backwards	-9.71228
▁goods	-9.71479
▁tools	-9.715
▁soldiers	-9.71572
▁moves	-9.71813
▁jerseys	-9.72407
▁riders	-9.72488
▁walls	-9.74482
▁escalator	-9.74924
▁surf	-9.74936
▁chain	-9.7497
▁plant	-9.75
▁groom	-9.75003
▁advertisement	-9.75031
▁magazine	-9.75043
▁shade	-9.75046
▁direction	-9.75049
▁bubble	-9.75059
▁ear	-9.75065
id	-9.75375
▁dry	-9.75392
▁chest	-9.75428
▁fly	-9.75436
▁German	-9.75486
▁airport	-9.75486
▁athletic	-9.75486
▁caught	-9.75486
▁frisbee	-9.75486
▁harness	-9.75486
▁living	-9.75486
▁obstacle	-9.75486
▁plaza	-9.75486
▁serving	-9.75486
▁sheep	-9.75486
▁White	-9.75486
▁dining	-9.75486
▁rugby	-9.75486
▁Seven	-9.75486
▁stove	-9.75486
▁six	-9.75487
▁welding	-9.75488
▁hay	-9.75492
▁raised	-9.75492
▁underwater	-9.75492
▁american	-9.75497
sleeved	-9.75503
▁kneels	-9.75535
▁boats	-9.75797
▁fans	-9.75803
▁plane	-9.75918
▁R	-9.75935
▁w	-9.75993
▁animals	-9.76462
▁paints	-9.7666
▁backpacks	-9.77771
▁F	-9.78235
th	-9.78353
or	-9.78944
▁sing	-9.79222
▁print	-9.79504
▁referee	-9.79525
▁attempt	-9.79534
▁sport	-9.79536
▁pipe	-9.7957
▁use	-9.79584
▁student	-9.79604
▁tube	-9.79605
▁climber	-9.79611
al	-9.79921
▁hood	-9.79995
▁map	-9.80029
▁York	-9.80031
▁amusement	-9.80031
▁examining	-9.80031
▁haircut	-9.80031
▁participating	-9.80031
▁barbecue	-9.80031
▁polka	-9.80031
▁gravel	-9.80031
▁neon	-9.80033
▁operating	-9.80033
▁bending	-9.80055
▁thrown	-9.80072
▁hooded	-9.80087
▁brushing	-9.80093
▁grilling	-9.80244
▁seems	-9.80284
▁bath	-9.80428
▁runners	-9.80993
i	-9.81295
ment	-9.8144
u	-9.82971
shirts	-9.8367
▁tops	-9.83781
▁wagon	-9.84232
▁teacher	-9.84233
▁pull	-9.84251
▁compete	-9.84311
▁opponent	-9.84324
▁practice	-9.8435
▁wire	-9.84353
▁individual	-9.84364
▁cone	-9.84373
▁model	-9.84705
▁mustache	-9.84764
▁coach	-9.8478
▁mom	-9.84792
apanese	-9.84793
▁garage	-9.84793
▁headscarf	-9.84793
▁jungle	-9.84793
▁muddy	-9.84793
▁orchestra	-9.84793
▁sharing	-9.84793
▁sink	-9.84793
▁studio	-9.84793
▁candy	-9.84793
▁bathroom	-9.84794
▁wide	-9.84794
▁presentation	-9.84795
▁crouches	-9.84795
▁hallway	-9.84797
▁heels	-9.84797
▁pit	-9.84804
▁hitting	-9.84804
▁checkered	-9.84805
▁money	-9.84805
▁try	-9.84807
▁decorated	-9.84808
▁things	-9.84825
▁fast	-9.84845
▁pedestrians	-9.84889
▁benches	-9.8501
side	-9.85069
▁sticking	-9.8519
▁cyclists	-9.85484
▁photographs	-9.85549
▁vehicles	-9.86146
▁ropes	-9.86963
▁sets	-9.8705
amp	-9.87228
▁start	-9.89214
▁native	-9.89232
▁drummer	-9.89233
▁pick	-9.89255
▁snowboard	-9.89282
▁lay	-9.89294
▁O	-9.89329
▁sword	-9.89332
▁jumpsuit	-9.89343
▁figure	-9.89343
2	-9.89372
▁racer	-9.89492
▁action	-9.89503
▁tool	-9.89535
▁but	-9.89666
▁brush	-9.89713
▁carpet	-9.89743
▁you	-9.89774
▁Brown	-9.89793
▁ceiling	-9.89793
▁entrance	-9.89793
▁motocross	-9.89793
▁patio	-9.89793
▁racetrack	-9.89793
▁speech	-9.89793
▁summer	-9.89793
▁also	-9.89793
▁mall	-9.89794
▁puck	-9.89799
▁peace	-9.89802
▁machinery	-9.89805
▁policeman	-9.89814
▁feeding	-9.89815
▁snowboarding	-9.89862
▁sporting	-9.89869
▁rowing	-9.89946
▁passengers	-9.90095
▁ears	-9.90296
▁cleans	-9.90364
▁rests	-9.90464
▁p	-9.908
le	-9.91
▁fruits	-9.91263
▁skateboards	-9.9348
▁shoot	-9.93494
▁routine	-9.94496
▁blow	-9.94507
▁read	-9.94548
▁trumpet	-9.9455
▁bow	-9.94578
▁observe	-9.94585
▁beam	-9.94595
▁lane	-9.94598
▁tag	-9.94618
▁smoke	-9.94621
▁beverage	-9.94622
▁good	-9.9463
down	-9.94638
▁chase	-9.94655
▁farm	-9.9494
▁sandwich	-9.95038
▁hall	-9.95053
▁Blond	-9.95056
▁herself	-9.95056
▁hospital	-9.95056
▁intersection	-9.95056
▁leaving	-9.95056
▁museum	-9.95056
▁narrow	-9.95056
▁possibly	-9.95056
▁ornate	-9.95056
▁rough	-9.95056
▁african	-9.95057
▁discussion	-9.95058
▁petting	-9.95058
▁boardwalk	-9.9506
▁stopped	-9.9506
▁bushes	-9.95061
▁horseback	-9.95061
▁half	-9.95064
▁song	-9.95083
▁hillside	-9.95101
▁sells	-9.95658
".	-9.95834
▁baskets	-9.96346
▁bikers	-9.96346
▁heart	-9.96723
▁only	-9.96751
▁slides	-9.9677
▁AT	-9.97844
▁guitars	-9.98234
w	-9.9999
▁container	-10.0005
▁position	-10.0006
▁tile	-10.0008
▁float	-10.0011
▁dune	-10.0014
▁motorcyclist	-10.0017
▁protest	-10.0051
▁Lady	-10.0061
▁celebrating	-10.0061
▁fencing	-10.0061
▁great	-10.0061
▁maroon	-10.0061
▁navy	-10.0061
▁neighborhood	-10.0061
▁outstretched	-10.0061
▁puppy	-10.0061
▁Large	-10.0061
▁rubber	-10.0061
▁fancy	-10.0061
▁cardboard	-10.0061
▁squatting	-10.0061
▁clay	-10.0062
▁firetruck	-10.0062
▁mostly	-10.0062
▁dishes	-10.0063
▁folding	-10.0063
▁handstand	-10.0064
▁mixing	-10.0064
▁re	-10.0071
▁tattooed	-10.0071
▁pen	-10.0075
▁m	-10.0092
▁c	-10.0093
▁free	-10.012
▁seats	-10.0123
▁helps	-10.0141
▁skates	-10.017
▁indoors	-10.0171
g	-10.0196
▁ahead	-10.0203
▁buckets	-10.0213
▁bottles	-10.0221
▁stones	-10.0365
man	-10.0452
▁so	-10.0554
▁microphones	-10.0575
▁buy	-10.0587
▁d	-10.0588
▁stack	-10.059
▁stroll	-10.0594
▁color	-10.0599
▁kite	-10.0602
▁youth	-10.0602
▁balance	-10.0603
▁doctor	-10.0603
▁broom	-10.0603
▁storefront	-10.0604
▁belt	-10.0605
▁swimmer	-10.0606
▁finger	-10.0606
▁item	-10.0608
▁guitarist	-10.0609
▁fan	-10.0628
▁pitch	-10.0632
▁fix	-10.0641
▁batter	-10.0646
▁chalk	-10.0648
▁dish	-10.0648
▁warm	-10.0649
▁On	-10.0649
▁Street	-10.0649
▁carving	-10.0649
▁cricket	-10.0649
▁first	-10.0649
▁reflective	-10.0649
▁rink	-10.0649
▁rural	-10.0649
▁sofa	-10.0649
▁wife	-10.0649
▁choir	-10.0649
▁scuba	-10.0649
▁sleeveless	-10.0649
▁calf	-10.0649
▁medical	-10.0649
▁funny	-10.0649
flops	-10.065
▁apartment	-10.065
▁moment	-10.065
▁spinning	-10.065
▁grinding	-10.065
▁scenery	-10.065
▁flipping	-10.065
▁crouching	-10.065
▁dreadlocks	-10.0651
▁lamp	-10.0651
▁stretching	-10.0651
▁inspecting	-10.0652
▁crew	-10.0653
▁leading	-10.0655
▁thin	-10.0656
▁coloring	-10.0656
▁turning	-10.0663
▁gas	-10.0666
▁cheerleaders	-10.0667
▁stripes	-10.0667
▁boxing	-10.0675
▁stares	-10.0681
▁hugs	-10.0683
▁smokes	-10.0699
▁blows	-10.0699
▁uniformed	-10.0703
▁tattoos	-10.0746
▁bowls	-10.0795
▁pan	-10.0825
▁bars	-10.094
way	-10.096
▁pieces	-10.0987
▁f	-10.1026
▁lines	-10.105
▁bin	-10.1075
C	-10.1178
▁bear	-10.118
ion	-10.1183
▁control	-10.1196
▁name	-10.1216
▁present	-10.1217
▁cook	-10.1218
an	-10.1218
▁speed	-10.1222
▁live	-10.1222
▁repair	-10.1223
▁motorbike	-10.1228
▁surrounding	-10.1228
▁jockey	-10.1228
▁barrel	-10.1229
▁snack	-10.1229
▁banner	-10.1229
▁vegetable	-10.1232
▁hang	-10.1232
▁member	-10.1233
▁land	-10.1238
▁relax	-10.126
▁finish	-10.1262
▁reach	-10.1266
▁branch	-10.1273
▁birthday	-10.1274
▁broken	-10.1274
▁fluffy	-10.1274
▁gymnasium	-10.1274
▁library	-10.1274
▁liquid	-10.1274
▁unicycle	-10.1274
▁crane	-10.1274
▁Middle	-10.1274
▁conference	-10.1274
▁derby	-10.1274
▁furniture	-10.1274
▁material	-10.1274
▁space	-10.1274
▁dead	-10.1274
▁partially	-10.1274
▁share	-10.1274
▁BM	-10.1274
▁stairway	-10.1275
▁dimly	-10.1275
▁intently	-10.1275
▁castle	-10.1275
▁barber	-10.1275
▁nighttime	-10.1275
▁approaching	-10.1276
▁following	-10.1277
▁discussing	-10.1277
▁moped	-10.1277
▁bass	-10.1279
▁tied	-10.1284
▁rainy	-10.1286
▁spraying	-10.1287
▁card	-10.1287
▁pigeons	-10.129
▁raises	-10.1292
▁balding	-10.1294
▁candles	-10.1296
▁listens	-10.1307
▁viewing	-10.1312
▁balances	-10.1321
▁trailer	-10.1339
▁St	-10.1376
▁cuts	-10.1378
▁wheels	-10.1378
▁Girls	-10.1432
▁doors	-10.146
▁computers	-10.1518
en	-10.156
▁objects	-10.1568
▁H	-10.1578
▁got	-10.1879
▁wrestle	-10.1884
▁spread	-10.1884
▁check	-10.1885
▁spoon	-10.1885
▁duck	-10.189
sleeve	-10.189
▁taxi	-10.1891
▁Crowd	-10.1893
▁electronic	-10.1893
▁participate	-10.1893
▁headband	-10.1894
▁elephant	-10.1894
▁ribbon	-10.1895
▁necklace	-10.1896
▁teammate	-10.1896
▁sack	-10.1898
▁horn	-10.19
▁push	-10.1928
▁tee	-10.1938
▁corn	-10.1939
▁odd	-10.1939
▁patient	-10.1939
▁carry	-10.194
▁village	-10.1941
▁advertising	-10.1941
▁beneath	-10.1941
▁college	-10.1941
▁jewelry	-10.1941
▁lounging	-10.1941
▁more	-10.1941
▁raising	-10.1941
▁security	-10.1941
▁stomach	-10.1941
▁modern	-10.1941
▁While	-10.1941
▁billboard	-10.1941
▁rainbow	-10.1941
▁mobile	-10.1941
▁theater	-10.1941
▁television	-10.1941
▁observing	-10.1941
▁amongst	-10.1942
▁shaved	-10.1942
▁engaged	-10.1942
▁called	-10.1944
▁pine	-10.1944
▁fireman	-10.1944
▁crosses	-10.1948
▁forward	-10.1949
▁starting	-10.1951
▁follows	-10.1958
▁catcher	-10.1959
▁flowered	-10.1962
▁shaped	-10.1963
▁style	-10.1963
▁backs	-10.1998
▁directions	-10.2009
▁shades	-10.2009
."	-10.2017
▁hoops	-10.2029
▁training	-10.203
▁turns	-10.2037
▁smaller	-10.2048
go	-10.205
▁shovels	-10.2055
▁plates	-10.207
ar	-10.2098
▁hits	-10.2132
▁nets	-10.2138
▁photos	-10.229
ist	-10.229
ting	-10.2292
▁papers	-10.2346
▁keep	-10.2514
▁pin	-10.2569
▁bare	-10.257
▁angel	-10.26
▁ballerina	-10.2605
▁gift	-10.2605
▁donkey	-10.2608
▁apple	-10.2609
▁sprinkler	-10.2609
▁glove	-10.261
▁camel	-10.261
▁pillow	-10.2611
▁passenger	-10.2612
▁trunk	-10.2612
colored	-10.2614
▁cape	-10.2636
▁drill	-10.2648
▁dust	-10.2653
▁calm	-10.2653
▁casual	-10.2654
▁Caucasian	-10.2655
▁Cheerleaders	-10.2655
▁London	-10.2655
▁Soccer	-10.2655
▁cobblestone	-10.2655
▁fisherman	-10.2655
▁receiving	-10.2655
▁straight	-10.2655
▁wading	-10.2655
▁whilst	-10.2655
▁admiring	-10.2655
▁job	-10.2655
▁aisle	-10.2655
▁steel	-10.2655
▁fake	-10.2655
▁weaving	-10.2655
▁engine	-10.2655
▁excited	-10.2655
▁slightly	-10.2655
▁biking	-10.2655
▁newborn	-10.2656
▁silly	-10.2656
▁was	-10.2656
▁formation	-10.2656
▁terrain	-10.2656
▁pizza	-10.2656
▁pottery	-10.2656
▁splashes	-10.2656
▁airborne	-10.2656
▁wheelbarrow	-10.2656
▁City	-10.2656
▁cool	-10.2657
▁downtown	-10.2657
▁ethnic	-10.2657
▁nature	-10.2657
▁binoculars	-10.2657
▁dough	-10.2657
▁closeup	-10.2658
▁interacting	-10.2659
▁loading	-10.2659
▁peering	-10.266
▁naked	-10.266
▁redheaded	-10.2663
▁Students	-10.2664
▁shakes	-10.2664
▁protesting	-10.2664
▁photographed	-10.2667
▁lifting	-10.2671
▁leads	-10.2687
▁tourists	-10.2693
▁crafts	-10.2696
▁form	-10.2699
▁repairs	-10.2706
▁upon	-10.2712
▁guns	-10.2768
▁chefs	-10.2768
▁bra	-10.2799
▁we	-10.2821
▁L	-10.2878
▁tents	-10.2894
ron	-10.2932
▁machines	-10.2984
▁houses	-10.3023
▁b	-10.3038
▁shops	-10.3068
▁caps	-10.3145
▁cheer	-10.325
ity	-10.3355
▁star	-10.3365
▁official	-10.3369
▁converse	-10.3369
▁flute	-10.3369
▁jet	-10.3369
▁doll	-10.3371
▁order	-10.3372
▁knit	-10.3373
▁craft	-10.3373
▁lounge	-10.3374
it	-10.3376
▁paddle	-10.3377
▁hug	-10.3378
▁barrier	-10.3379
▁come	-10.3381
▁customer	-10.3382
▁seem	-10.3383
▁tea	-10.3389
ful	-10.341
▁motor	-10.3417
▁tower	-10.3418
▁leaf	-10.3421
▁similar	-10.3423
▁far	-10.3423
▁exhibit	-10.3424
▁attention	-10.3425
▁burgundy	-10.3425
▁ceremony	-10.3425
▁debris	-10.3425
▁dusk	-10.3425
▁groceries	-10.3425
▁movie	-10.3425
▁rickshaw	-10.3425
▁tropical	-10.3425
▁oven	-10.3425
▁Multiple	-10.3425
▁pretty	-10.3425
▁browsing	-10.3425
▁wild	-10.3425
▁loom	-10.3425
▁chainsaw	-10.3425
▁mug	-10.3425
▁spotted	-10.3425
▁wings	-10.3425
▁teaching	-10.3425
▁consisting	-10.3425
▁lecture	-10.3426
▁praying	-10.3426
▁studying	-10.3426
▁entering	-10.3426
▁factory	-10.3427
▁telephone	-10.3427
▁bleachers	-10.3427
▁sneakers	-10.3427
▁coaster	-10.3427
▁messy	-10.3427
▁shining	-10.3427
▁sailing	-10.3428
▁overhead	-10.3428
▁meeting	-10.3431
▁waterfront	-10.3433
▁landing	-10.3433
▁tape	-10.3434
▁N	-10.3435
▁examines	-10.3448
▁gestures	-10.3451
▁eggs	-10.3458
▁fur	-10.3459
▁waterway	-10.3461
▁firefighters	-10.3462
▁act	-10.3473
▁checks	-10.3476
▁swimmers	-10.3483
▁r	-10.3486
▁observes	-10.349
ies	-10.3536
▁tires	-10.3547
▁laptops	-10.3565
▁races	-10.3578
▁flips	-10.3615
▁cups	-10.3665
at	-10.377
il	-10.379
ping	-10.3813
▁pack	-10.3846
▁de	-10.3886
▁cameras	-10.4002
A	-10.408
▁iron	-10.4194
▁record	-10.4197
▁complete	-10.4197
▁exercise	-10.4202
▁snowsuit	-10.4202
▁target	-10.4202
▁tug	-10.4204
▁tackle	-10.4206
▁Red	-10.4206
▁listen	-10.4208
▁wrap	-10.4209
▁boulder	-10.421
▁chicken	-10.421
▁drive	-10.4211
▁suitcase	-10.4212
▁bite	-10.4213
▁give	-10.4213
▁wrestler	-10.4214
▁tourist	-10.4214
▁stare	-10.4218
▁i	-10.4238
▁meet	-10.4251
▁patch	-10.4253
▁most	-10.4256
▁process	-10.4257
▁Female	-10.4258
▁applying	-10.4258
▁bamboo	-10.4258
▁banjo	-10.4258
▁emergency	-10.4258
▁forehead	-10.4258
▁knife	-10.4258
▁lacrosse	-10.4258
▁link	-10.4258
▁location	-10.4258
▁merchandise	-10.4258
▁monument	-10.4258
▁overweight	-10.4258
▁second	-10.4258
▁semi	-10.4258
▁trolley	-10.4258
▁umpire	-10.4258
▁yoga	-10.4258
▁celebration	-10.4258
▁eight	-10.4258
▁juice	-10.4258
▁China	-10.4258
▁chess	-10.4258
▁clapping	-10.4258
▁teal	-10.4258
▁beanie	-10.4258
▁wheelie	-10.4259
▁wares	-10.4259
▁hotel	-10.4259
▁touches	-10.4259
▁visiting	-10.4259
▁tossing	-10.426
▁alleyway	-10.426
▁attending	-10.426
▁paperwork	-10.426
▁pigtails	-10.426
▁strange	-10.426
▁Police	-10.426
▁science	-10.426
▁world	-10.426
▁countryside	-10.426
▁firemen	-10.426
▁if	-10.426
▁saw	-10.426
▁mower	-10.4261
war	-10.4264
▁bystanders	-10.4264
▁case	-10.4264
▁filling	-10.4265
▁been	-10.4265
▁bagpipes	-10.4268
▁clad	-10.4268
▁gymnastics	-10.4271
▁sweeps	-10.4271
▁It	-10.4275
▁inspects	-10.4283
▁shadows	-10.4287
▁sized	-10.4287
▁cop	-10.4288
▁comes	-10.4306
▁paddles	-10.4308
▁pillows	-10.431
▁beverages	-10.4329
▁cree	-10.4337
▁wires	-10.4337
▁kayaks	-10.436
▁knees	-10.438
▁performers	-10.4384
▁heading	-10.4423
▁scooters	-10.4434
▁places	-10.4444
ish	-10.4448
▁stops	-10.4458
▁handing	-10.4465
▁blankets	-10.4485
▁Boys	-10.4489
▁newspapers	-10.4497
▁vendors	-10.4509
▁W	-10.4534
▁backdrop	-10.4619
us	-10.4636
age	-10.478
ur	-10.4792
▁fashion	-10.4799
▁bricks	-10.4808
▁st	-10.4809
T	-10.4828
▁carts	-10.4858
▁e	-10.4878
p	-10.4901
ure	-10.4939
el	-10.4944
as	-10.4961
▁co	-10.5065
▁wind	-10.5101
looking	-10.5109
▁score	-10.5111
▁soda	-10.5111
ohn	-10.5111
▁leap	-10.5112
▁speak	-10.5114
▁mop	-10.5115
▁trip	-10.5116
▁ponytail	-10.5117
▁tricycle	-10.5117
▁hut	-10.5117
▁celebrate	-10.512
▁parachute	-10.512
▁serve	-10.512
▁rod	-10.5121
▁diver	-10.5122
▁cheek	-10.5122
▁tray	-10.5123
▁firefighter	-10.5123
American	-10.5125
▁farmer	-10.5126
ding	-10.5147
▁weather	-10.5162
▁silhouette	-10.5164
▁coast	-10.5165
▁poor	-10.5165
▁touch	-10.5166
▁medium	-10.5167
▁arcade	-10.5167
▁auditorium	-10.5167
▁cheese	-10.5167
▁christmas	-10.5167
▁descent	-10.5167
▁involved	-10.5167
▁laundromat	-10.5167
▁rapids	-10.5167
▁salon	-10.5167
▁surgery	-10.5167
▁suspenders	-10.5167
▁tackling	-10.5167
▁turquoise	-10.5167
▁yarn	-10.5167
▁tiny	-10.5167
▁placing	-10.5167
▁supplies	-10.5167
▁lens	-10.5167
▁puppies	-10.5167
▁range	-10.5167
▁multiple	-10.5167
▁screaming	-10.5167
▁fell	-10.5167
▁motorized	-10.5167
▁rice	-10.5167
▁rollerblading	-10.5167
▁chatting	-10.5167
▁cello	-10.5167
▁underwear	-10.5167
▁joy	-10.5167
▁rollerskating	-10.5168
▁homeless	-10.5168
▁learning	-10.5168
▁sunlight	-10.5168
▁shoreline	-10.5169
▁carefully	-10.5169
▁chalkboard	-10.5169
▁playfully	-10.5169
▁folded	-10.5169
▁visible	-10.5169
▁adjusting	-10.5169
▁Runners	-10.5169
▁focused	-10.5169
▁still	-10.5169
▁dusty	-10.5171
▁biting	-10.5171
▁ho	-10.5172
▁patterned	-10.5173
▁newly	-10.5173
▁highway	-10.5173
▁camping	-10.5173
▁bank	-10.5173
▁traveling	-10.5174
▁closely	-10.5174
▁repairing	-10.5177
▁snowshoes	-10.5178
▁handrail	-10.5178
▁placed	-10.5179
▁lifted	-10.5181
▁planting	-10.5182
▁ballet	-10.5185
▁pet	-10.5199
▁crossed	-10.5199
▁dives	-10.5203
▁tights	-10.5203
▁covers	-10.5207
▁skaters	-10.521
▁thumbs	-10.5214
▁serves	-10.5214
▁lighted	-10.5229
▁pro	-10.5236
▁motorcyclists	-10.5241
▁floats	-10.5241
▁picks	-10.525
▁larger	-10.525
▁practices	-10.5254
ent	-10.526
▁magazines	-10.5263
▁single	-10.5265
▁watched	-10.5265
▁falls	-10.5267
▁swimsuits	-10.5271
▁khakis	-10.528
▁lifts	-10.528
▁athletes	-10.5292
▁logs	-10.5293
▁headed	-10.5293
f	-10.5315
E	-10.5318
▁news	-10.5329
▁skiers	-10.5377
▁cans	-10.5417
▁gathers	-10.5426
▁cowboys	-10.5504
D	-10.5593
▁E	-10.5627
▁games	-10.5643
ted	-10.5664
ine	-10.5664
ng	-10.5687
▁'	-10.571
▁opens	-10.5738
▁He	-10.5749
ty	-10.5825
h	-10.5829
re	-10.585
▁travel	-10.6011
▁lead	-10.6052
able	-10.6071
▁arch	-10.6076
men	-10.609
▁camp	-10.6102
▁scaffold	-10.6104
▁brother	-10.6111
▁experiment	-10.6111
▁stoop	-10.6111
▁motion	-10.6111
▁cover	-10.6112
▁per	-10.6112
▁treat	-10.6116
▁shape	-10.6116
▁cage	-10.6116
▁ticket	-10.6117
▁leotard	-10.6117
▁portrait	-10.6117
▁hike	-10.6118
▁service	-10.6119
▁cloud	-10.612
▁point	-10.6121
▁hotdog	-10.6122
▁goat	-10.6122
▁gaze	-10.6123
▁thumb	-10.6123
of	-10.6123
▁egg	-10.6123
▁monitor	-10.6124
lined	-10.6127
▁skater	-10.6128
▁kilt	-10.6129
▁shower	-10.6129
▁stall	-10.6131
▁upward	-10.6134
▁ro	-10.6135
▁march	-10.6159
▁pay	-10.6162
▁dad	-10.6163
▁blood	-10.6164
▁incline	-10.6164
▁soap	-10.6164
ack	-10.6164
▁mess	-10.6165
▁Asia	-10.6165
▁headdress	-10.6165
▁apart	-10.6166
▁protect	-10.6167
▁Bearded	-10.6167
▁Closeup	-10.6167
▁Couple	-10.6167
▁Pedestrians	-10.6167
▁Spectators	-10.6167
▁Square	-10.6167
▁activity	-10.6167
▁autumn	-10.6167
▁blazer	-10.6167
▁bouquet	-10.6167
▁canvas	-10.6167
▁contraption	-10.6167
▁decorative	-10.6167
▁earphones	-10.6167
▁embracing	-10.6167
▁frozen	-10.6167
▁gallery	-10.6167
▁involving	-10.6167
▁leggings	-10.6167
▁monkey	-10.6167
▁quarterback	-10.6167
▁scarves	-10.6167
▁shepherd	-10.6167
▁stilts	-10.6167
▁valley	-10.6167
▁workshop	-10.6167
▁chopping	-10.6167
▁lobby	-10.6167
▁tribal	-10.6167
▁creating	-10.6167
▁eastern	-10.6167
▁passersby	-10.6167
▁sideways	-10.6167
▁trashcan	-10.6167
▁department	-10.6167
▁transportation	-10.6167
▁amidst	-10.6167
▁facility	-10.6167
▁than	-10.6167
▁tripod	-10.6167
▁highchair	-10.6167
▁furry	-10.6167
▁will	-10.6167
▁rally	-10.6167
▁approaches	-10.6167
▁pale	-10.6167
▁interesting	-10.6167
▁dumpster	-10.6167
▁Elderly	-10.6167
▁driveway	-10.6168
▁quickly	-10.6168
▁Band	-10.6168
▁stepping	-10.6168
▁injured	-10.6168
▁washes	-10.6168
▁hiding	-10.6168
▁crouched	-10.6168
▁rooftop	-10.6168
▁burning	-10.6168
▁spotlight	-10.6169
▁done	-10.6169
▁casually	-10.6169
▁branches	-10.6169
▁staff	-10.6171
▁workout	-10.6171
▁story	-10.6174
▁venue	-10.6174
▁juggles	-10.6174
▁cute	-10.6178
▁sprayed	-10.6179
▁finishing	-10.6179
et	-10.6179
▁my	-10.618
▁printed	-10.618
▁turned	-10.6182
▁roadside	-10.6185
▁kayaking	-10.6187
▁whom	-10.6188
▁rafting	-10.6189
▁collared	-10.6189
▁Olympics	-10.6202
▁products	-10.6207
▁displaying	-10.6208
▁gazes	-10.6212
▁artwork	-10.6224
▁pins	-10.6231
▁section	-10.6236
▁cooks	-10.624
▁belts	-10.6245
▁cards	-10.6247
▁dis	-10.6258
▁racers	-10.6262
▁lighting	-10.6271
▁painter	-10.628
▁pots	-10.6306
▁walked	-10.6314
▁tail	-10.6334
▁played	-10.6346
▁rows	-10.6354
▁sides	-10.6424
▁displays	-10.6431
ry	-10.6466
▁numbers	-10.6542
▁toddlers	-10.6659
▁boards	-10.6721
red	-10.6752
line	-10.6809
▁torch	-10.6817
▁trucks	-10.6878
out	-10.7032
▁handle	-10.7046
▁war	-10.7076
te	-10.7156
▁ba	-10.7182
▁design	-10.7217
▁reflection	-10.7222
▁rifle	-10.7222
▁guide	-10.7222
style	-10.7224
▁muzzle	-10.7227
▁pumpkin	-10.7228
▁task	-10.7228
▁turban	-10.7228
▁peer	-10.7228
▁await	-10.7229
▁wig	-10.7229
▁tight	-10.7233
▁greyhound	-10.7233
▁dive	-10.7233
▁product	-10.7234
▁cab	-10.7237
▁win	-10.7266
▁pattern	-10.7274
▁stuff	-10.7274
▁unique	-10.7276
▁horizon	-10.7278
▁waist	-10.7278
▁Baby	-10.7278
▁Mohawk	-10.7278
▁School	-10.7278
▁Shepherd	-10.7278
▁Skateboarder	-10.7278
▁Smiling	-10.7278
▁afternoon	-10.7278
▁almost	-10.7278
▁bathtub	-10.7278
▁bicycling	-10.7278
▁bouncing	-10.7278
▁breakdancing	-10.7278
▁built	-10.7278
▁cannon	-10.7278
▁caucasian	-10.7278
▁chocolate	-10.7278
▁chopsticks	-10.7278
▁circular	-10.7278
▁featuring	-10.7278
▁foliage	-10.7278
▁gesturing	-10.7278
▁grabbing	-10.7278
▁hind	-10.7278
▁located	-10.7278
▁morning	-10.7278
▁pinata	-10.7278
▁plain	-10.7278
▁rollerblades	-10.7278
▁scenic	-10.7278
▁sniffing	-10.7278
▁unhappy	-10.7278
▁Army	-10.7278
▁Canadian	-10.7278
▁chinese	-10.7278
▁helicopter	-10.7278
▁sparring	-10.7278
▁Eight	-10.7278
▁Hockey	-10.7278
▁cherry	-10.7278
▁containing	-10.7278
▁dragging	-10.7278
▁gazing	-10.7278
▁riot	-10.7278
▁Blue	-10.7278
▁pencil	-10.7278
▁heavily	-10.7278
▁raincoat	-10.7278
▁stump	-10.7278
▁sad	-10.7278
▁butterfly	-10.7278
▁shiny	-10.7278
▁brass	-10.7278
▁bedroom	-10.7279
▁beret	-10.7279
▁really	-10.7279
▁trench	-10.7279
▁checkers	-10.7279
▁icy	-10.7279
▁peeking	-10.7279
▁parasailing	-10.728
▁tending	-10.7281
ation	-10.7281
▁pilot	-10.7281
▁belongings	-10.7281
▁decorations	-10.7281
▁Lots	-10.7281
▁brushes	-10.7282
▁tiled	-10.7284
▁pathway	-10.7286
▁cleaner	-10.7286
▁Adults	-10.7286
▁operates	-10.7286
▁stacked	-10.7287
▁recording	-10.7288
▁sawing	-10.7288
▁presenting	-10.7291
▁fishes	-10.7293
▁scouts	-10.7297
▁adjusts	-10.7297
▁pads	-10.7297
▁writes	-10.7301
to	-10.7302
▁jogs	-10.7302
▁teens	-10.7302
▁bends	-10.7307
▁crates	-10.7307
▁displayed	-10.7309
▁army	-10.731
▁parents	-10.7312
▁begins	-10.7312
▁grabs	-10.7318
▁sorting	-10.7319
▁designs	-10.7323
▁jumper	-10.7323
▁clouds	-10.7328
▁menu	-10.7332
▁acrobatic	-10.7341
▁ducks	-10.7355
▁jumped	-10.7363
▁strolls	-10.7366
▁waiter	-10.7397
▁surfs	-10.7398
▁types	-10.7403
▁images	-10.7408
▁rings	-10.744
▁booths	-10.744
▁sh	-10.748
is	-10.757
ian	-10.7604
▁couples	-10.7624
▁aprons	-10.764
ke	-10.7641
▁gr	-10.7658
▁v	-10.7763
▁here	-10.7763
▁groups	-10.7816
ce	-10.7848
ch	-10.7905
b	-10.7907
▁package	-10.7919
se	-10.8005
▁cellphones	-10.8064
▁al	-10.8071
▁spot	-10.809
▁Se	-10.8091
▁hills	-10.8098
nd	-10.8114
ie	-10.8164
ard	-10.8187
ro	-10.826
▁too	-10.828
▁k	-10.8317
os	-10.8347
led	-10.8352
▁We	-10.839
▁pre	-10.8437
▁support	-10.8467
land	-10.8469
▁bundle	-10.847
▁pedal	-10.8472
▁diner	-10.8473
▁human	-10.8473
▁draw	-10.8474
▁washer	-10.8475
▁shadow	-10.8475
▁feather	-10.8476
▁pocket	-10.8478
▁notebook	-10.8478
▁say	-10.8479
▁sleep	-10.8479
▁sailboat	-10.848
sized	-10.8481
▁speaker	-10.8481
▁gown	-10.8482
▁rug	-10.8482
▁column	-10.8483
▁grab	-10.8484
▁Olympic	-10.8484
▁gesture	-10.8484
▁candle	-10.8484
▁fill	-10.8486
green	-10.8486
▁nail	-10.8491
▁mix	-10.8512
▁call	-10.8516
▁dot	-10.8516
▁fetch	-10.8519
▁punch	-10.8519
▁even	-10.852
▁butcher	-10.852
▁load	-10.8523
▁power	-10.8523
arious	-10.8525
▁India	-10.8526
▁unusual	-10.8526
▁potato	-10.8527
▁classic	-10.8528
▁aqua	-10.8528
▁pony	-10.8528
▁Firefighters	-10.8528
▁Hawaiian	-10.8528
▁Mexican	-10.8528
▁Mother	-10.8528
▁Native	-10.8528
▁Spanish	-10.8528
▁Yellow	-10.8528
▁amount	-10.8528
▁aquarium	-10.8528
▁bartender	-10.8528
▁because	-10.8528
▁buried	-10.8528
▁campfire	-10.8528
▁carrier	-10.8528
▁cluttered	-10.8528
▁commercial	-10.8528
▁companion	-10.8528
▁company	-10.8528
▁complex	-10.8528
▁cycling	-10.8528
▁destination	-10.8528
▁dinosaur	-10.8528
▁easel	-10.8528
▁find	-10.8528
▁hammock	-10.8528
▁hydrant	-10.8528
▁industrial	-10.8528
▁jeep	-10.8528
▁maintenance	-10.8528
▁mohawk	-10.8528
▁murky	-10.8528
▁purchase	-10.8528
▁scrubs	-10.8528
▁shaggy	-10.8528
▁surgical	-10.8528
▁tarp	-10.8528
▁toothbrush	-10.8528
▁treadmill	-10.8528
▁vending	-10.8528
▁vibrant	-10.8528
▁victory	-10.8528
▁vintage	-10.8528
▁warehouse	-10.8528
▁xylophone	-10.8528
▁accident	-10.8528
▁arrow	-10.8528
▁darkened	-10.8528
▁flannel	-10.8528
▁harmonica	-10.8528
▁laboratory	-10.8528
▁marble	-10.8528
▁numerous	-10.8528
▁babies	-10.8528
▁cheerleading	-10.8528
▁digital	-10.8528
▁envi	-10.8528
▁establishment	-10.8528
▁pours	-10.8528
▁religious	-10.8528
▁cigar	-10.8528
▁much	-10.8528
▁lion	-10.8528
▁stuck	-10.8528
▁homemade	-10.8528
▁conductor	-10.8528
▁NY	-10.8528
▁stance	-10.8528
▁grand	-10.8528
▁ATM	-10.8528
▁cries	-10.8528
▁tracksuit	-10.8528
▁abandoned	-10.8528
▁synchronized	-10.8528
▁tournament	-10.8529
▁skinny	-10.8529
▁squeezing	-10.8529
▁split	-10.8529
▁midst	-10.8529
▁stretches	-10.8529
▁draped	-10.8529
▁napping	-10.8529
▁hardwood	-10.8529
▁sledding	-10.8529
▁directing	-10.853
▁America	-10.853
▁had	-10.853
▁underground	-10.853
▁flock	-10.853
▁labeled	-10.853
▁waterskiing	-10.853
▁mixer	-10.8531
▁projector	-10.8531
▁splashed	-10.8531
▁daytime	-10.8531
▁flat	-10.8531
▁Elmo	-10.8531
▁shoppers	-10.8532
▁followed	-10.8532
▁strapped	-10.8532
▁lively	-10.8532
▁Mar	-10.8532
▁tackled	-10.8532
▁filming	-10.8532
▁canal	-10.8533
▁loaded	-10.8533
▁kisses	-10.8533
▁crashing	-10.8533
▁chewing	-10.8534
▁Texas	-10.8535
▁packed	-10.8536
▁navigates	-10.8537
▁upset	-10.8538
▁skies	-10.8538
▁tired	-10.8541
▁speeding	-10.8543
▁beads	-10.8543
▁judges	-10.8543
▁strolling	-10.8544
▁stringed	-10.8544
▁our	-10.8548
▁skills	-10.8549
▁crayons	-10.8549
▁lips	-10.8549
▁spins	-10.855
▁barefooted	-10.8553
▁plank	-10.8553
▁hammering	-10.8554
▁notes	-10.8555
▁logo	-10.8558
▁indian	-10.856
▁gardening	-10.8564
▁nurses	-10.8567
▁columns	-10.8573
▁draws	-10.8573
▁peers	-10.858
▁forested	-10.8587
om	-10.8592
air	-10.8596
▁teammates	-10.8617
▁banners	-10.8622
▁She	-10.8639
▁tags	-10.8643
▁figures	-10.8646
▁tour	-10.8656
▁looked	-10.8659
▁care	-10.8662
ll	-10.8663
▁Dogs	-10.8671
▁sprays	-10.8671
v	-10.8677
od	-10.8695
top	-10.8699
▁signing	-10.874
▁bi	-10.874
▁canoes	-10.8775
▁clowns	-10.8787
▁purses	-10.8849
▁masks	-10.8849
▁ma	-10.8896
▁They	-10.892
▁oranges	-10.8956
▁cha	-10.9004
round	-10.9014
ess	-10.9059
na	-10.9073
▁fountains	-10.9145
gi	-10.9264
and	-10.9291
ts	-10.9326
ning	-10.9453
ling	-10.9509
▁La	-10.9627
▁ga	-10.9673
one	-10.9676
P	-10.968
▁trains	-10.9706
lit	-10.9818
▁Ma	-10.9828
▁mini	-10.9843
▁entertain	-10.9855
▁lo	-10.9859
▁weight	-10.9865
ir	-10.9876
▁con	-10.9885
work	-10.989
▁roll	-10.9894
▁separate	-10.9898
▁vacuum	-10.9899
▁shawl	-10.9901
I	-10.9903
▁inspect	-10.9904
▁us	-10.9906
▁tutu	-10.9906
▁create	-10.9908
▁pirate	-10.9909
▁defender	-10.9909
▁examine	-10.9909
▁poodle	-10.991
▁crown	-10.991
▁character	-10.9911
▁employee	-10.9911
▁nurse	-10.9912
▁begin	-10.9912
▁stripe	-10.9913
▁cheerleader	-10.9913
shaped	-10.9913
▁Worker	-10.9914
shore	-10.9915
camera	-10.9915
▁parent	-10.9916
cart	-10.9921
▁boxer	-10.9934
▁wash	-10.9941
▁chin	-10.9949
▁season	-10.995
▁interact	-10.995
▁contest	-10.9951
▁discuss	-10.9952
vil	-10.9953
▁sold	-10.9953
▁own	-10.9953
▁though	-10.9954
▁quiet	-10.9955
▁disc	-10.9955
▁mitt	-10.9956
▁Europe	-10.9956
▁port	-10.9957
▁every	-10.9957
▁special	-10.9957
enga	-10.9957
▁Baseball	-10.9957
▁Brunette	-10.9957
▁Customers	-10.9957
▁Dark	-10.9957
▁Members	-10.9957
▁Muslim	-10.9957
▁Numerous	-10.9957
▁Walmart	-10.9957
▁activities	-10.9957
▁adorned	-10.9957
▁attractive	-10.9957
▁backseat	-10.9957
▁bulldozer	-10.9957
▁cathedral	-10.9957
▁completing	-10.9957
▁crosscountry	-10.9957
▁demonstration	-10.9957
▁dessert	-10.9957
▁exercising	-10.9957
▁harbor	-10.9957
▁illuminated	-10.9957
▁ingredients	-10.9957
▁leopard	-10.9957
▁lining	-10.9957
▁major	-10.9957
▁mascot	-10.9957
▁meadow	-10.9957
▁measuring	-10.9957
▁miniature	-10.9957
▁parallel	-10.9957
▁puppet	-10.9957
▁pyramid	-10.9957
▁reception	-10.9957
▁resort	-10.9957
▁seafood	-10.9957
▁slacks	-10.9957
▁striking	-10.9957
▁supermarket	-10.9957
▁temple	-10.9957
▁thick	-10.9957
▁tiger	-10.9957
▁trophy	-10.9957
▁trotting	-10.9957
▁typing	-10.9957
▁visor	-10.9957
▁wilderness	-10.9957
▁Local	-10.9957
▁bongo	-10.9957
▁daily	-10.9957
▁double	-10.9957
▁fuzzy	-10.9957
▁licking	-10.9957
▁zip	-10.9957
▁British	-10.9957
▁bodysuit	-10.9957
▁buffet	-10.9957
▁collie	-10.9957
▁variety	-10.9957
▁fedora	-10.9957
▁maybe	-10.9957
▁nun	-10.9957
▁Coca	-10.9957
▁casino	-10.9957
▁muscular	-10.9957
▁when	-10.9957
▁cave	-10.9957
▁lush	-10.9957
▁blurred	-10.9957
▁foggy	-10.9957
▁rustic	-10.9957
▁spring	-10.9957
▁amid	-10.9957
▁scientist	-10.9957
▁seven	-10.9957
▁bounds	-10.9957
▁oil	-10.9957
▁cotton	-10.9957
▁fellow	-10.9957
▁sunbathing	-10.9957
▁mule	-10.9957
▁starring	-10.9957
▁battle	-10.9957
▁fog	-10.9957
▁laid	-10.9957
▁hour	-10.9957
▁frying	-10.9957
▁skydiving	-10.9957
▁were	-10.9957
▁picket	-10.9958
▁arrangement	-10.9958
▁tablecloth	-10.9958
▁marker	-10.9958
▁pe	-10.9958
▁fat	-10.9959
▁mounted	-10.9959
▁mowing	-10.9959
▁marked	-10.9959
▁woodland	-10.9959
▁conducting	-10.9959
▁skyline	-10.996
▁mountainous	-10.996
▁ages	-10.996
▁barely	-10.996
▁muzzled	-10.996
endors	-10.996
▁Cafe	-10.9961
▁exiting	-10.9961
▁league	-10.9961
▁Musicians	-10.9961
▁crawls	-10.9961
▁rollerskates	-10.9961
▁crops	-10.9961
▁broad	-10.9961
▁level	-10.9961
▁transit	-10.9961
▁silhouetted	-10.9961
▁casting	-10.9962
▁designed	-10.9963
▁mountaintop	-10.9963
▁named	-10.9963
▁beating	-10.9963
▁pointed	-10.9964
▁vacuuming	-10.9964
▁chased	-10.9965
▁somewhere	-10.9965
▁punching	-10.9965
▁dryer	-10.9965
▁topless	-10.9966
▁shirted	-10.9967
▁sidelines	-10.9967
▁grinds	-10.9967
▁Eastern	-10.9968
▁ordering	-10.9971
▁acting	-10.9971
▁downhill	-10.9972
▁prepared	-10.9972
▁redhead	-10.9974
▁laden	-10.9974
▁Players	-10.9974
▁warming	-10.9975
▁squats	-10.9976
▁lanterns	-10.9981
▁drying	-10.9982
▁drawn	-10.9983
st	-10.9984
▁cameraman	-10.9984
▁seating	-10.9986
▁tow	-10.9988
▁wheeled	-10.9988
▁Tourists	-10.9988
▁bananas	-10.9988
▁watermelons	-10.9988
▁peaks	-10.9995
▁hook	-10.9998
▁colorfully	-10.9999
▁characters	-11.0002
▁employees	-11.0002
▁rolls	-11.0002
▁pops	-11.0003
▁greyhounds	-11.0016
▁monitors	-11.0023
▁hotdogs	-11.0023
▁travels	-11.0024
▁divers	-11.0027
▁farmers	-11.0033
▁upwards	-11.0033
▁wrestlers	-11.0038
▁dolls	-11.0045
▁camels	-11.0052
▁en	-11.0054
▁necklaces	-11.0059
▁barrels	-11.0066
▁snacks	-11.0066
▁speeds	-11.0066
▁pans	-11.007
▁snowboards	-11.0097
▁advertisements	-11.0116
▁guards	-11.0134
▁strings	-11.0137
▁Guys	-11.0158
▁sculptures	-11.0208
board	-11.0247
▁artists	-11.0267
ate	-11.0284
▁railings	-11.036
▁bit	-11.0362
▁desks	-11.0368
▁cigarettes	-11.0426
O	-11.0479
▁wi	-11.0501
he	-11.0509
▁beers	-11.0514
▁scrap	-11.0524
▁aged	-11.0546
W	-11.0552
▁me	-11.0562
▁award	-11.0652
▁Asians	-11.0711
ches	-11.0778
▁bo	-11.0789
ma	-11.0827
▁polish	-11.0872
▁any	-11.088
ok	-11.0974
erry	-11.0982
di	-11.1123
son	-11.1166
▁Ra	-11.1185
▁angle	-11.1304
▁social	-11.1326
let	-11.1393
▁fork	-11.14
light	-11.1467
▁sta	-11.1522
hoop	-11.1531
▁strip	-11.1559
▁rag	-11.156
less	-11.1564
▁dump	-11.1564
▁test	-11.1566
▁wakeboard	-11.1566
▁overlook	-11.1566
▁briefcase	-11.1568
▁handbag	-11.1568
▁sample	-11.1568
▁skull	-11.1568
▁bowtie	-11.1568
Y	-11.1568
▁follow	-11.1568
▁bib	-11.1568
▁rack	-11.1568
▁State	-11.1568
▁turkey	-11.1568
▁return	-11.1569
▁text	-11.1569
▁monk	-11.1573
▁drop	-11.1575
▁pillar	-11.1575
▁senior	-11.1575
▁strike	-11.1575
▁McDonald	-11.1577
▁weapon	-11.1577
▁fit	-11.1577
▁expression	-11.1577
storm	-11.1577
▁cable	-11.1577
▁raise	-11.1577
▁crate	-11.1579
▁pigeon	-11.158
hole	-11.1581
▁stair	-11.1581
filled	-11.1581
piece	-11.1581
high	-11.1581
dressed	-11.1582
▁bend	-11.1585
▁peak	-11.1603
▁stores	-11.1607
▁crash	-11.1609
▁sail	-11.1613
▁rush	-11.1615
▁lasso	-11.1615
SA	-11.1616
▁focus	-11.1617
▁register	-11.1618
▁powder	-11.1618
▁congregate	-11.162
▁huddle	-11.1621
▁lower	-11.1621
▁elaborate	-11.1621
▁tomato	-11.1622
▁late	-11.1622
▁multi	-11.1623
▁clap	-11.1623
▁Beautiful	-11.1623
▁Cowboy	-11.1623
▁Family	-11.1623
▁Football	-11.1623
▁Legos	-11.1623
▁Miami	-11.1623
▁Military	-11.1623
▁Orange	-11.1623
▁Subway	-11.1623
▁Surfer	-11.1623
▁Toddler	-11.1623
▁ancient	-11.1623
▁assistant	-11.1623
▁assisting	-11.1623
▁badminton	-11.1623
▁boogie	-11.1623
▁brindle	-11.1623
▁bronco	-11.1623
▁cardigan	-11.1623
▁cash	-11.1623
▁ceremonial	-11.1623
▁clarinet	-11.1623
▁confetti	-11.1623
▁convenience	-11.1623
▁favorite	-11.1623
▁flaming	-11.1623
▁glacier	-11.1623
▁glider	-11.1623
▁goatee	-11.1623
▁handheld	-11.1623
▁information	-11.1623
▁kiosk	-11.1623
▁licks	-11.1623
▁lime	-11.1623
▁lipstick	-11.1623
▁liquor	-11.1623
▁milk	-11.1623
▁newlywed	-11.1623
▁nightclub	-11.1623
▁olive	-11.1623
▁plush	-11.1623
▁political	-11.1623
▁professor	-11.1623
▁progress	-11.1623
▁razor	-11.1623
▁relay	-11.1623
▁scaling	-11.1623
▁scattered	-11.1623
▁scissors	-11.1623
▁shouting	-11.1623
▁sundress	-11.1623
▁sunshine	-11.1623
▁symbol	-11.1623
▁system	-11.1623
▁talent	-11.1623
▁teddy	-11.1623
▁those	-11.1623
▁tunic	-11.1623
▁ultimate	-11.1623
▁woven	-11.1623
▁hunched	-11.1623
▁husband	-11.1623
▁limb	-11.1623
▁personnel	-11.1623
▁probably	-11.1623
▁quad	-11.1623
▁spatula	-11.1623
▁stirring	-11.1623
▁badge	-11.1623
▁ravine	-11.1623
▁missing	-11.1623
▁operation	-11.1623
▁propped	-11.1623
▁medieval	-11.1623
▁series	-11.1623
▁Father	-11.1623
▁facial	-11.1623
▁Protesters	-11.1623
▁raking	-11.1623
▁cowgirl	-11.1623
▁soars	-11.1623
▁french	-11.1623
▁radio	-11.1623
ewish	-11.1624
▁Claus	-11.1624
▁pub	-11.1624
▁damaged	-11.1624
▁dropping	-11.1624
▁expanse	-11.1624
▁squad	-11.1624
▁portable	-11.1624
▁breath	-11.1624
▁crest	-11.1624
▁seesaw	-11.1624
▁chunk	-11.1624
▁wineglasses	-11.1624
▁swan	-11.1624
▁constructed	-11.1624
▁elevated	-11.1624
▁European	-11.1624
▁connected	-11.1624
▁socializing	-11.1624
▁dragon	-11.1624
▁clutching	-11.1624
▁grasping	-11.1624
▁archway	-11.1624
▁assembled	-11.1624
▁sharp	-11.1624
▁knitting	-11.1624
▁riverbank	-11.1624
▁tomatoes	-11.1625
▁rusty	-11.1625
▁harvesting	-11.1625
▁soup	-11.1626
▁Gray	-11.1626
▁carve	-11.1627
▁sailor	-11.1627
▁unloading	-11.1627
▁bush	-11.1627
▁completely	-11.1627
▁stretched	-11.1627
▁tying	-11.1628
▁relaxes	-11.1628
▁excitedly	-11.1628
▁sound	-11.1628
▁may	-11.1628
▁fixes	-11.1628
▁Green	-11.1628
▁aiming	-11.1628
▁written	-11.1628
▁zone	-11.1628
▁nude	-11.1628
▁policemen	-11.1628
▁Sooners	-11.1628
▁belly	-11.1628
▁features	-11.1628
▁fireworks	-11.1628
▁mittens	-11.1628
▁Bikers	-11.1628
▁girlfriend	-11.1628
▁scooping	-11.1629
▁antique	-11.163
▁feathered	-11.163
▁texting	-11.1631
▁snowball	-11.1635
▁checked	-11.1636
▁pushed	-11.1636
▁bridesmaids	-11.1636
▁flames	-11.1636
▁Times	-11.1637
▁blower	-11.1637
▁finished	-11.1637
▁mic	-11.1637
▁chat	-11.1637
▁hairstyle	-11.1639
▁crafting	-11.164
▁framed	-11.1641
ap	-11.1642
▁patrons	-11.1645
▁pitching	-11.1645
▁clothed	-11.1652
▁arriv	-11.1652
▁sleeves	-11.1653
▁tips	-11.1653
▁words	-11.1653
▁mouths	-11.1654
▁deserted	-11.1655
▁kicked	-11.1655
▁flowery	-11.1658
▁fashioned	-11.1662
▁blocking	-11.1665
▁posed	-11.167
▁shorter	-11.1671
anyon	-11.1671
▁creates	-11.1678
N	-11.168
▁Dirt	-11.1685
▁boxers	-11.1686
▁gowns	-11.1686
▁nails	-11.1686
▁spots	-11.1688
▁dots	-11.1688
▁rugs	-11.1691
▁raining	-11.171
▁accompanied	-11.1724
▁barriers	-11.1729
▁stars	-11.1729
▁waterside	-11.1736
▁sprinklers	-11.1737
▁ribbons	-11.1746
▁jockeys	-11.1754
▁lands	-11.1754
▁presents	-11.1754
▁brooms	-11.1763
▁doctors	-11.1763
▁hung	-11.1764
▁boarding	-11.1775
▁hearts	-11.1777
▁sw	-11.1779
▁bows	-11.178
▁lanes	-11.178
▁axe	-11.1781
▁beams	-11.1783
▁swords	-11.1788
▁jumpsuits	-11.1788
▁pipes	-11.1805
est	-11.1806
▁nearly	-11.1806
▁climbers	-11.181
▁tubes	-11.1812
ab	-11.1813
▁bottoms	-11.1831
▁wheelchairs	-11.1839
▁rafts	-11.1839
ped	-11.187
▁devices	-11.1874
stro	-11.1879
▁slopes	-11.1891
▁noses	-11.1892
▁stunts	-11.1934
▁microscopes	-11.1943
▁cats	-11.196
ne	-11.2
▁strollers	-11.2049
▁rails	-11.2061
▁ties	-11.2106
▁bikinis	-11.2117
▁piles	-11.2117
ak	-11.2143
ot	-11.2156
▁grills	-11.2198
▁love	-11.2226
ter	-11.2256
▁ha	-11.2263
ise	-11.234
▁hear	-11.2365
▁pl	-11.2484
ton	-11.2485
ow	-11.2485
mber	-11.2524
op	-11.2643
cross	-11.2735
me	-11.274
▁sl	-11.2762
ge	-11.279
▁para	-11.2805
niversity	-11.2842
the	-11.2867
▁n	-11.2868
▁aboard	-11.2872
ay	-11.2899
do	-11.2907
ster	-11.294
ward	-11.2956
ally	-11.3084
z	-11.3091
ul	-11.3097
▁floors	-11.3122
▁watering	-11.3205
no	-11.3271
king	-11.3291
▁bl	-11.3333
▁pu	-11.3376
ngs	-11.3381
▁pr	-11.3387
im	-11.3431
hat	-11.3491
▁pig	-11.3503
B	-11.3512
▁chip	-11.3516
▁want	-11.3559
▁film	-11.356
▁deli	-11.3563
▁scoop	-11.3566
▁dunk	-11.3566
▁embrace	-11.3568
▁terminal	-11.3568
▁sister	-11.3568
▁Food	-11.3568
▁oar	-11.3568
▁message	-11.3569
▁lean	-11.3569
ball	-11.3569
▁bounce	-11.3572
▁receive	-11.3572
▁spike	-11.3572
▁mannequin	-11.3573
▁tuxedo	-11.3573
▁toilet	-11.3573
▁year	-11.3573
▁rake	-11.3573
▁cord	-11.3574
▁strap	-11.3575
▁Bicyclist	-11.3575
rimmed	-11.3575
stand	-11.3576
M	-11.3576
▁snap	-11.3577
▁dig	-11.3577
wheeler	-11.3578
▁Tourist	-11.3578
▁banana	-11.3578
▁watermelon	-11.3578
▁jog	-11.3579
skating	-11.358
▁pedestrian	-11.358
▁baton	-11.358
phone	-11.3581
▁cast	-11.3583
teen	-11.3583
▁cooler	-11.3584
▁backward	-11.3588
yo	-11.3593
▁lie	-11.3596
▁fold	-11.3607
▁stretch	-11.361
▁splash	-11.361
▁surround	-11.3612
▁snorkel	-11.3615
▁shack	-11.3615
▁smooth	-11.3616
▁stock	-11.3616
▁multicolor	-11.3619
▁file	-11.3621
▁curve	-11.3621
▁East	-11.3621
▁soft	-11.3621
▁competitive	-11.3621
▁know	-11.3622
▁mattress	-11.3622
▁elder	-11.3622
▁brow	-11.3622
▁shave	-11.3622
harp	-11.3622
▁historic	-11.3623
▁mechanic	-11.3623
▁Fire	-11.3623
▁main	-11.3623
▁turtle	-11.3623
▁Basketball	-11.3623
▁Concert	-11.3623
▁Dancers	-11.3623
▁Halloween	-11.3623
▁High	-11.3623
▁Marathon	-11.3623
▁Parents	-11.3623
▁Rodeo	-11.3623
▁Rollerblades	-11.3623
▁Speedo	-11.3623
▁SpongeBob	-11.3623
▁apparatus	-11.3623
▁asphalt	-11.3623
▁attraction	-11.3623
▁automobile	-11.3623
▁backhoe	-11.3623
▁barbecuing	-11.3623
▁barren	-11.3623
▁bookshelf	-11.3623
▁bronze	-11.3623
▁campsite	-11.3623
▁caricature	-11.3623
▁carousel	-11.3623
▁carried	-11.3623
▁champagne	-11.3623
▁community	-11.3623
▁cradles	-11.3623
▁crazy	-11.3623
▁dolphin	-11.3623
▁eagerly	-11.3623
▁equestrian	-11.3623
▁excitement	-11.3623
▁exciting	-11.3623
▁fireplace	-11.3623
▁foam	-11.3623
▁gliding	-11.3623
▁javelin	-11.3623
▁least	-11.3623
▁lingerie	-11.3623
▁makeshift	-11.3623
▁merchant	-11.3623
▁monopoly	-11.3623
▁mustard	-11.3623
▁overhang	-11.3623
▁pacifier	-11.3623
▁padded	-11.3623
▁parachuting	-11.3623
▁pinned	-11.3623
▁recreational	-11.3623
▁remote	-11.3623
▁robot	-11.3623
▁shady	-11.3623
▁struggling	-11.3623
▁sweatsuit	-11.3623
▁taste	-11.3623
▁terrier	-11.3623
▁tiara	-11.3623
▁tumbling	-11.3623
▁unfinished	-11.3623
▁unknown	-11.3623
▁utility	-11.3623
▁varying	-11.3623
▁vertical	-11.3623
▁watercraft	-11.3623
▁windbreaker	-11.3623
▁wool	-11.3623
▁zebra	-11.3623
▁Apple	-11.3623
▁cartoon	-11.3623
▁cockpit	-11.3623
▁curtain	-11.3623
▁elbow	-11.3623
▁exploring	-11.3623
▁magnifying	-11.3623
▁peacock	-11.3623
▁possession	-11.3623
▁salad	-11.3623
▁tambourine	-11.3623
▁tightrope	-11.3623
▁trimming	-11.3623
▁vegetation	-11.3623
▁Park	-11.3623
▁Shirtless	-11.3623
▁massive	-11.3623
▁clock	-11.3623
▁collide	-11.3623
▁kitten	-11.3623
▁vacation	-11.3623
▁applies	-11.3623
▁iPod	-11.3623
▁identical	-11.3623
▁priest	-11.3623
▁angry	-11.3623
▁bmx	-11.3623
▁bracelet	-11.3623
▁slicing	-11.3623
▁attendant	-11.3623
▁suburban	-11.3623
▁bounding	-11.3623
▁Wall	-11.3623
▁cause	-11.3623
▁popcorn	-11.3623
▁solo	-11.3623
▁bathrobe	-11.3623
▁escape	-11.3623
▁Amish	-11.3623
▁pride	-11.3623
▁Big	-11.3623
▁stylish	-11.3623
▁vocalist	-11.3623
▁scantily	-11.3624
▁Long	-11.3624
▁rowboat	-11.3624
▁cinder	-11.3624
▁sight	-11.3624
▁tugging	-11.3624
▁flour	-11.3624
▁slab	-11.3624
▁eyeglasses	-11.3624
▁shelves	-11.3624
▁passerby	-11.3624
▁punk	-11.3624
▁rubble	-11.3624
▁era	-11.3624
▁last	-11.3624
▁beginning	-11.3624
▁petals	-11.3624
▁Mouse	-11.3624
▁Tennis	-11.3624
▁bunny	-11.3624
▁nine	-11.3624
▁poking	-11.3624
▁stay	-11.3624
▁pinstriped	-11.3624
▁canopy	-11.3624
▁combat	-11.3624
▁lost	-11.3624
▁husky	-11.3624
▁whistle	-11.3624
▁cattle	-11.3624
▁wiping	-11.3624
▁intense	-11.3624
▁snowcapped	-11.3624
▁heavyset	-11.3624
▁pump	-11.3624
apan	-11.3624
▁attentively	-11.3624
▁blindfolded	-11.3624
▁decorating	-11.3624
▁confused	-11.3624
▁gum	-11.3624
▁backstroke	-11.3624
▁ascending	-11.3624
▁crawling	-11.3624
▁yelling	-11.3624
▁artistic	-11.3624
▁bakery	-11.3624
▁fine	-11.3624
▁exhibition	-11.3625
▁perched	-11.3625
▁snake	-11.3625
▁baked	-11.3625
▁collecting	-11.3625
▁Ice	-11.3625
▁floaties	-11.3625
▁tribe	-11.3625
▁cartwheel	-11.3625
▁shoeshine	-11.3625
▁braided	-11.3625
▁drag	-11.3625
▁lovely	-11.3625
▁weave	-11.3626
▁steam	-11.3626
▁mature	-11.3626
▁searching	-11.3626
▁installing	-11.3626
▁instructing	-11.3626
▁comforting	-11.3626
▁flowing	-11.3626
▁tossed	-11.3626
▁upright	-11.3626
▁earth	-11.3626
▁marches	-11.3627
▁curved	-11.3627
▁huddled	-11.3627
▁carved	-11.3627
▁No	-11.3627
▁bushy	-11.3627
▁batman	-11.3627
▁interviewed	-11.3627
▁web	-11.3628
▁via	-11.3628
▁baseman	-11.3628
▁bundled	-11.3628
▁leaned	-11.3628
▁businessman	-11.3628
▁given	-11.3628
▁Seattle	-11.3629
▁length	-11.3629
▁descending	-11.3629
▁competitors	-11.3629
▁emerges	-11.3629
▁includes	-11.3629
▁convention	-11.3629
▁ruins	-11.3629
▁rubs	-11.3629
▁lowered	-11.3629
▁deer	-11.363
▁checkout	-11.363
▁headset	-11.3631
▁armor	-11.3631
▁completed	-11.3631
▁dunking	-11.3631
▁panel	-11.3631
▁clothesline	-11.3631
▁trap	-11.3632
▁offering	-11.3632
▁daylight	-11.3632
▁gloved	-11.3632
▁think	-11.3632
▁early	-11.3633
▁backlit	-11.3634
▁balanced	-11.3634
▁barking	-11.3634
▁saying	-11.3636
▁served	-11.3636
▁teen	-11.3637
▁leashes	-11.3637
▁handling	-11.3638
▁greenery	-11.3639
▁shines	-11.3639
▁legged	-11.3639
▁concentrates	-11.3639
▁conditions	-11.3639
▁dribbles	-11.3639
▁kimonos	-11.3639
▁reclines	-11.3639
▁struggles	-11.3639
▁directs	-11.3639
▁citizens	-11.3639
▁dotted	-11.364
▁lid	-11.3641
▁fairy	-11.3641
▁winding	-11.3641
▁torches	-11.3642
▁workman	-11.3642
▁positioned	-11.3642
▁upper	-11.3644
▁bones	-11.3645
▁shingles	-11.3645
▁drilling	-11.3646
▁forming	-11.3646
▁rolled	-11.3646
▁chained	-11.3648
▁You	-11.3648
▁pol	-11.3648
▁earrings	-11.365
▁pauses	-11.365
▁keys	-11.365
▁saris	-11.365
▁ka	-11.3653
▁cargo	-11.3653
▁blocked	-11.3658
▁contents	-11.366
▁scales	-11.366
▁seagulls	-11.366
▁comb	-11.366
▁cookies	-11.3661
bell	-11.3666
▁clearing	-11.3667
▁rounding	-11.3667
▁butt	-11.3668
▁digs	-11.367
▁snaps	-11.367
▁chips	-11.3671
▁coolers	-11.3673
ney	-11.3673
▁snowman	-11.3674
▁passed	-11.3676
▁entertainer	-11.3678
▁masked	-11.368
▁storm	-11.368
▁McDonalds	-11.3681
▁expressions	-11.3681
▁weapons	-11.3681
▁returns	-11.3681
▁photographing	-11.3682
▁mind	-11.3687
▁poodles	-11.3691
▁crowns	-11.3691
F	-11.3695
▁la	-11.3695
▁sheer	-11.3697
▁fills	-11.3702
▁feathers	-11.3702
▁herding	-11.3705
▁tongs	-11.3707
ates	-11.3711
▁handles	-11.3719
▁goats	-11.3723
▁bark	-11.3724
▁graffitied	-11.3727
▁yo	-11.3733
▁cheeks	-11.3733
▁parachutes	-11.3733
▁trays	-11.3733
▁mops	-11.3733
de	-11.3737
▁suitcases	-11.3744
▁bites	-11.3746
▁chil	-11.3746
▁flash	-11.3747
▁partying	-11.376
▁donkeys	-11.3765
▁apples	-11.3765
▁tap	-11.3766
tery	-11.3769
▁sacks	-11.3775
▁elephants	-11.3776
▁du	-11.3783
▁bee	-11.3786
▁motorbikes	-11.3786
▁storefronts	-11.3797
▁stacks	-11.3797
▁starts	-11.3829
▁opponents	-11.3839
▁chains	-11.3861
▁fighter	-11.3861
its	-11.3864
▁posts	-11.3871
▁towels	-11.3871
tt	-11.3882
▁parts	-11.3893
wing	-11.3896
▁posters	-11.3896
",	-11.3899
ance	-11.3905
▁sheets	-11.3914
▁cows	-11.3946
▁wheeler	-11.3954
▁armed	-11.3956
▁cloths	-11.3968
▁mats	-11.3979
▁singers	-11.4004
▁handed	-11.4033
car	-11.4037
▁bun	-11.4068
ins	-11.4075
ked	-11.4084
▁holes	-11.4098
▁inter	-11.411
▁lock	-11.4135
▁theme	-11.4157
▁breaks	-11.4164
▁fort	-11.4166
▁ax	-11.4195
▁surfers	-11.4245
▁write	-11.4283
▁Groups	-11.4286
▁mothers	-11.4286
ol	-11.4304
▁Race	-11.4324
▁skateboarders	-11.4337
ds	-11.4353
rs	-11.4448
▁Ch	-11.4452
rd	-11.4493
▁sweatshirts	-11.4524
▁fe	-11.4537
▁Americans	-11.4569
▁fl	-11.459
▁fields	-11.4667
▁slip	-11.4703
R	-11.4721
der	-11.4799
ns	-11.4864
ring	-11.4893
▁lu	-11.4899
een	-11.4928
▁sweaters	-11.5031
▁Ste	-11.508
bs	-11.5084
ag	-11.5141
ying	-11.5142
▁foods	-11.5164
oe	-11.5209
ari	-11.5213
lly	-11.5223
▁fu	-11.5291
fter	-11.5299
cy	-11.5401
▁Le	-11.5417
des	-11.5466
▁cl	-11.5602
ette	-11.562
▁ex	-11.5643
▁Pa	-11.5653
▁pop	-11.5658
sh	-11.5677
▁toast	-11.5683
▁build	-11.5708
▁em	-11.5718
▁spin	-11.584
ble	-11.5849
H	-11.5866
ses	-11.5867
l	-11.5872
L	-11.5897
ls	-11.5912
▁super	-11.5918
ut	-11.5927
▁thought	-11.5933
ta	-11.5955
▁beat	-11.5979
house	-11.5979
per	-11.6043
▁Do	-11.6044
front	-11.6047
eep	-11.6061
▁interview	-11.6063
▁descend	-11.6066
where	-11.6067
▁steer	-11.6068
▁brochure	-11.6068
▁decide	-11.6068
▁question	-11.6068
▁pancake	-11.6068
▁crab	-11.6068
▁sweet	-11.6068
jo	-11.6068
▁instructor	-11.6068
▁wrist	-11.6068
▁exit	-11.6069
by	-11.6069
G	-11.6069
▁engage	-11.6071
time	-11.6071
▁adjust	-11.6072
▁maneuver	-11.6073
▁sweep	-11.6073
▁holiday	-11.6073
▁sip	-11.6073
Cola	-11.6073
▁jar	-11.6074
▁lemon	-11.6075
▁rabbit	-11.6075
▁cupcake	-11.6076
▁pie	-11.6076
▁sunhat	-11.6076
▁seagull	-11.6077
▁scale	-11.6077
field	-11.6077
▁cookie	-11.6078
handed	-11.6078
▁tip	-11.6078
▁crayon	-11.6078
▁lip	-11.6078
fashioned	-11.6079
drawn	-11.6079
dies	-11.6079
▁scout	-11.6079
▁gymnastic	-11.608
paved	-11.608
▁owner	-11.608
▁word	-11.608
type	-11.6081
striped	-11.6081
well	-11.6081
white	-11.6082
▁skill	-11.6082
▁camper	-11.6083
wearing	-11.6083
deep	-11.6084
▁stocking	-11.6085
ating	-11.6089
ams	-11.6092
▁need	-11.6092
▁mark	-11.6095
ran	-11.6096
▁lantern	-11.6099
▁note	-11.6108
▁content	-11.611
▁pad	-11.611
▁tram	-11.6111
ve	-11.6113
▁wonder	-11.6115
▁vault	-11.6115
▁tri	-11.6115
▁transport	-11.6115
▁greet	-11.6116
▁metro	-11.6117
▁mount	-11.6119
▁sandal	-11.612
▁puzzle	-11.612
▁saddle	-11.612
▁litter	-11.612
▁curious	-11.6121
▁quick	-11.6122
▁Teenage	-11.6122
▁Bike	-11.6122
▁retrieve	-11.6122
▁ref	-11.6122
▁ornament	-11.6123
▁marsh	-11.6123
▁enthusiast	-11.6123
▁alcohol	-11.6123
▁east	-11.6123
▁breast	-11.6123
▁flee	-11.6123
egas	-11.6123
itchenAid	-11.6123
▁Boston	-11.6123
▁Brazil	-11.6123
▁Disney	-11.6123
▁During	-11.6123
▁Elementary	-11.6123
▁Emergency	-11.6123
▁Friends	-11.6123
▁Greyhound	-11.6123
▁Hispanic	-11.6123
▁Mickey	-11.6123
▁Oklahoma	-11.6123
▁Shoppers	-11.6123
▁Starbucks	-11.6123
▁Yamaha	-11.6123
▁adorable	-11.6123
▁aircraft	-11.6123
▁artificial	-11.6123
▁balconies	-11.6123
▁beyond	-11.6123
▁bookbag	-11.6123
▁bungee	-11.6123
▁cafeteria	-11.6123
▁caution	-11.6123
▁ceme	-11.6123
▁challenge	-11.6123
▁charcoal	-11.6123
▁chubby	-11.6123
▁circus	-11.6123
▁civil	-11.6123
▁communicating	-11.6123
▁convertible	-11.6123
▁coveralls	-11.6123
▁crib	-11.6123
▁crutches	-11.6123
▁cubicle	-11.6123
▁currently	-11.6123
▁demonstrating	-11.6123
▁despite	-11.6123
▁dominoes	-11.6123
▁dribbling	-11.6123
▁earmuffs	-11.6123
▁exposed	-11.6123
▁final	-11.6123
▁firing	-11.6123
▁flea	-11.6123
▁floppy	-11.6123
▁fluorescent	-11.6123
▁frustrated	-11.6123
▁halter	-11.6123
▁headscarves	-11.6123
▁henna	-11.6123
▁hispanic	-11.6123
▁hopscotch	-11.6123
▁inflated	-11.6123
▁kettle	-11.6123
▁kiddie	-11.6123
▁llama	-11.6123
▁loose	-11.6123
▁mascara	-11.6123
▁megaphone	-11.6123
▁mermaid	-11.6123
▁messenger	-11.6123
▁metallic	-11.6123
▁occurring	-11.6123
▁octopus	-11.6123
▁overturned	-11.6123
▁paintbrush	-11.6123
▁parasol	-11.6123
▁piggyback	-11.6123
▁playpen	-11.6123
▁poised	-11.6123
▁poverty	-11.6123
▁preparation	-11.6123
▁promoting	-11.6123
▁purchasing	-11.6123
▁retail	-11.6123
▁retrieving	-11.6123
▁satchel	-11.6123
▁scared	-11.6123
▁screwdriver	-11.6123
▁seaweed	-11.6123
▁session	-11.6123
▁skeleton	-11.6123
▁skimpy	-11.6123
▁slam	-11.6123
▁slices	-11.6123
▁sniffs	-11.6123
▁solitary	-11.6123
▁spandex	-11.6123
▁spanish	-11.6123
▁sprinting	-11.6123
▁stalks	-11.6123
▁storage	-11.6123
▁submerged	-11.6123
▁substance	-11.6123
▁sunrise	-11.6123
▁tagged	-11.6123
▁tasting	-11.6123
▁tattered	-11.6123
▁technique	-11.6123
▁technology	-11.6123
▁terrace	-11.6123
▁triangle	-11.6123
▁trombone	-11.6123
▁tuning	-11.6123
▁typical	-11.6123
▁ukulele	-11.6123
▁unpacking	-11.6123
▁unseen	-11.6123
▁videotaping	-11.6123
▁weird	-11.6123
▁whispering	-11.6123
▁wicker	-11.6123
▁workbench	-11.6123
▁york	-11.6123
▁Photo	-11.6123
▁consider	-11.6123
▁diaper	-11.6123
▁emerging	-11.6123
▁honor	-11.6123
▁impressive	-11.6123
▁napkin	-11.6123
▁sombrero	-11.6123
▁sponge	-11.6123
▁studies	-11.6123
▁taught	-11.6123
▁thread	-11.6123
▁About	-11.6123
▁College	-11.6123
▁Picture	-11.6123
▁buoy	-11.6123
▁dramatically	-11.6123
▁else	-11.6123
▁footbridge	-11.6123
▁hairnet	-11.6123
▁knock	-11.6123
▁plucking	-11.6123
pong	-11.6123
▁delicious	-11.6123
▁hidden	-11.6123
▁mailbox	-11.6123
▁markings	-11.6123
▁pulley	-11.6123
▁spectate	-11.6123
▁sumo	-11.6123
▁Arabic	-11.6123
▁Hotel	-11.6123
▁Snowboarder	-11.6123
▁apparel	-11.6123
▁banging	-11.6123
▁except	-11.6123
▁foundation	-11.6123
▁reddish	-11.6123
▁sunbathers	-11.6123
▁motorboat	-11.6123
▁slender	-11.6123
▁Singer	-11.6123
▁defensive	-11.6123
▁graduation	-11.6123
▁dilapidated	-11.6123
▁spear	-11.6123
▁weeds	-11.6123
▁Gentleman	-11.6123
▁measure	-11.6123
▁memorial	-11.6123
▁minivan	-11.6123
▁shields	-11.6123
▁Ocean	-11.6123
▁Oriental	-11.6123
▁bridal	-11.6123
▁flatbed	-11.6123
▁Island	-11.6123
▁incoming	-11.6124
▁chart	-11.6124
▁drainage	-11.6124
▁guest	-11.6124
▁stairwell	-11.6124
▁vast	-11.6124
▁siding	-11.6124
▁sucking	-11.6124
▁collection	-11.6124
▁mesh	-11.6124
▁oxen	-11.6124
▁Parade	-11.6124
▁landmark	-11.6124
▁peeling	-11.6124
▁swimwear	-11.6124
▁ridding	-11.6124
▁mock	-11.6124
▁peach	-11.6124
▁jug	-11.6124
▁master	-11.6124
▁sculptor	-11.6124
▁cabinet	-11.6124
▁padding	-11.6124
▁passionately	-11.6124
▁pressure	-11.6124
▁boss	-11.6124
▁With	-11.6124
▁save	-11.6124
▁lei	-11.6124
▁partner	-11.6124
▁warning	-11.6124
▁sheepdog	-11.6124
▁jewelery	-11.6124
▁swampy	-11.6124
▁Deere	-11.6124
▁cruise	-11.6124
▁buggy	-11.6124
▁winning	-11.6124
▁leafless	-11.6124
▁Nike	-11.6124
▁festive	-11.6124
▁waitress	-11.6124
▁vine	-11.6124
▁bookstore	-11.6124
▁sashes	-11.6124
▁unpaved	-11.6124
▁manual	-11.6124
▁strawberry	-11.6124
▁observers	-11.6124
▁eatery	-11.6124
▁elevator	-11.6124
▁directly	-11.6124
▁extended	-11.6124
▁unidentified	-11.6124
▁mechanical	-11.6124
▁notice	-11.6124
▁roping	-11.6124
▁stationary	-11.6124
▁superman	-11.6124
▁slot	-11.6124
▁Station	-11.6124
▁fashionable	-11.6125
▁dealer	-11.6125
▁seeds	-11.6125
▁begging	-11.6125
▁constructing	-11.6125
▁contemplating	-11.6125
▁galloping	-11.6125
▁kickboxing	-11.6125
▁removing	-11.6125
▁selecting	-11.6125
▁Looking	-11.6125
▁sloping	-11.6125
▁organizing	-11.6125
▁puffy	-11.6125
▁dozen	-11.6125
▁extremely	-11.6125
antly	-11.6125
▁soldering	-11.6125
▁Day	-11.6125
▁awe	-11.6125
▁Bill	-11.6125
▁tosses	-11.6125
▁soil	-11.6125
▁Mom	-11.6125
▁came	-11.6125
▁launch	-11.6125
▁Somebody	-11.6125
▁miniskirt	-11.6125
▁sweaty	-11.6126
▁disk	-11.6126
▁rear	-11.6126
▁paintball	-11.6126
▁dropped	-11.6126
▁Teen	-11.6126
▁potted	-11.6126
▁known	-11.6126
▁cabin	-11.6126
▁overcoat	-11.6126
▁outfielder	-11.6126
▁countertop	-11.6127
▁accepting	-11.6127
▁bringing	-11.6127
▁hauling	-11.6127
▁scratching	-11.6127
▁sculpting	-11.6127
▁pretending	-11.6127
▁chiseling	-11.6127
▁pain	-11.6127
▁torn	-11.6127
▁mad	-11.6127
▁spiked	-11.6127
▁sat	-11.6127
▁layers	-11.6128
kart	-11.6128
▁tightly	-11.6128
ingham	-11.6128
▁pastries	-11.6128
▁waterskier	-11.6128
▁pickup	-11.6129
▁weighing	-11.6129
▁twirling	-11.6129
▁cityscape	-11.6129
▁created	-11.6129
▁plowing	-11.6129
▁designer	-11.613
▁zoo	-11.613
▁grown	-11.613
▁your	-11.613
nti	-11.6131
▁jack	-11.6131
▁Wet	-11.6131
▁greeting	-11.6131
▁Happy	-11.6131
▁Obama	-11.6131
▁occupied	-11.6131
▁perhaps	-11.6131
▁sponsored	-11.6131
▁quaint	-11.6131
▁dash	-11.6131
▁Sports	-11.6131
▁Photographers	-11.6131
▁pokes	-11.6131
▁prizes	-11.6131
▁steaks	-11.6131
▁Cyclists	-11.6131
▁stirs	-11.6131
▁surgeons	-11.6131
▁rollerskaters	-11.6131
▁cock	-11.6131
▁comfortable	-11.6132
pool	-11.6132
▁basement	-11.6132
▁rode	-11.6132
▁pace	-11.6132
▁washed	-11.6133
▁smoothing	-11.6133
▁thinking	-11.6134
▁Latino	-11.6134
▁Re	-11.6135
▁postal	-11.6135
▁returning	-11.6135
▁glo	-11.6136
▁dolly	-11.6136
▁freshly	-11.6136
▁partly	-11.6137
▁nicely	-11.6138
enthusiastically	-11.6138
▁weathered	-11.6138
▁closer	-11.6139
▁graduate	-11.6139
addy	-11.6139
▁fetching	-11.614
▁lonely	-11.614
▁runway	-11.614
▁streetlight	-11.614
▁fourth	-11.614
▁roadwork	-11.614
▁Co	-11.6142
▁waring	-11.6142
▁stride	-11.6144
▁burgers	-11.6144
▁coconuts	-11.6144
▁sausages	-11.6144
▁troops	-11.6144
▁trims	-11.6144
▁peeks	-11.6144
fives	-11.6144
▁grins	-11.6145
▁evil	-11.6145
▁real	-11.6145
▁wipes	-11.6145
▁landed	-11.6146
▁operated	-11.6146
▁calling	-11.6147
sing	-11.6149
▁gated	-11.6149
▁packing	-11.6149
▁label	-11.6149
▁kayakers	-11.615
▁used	-11.6151
▁carpeted	-11.6151
▁formed	-11.6153
▁keeping	-11.6153
▁cooked	-11.6153
▁photography	-11.6154
▁hips	-11.6158
▁dyed	-11.6158
ical	-11.6158
▁forces	-11.6158
▁paws	-11.6158
▁chews	-11.6158
▁letters	-11.6158
▁roses	-11.6158
▁asking	-11.6158
over	-11.6158
▁stacking	-11.6159
▁mountainside	-11.6159
▁cleaned	-11.616
▁Colorful	-11.616
▁whole	-11.6161
▁wades	-11.6162
▁Cars	-11.6162
▁violinist	-11.6163
▁oversized	-11.6163
▁bowler	-11.6165
▁roadway	-11.6165
▁detail	-11.6165
oned	-11.6166
▁helped	-11.6169
▁topic	-11.6172
▁rabbits	-11.6172
▁cupcakes	-11.6172
▁lemons	-11.6172
▁stockings	-11.6172
▁exits	-11.6172
▁piled	-11.6172
▁steers	-11.6172
▁projected	-11.6172
▁owners	-11.6173
▁likely	-11.6174
▁guarding	-11.6175
▁press	-11.6175
▁ne	-11.6181
▁hooping	-11.6181
▁campers	-11.6181
▁appearing	-11.6182
▁straps	-11.6185
▁Bicyclists	-11.6185
▁casts	-11.6185
▁receives	-11.6185
▁spikes	-11.6185
boarder	-11.6186
▁viewer	-11.6187
▁buses	-11.6188
▁taller	-11.619
▁mates	-11.6194
▁bump	-11.6198
▁drops	-11.6199
▁pillars	-11.6199
▁seniors	-11.6199
▁texts	-11.6199
▁cables	-11.6199
▁strikes	-11.6199
▁interior	-11.6204
▁pirates	-11.6213
▁defenders	-11.6213
▁walkers	-11.6222
▁Mr	-11.6223
▁sailboats	-11.6227
▁g	-11.6232
ri	-11.6233
▁breaking	-11.6234
ple	-11.624
▁wigs	-11.6241
▁muzzles	-11.6241
▁shed	-11.6243
▁skin	-11.6245
▁don	-11.6251
▁hilly	-11.6252
▁kilts	-11.6255
▁hikes	-11.6255
▁shapes	-11.6255
▁min	-11.6261
▁tuba	-11.6263
ments	-11.6264
▁celebrates	-11.6269
▁sleeve	-11.6277
ill	-11.6278
▁avoid	-11.6281
▁boulders	-11.6282
▁chickens	-11.6282
▁wraps	-11.6282
▁tackles	-11.6283
▁actively	-11.6289
▁available	-11.6289
▁rust	-11.629
▁aerial	-11.6291
▁orders	-11.6297
ci	-11.6302
▁gu	-11.6304
▁opened	-11.6321
▁Crowds	-11.6324
▁electronics	-11.6324
▁headbands	-11.6324
▁participates	-11.6324
▁horns	-11.6324
▁bearer	-11.6326
▁surroundings	-11.6338
▁controls	-11.6339
▁ja	-11.6341
ump	-11.635
▁youths	-11.6352
als	-11.6353
▁kites	-11.6354
▁guitarists	-11.6357
▁th	-11.6359
shirted	-11.6364
▁dunes	-11.6367
▁sc	-11.6377
▁shoots	-11.6384
▁trained	-11.639
▁helmeted	-11.6394
▁competes	-11.6409
▁readying	-11.6411
▁pictured	-11.6412
day	-11.6413
▁prints	-11.6423
ign	-11.6433
▁grooms	-11.6437
▁prevent	-11.6438
▁sp	-11.6451
▁stools	-11.6451
▁professionals	-11.6466
▁frames	-11.6466
▁organ	-11.6467
da	-11.6468
▁dip	-11.6471
ous	-11.6481
▁rounds	-11.6493
ice	-11.6495
▁drivers	-11.6509
▁pitchers	-11.6512
▁wetsuits	-11.6523
▁squares	-11.6552
iller	-11.6591
▁actors	-11.6591
iz	-11.661
▁ac	-11.661
▁daughters	-11.6624
▁bats	-11.6625
ant	-11.6625
▁tr	-11.6641
▁arid	-11.6644
keeper	-11.6662
▁once	-11.6675
▁photographers	-11.669
▁ways	-11.6696
lk	-11.6725
▁rocking	-11.6745
EL	-11.6753
▁Pe	-11.6754
▁di	-11.6756
▁sons	-11.6769
uit	-11.6794
▁sorts	-11.6815
▁siting	-11.683
nger	-11.6866
▁tend	-11.691
▁these	-11.6914
▁ladders	-11.6978
▁kit	-11.6979
▁Su	-11.698
▁wor	-11.6999
▁attend	-11.7049
▁ra	-11.705
▁snowboarders	-11.7059
▁structures	-11.7069
▁com	-11.7076
um	-11.7088
▁ran	-11.7111
our	-11.7124
pass	-11.7125
pa	-11.713
vel	-11.7145
▁snowing	-11.7265
▁provide	-11.7282
▁inline	-11.7315
▁statues	-11.7317
▁beards	-11.7319
▁sticker	-11.7343
▁ramps	-11.7348
▁someones	-11.7379
▁aim	-11.7433
▁pant	-11.7455
ca	-11.7485
▁fla	-11.7571
wood	-11.7593
ular	-11.7616
ic	-11.7641
x	-11.7656
ense	-11.7751
ung	-11.7784
are	-11.7814
take	-11.7836
▁besides	-11.7845
ator	-11.7901
ome	-11.7903
mo	-11.7934
▁paintings	-11.7968
▁ca	-11.8006
og	-11.8012
▁squat	-11.8069
ries	-11.8095
si	-11.8105
▁Bur	-11.8116
ber	-11.8129
ks	-11.8175
ell	-11.8209
ac	-11.8211
ger	-11.8219
▁flu	-11.8268
hine	-11.8289
▁Car	-11.8346
▁wade	-11.8351
▁ge	-11.8392
head	-11.8412
set	-11.8471
▁ta	-11.8482
▁h	-11.85
long	-11.8506
lem	-11.8524
umber	-11.8542
ove	-11.8551
▁plan	-11.8596
ka	-11.8596
▁So	-11.8678
▁suite	-11.871
▁hu	-11.8717
▁die	-11.8735
nding	-11.8758
pe	-11.8782
em	-11.8802
ora	-11.8805
mat	-11.8829
ver	-11.8831
ide	-11.8871
nce	-11.8887
▁fa	-11.8906
ery	-11.8915
▁Te	-11.8953
nny	-11.8955
▁Run	-11.8961
ug	-11.9012
▁po	-11.9057
▁Con	-11.9108
▁Be	-11.911
tan	-11.915
j	-11.9155
den	-11.9176
▁ob	-11.9212
▁br	-11.9251
ture	-11.9251
stle	-11.9256
try	-11.9261
hi	-11.927
▁basketballs	-11.927
que	-11.9289
mer	-11.9291
hill	-11.9343
rest	-11.9361
bo	-11.9374
▁patron	-11.9383
ive	-11.9383
ence	-11.9387
▁buck	-11.9389
body	-11.9394
ground	-11.9394
▁secure	-11.9398
▁twirl	-11.9399
▁enter	-11.94
▁letter	-11.94
▁garment	-11.9402
▁jackhammer	-11.9402
▁blind	-11.9402
▁volunteer	-11.9402
▁hedge	-11.9402
▁selection	-11.9402
▁jogger	-11.9402
▁fingernail	-11.9402
▁chew	-11.9402
walk	-11.9403
▁tread	-11.9403
▁remove	-11.9404
▁cutout	-11.9405
▁noodle	-11.9407
▁barricade	-11.9407
▁hamburger	-11.9407
▁poncho	-11.9407
▁zombie	-11.9407
▁cycle	-11.9407
hood	-11.9407
shake	-11.9407
▁Skier	-11.9407
▁rise	-11.9407
▁feed	-11.9408
▁state	-11.9408
▁sparkler	-11.9408
▁hip	-11.9409
water	-11.9409
▁kneel	-11.9409
▁paw	-11.9409
▁cu	-11.9409
▁fist	-11.9409
▁rose	-11.941
▁pause	-11.941
dyed	-11.9411
room	-11.9411
▁earring	-11.9411
▁sari	-11.9412
▁judge	-11.9412
laden	-11.9412
truck	-11.9412
point	-11.9413
▁snowshoe	-11.9413
▁bagpipe	-11.9413
▁Player	-11.9413
▁Student	-11.9413
clad	-11.9413
▁overall	-11.9414
horn	-11.9414
▁onlooker	-11.9414
circle	-11.9414
screen	-11.9415
▁sock	-11.9415
bike	-11.9415
woman	-11.9415
▁bead	-11.9415
jump	-11.9415
blue	-11.9415
saw	-11.9415
view	-11.9415
The	-11.9416
book	-11.9416
yard	-11.9416
▁piercing	-11.9418
▁awning	-11.9418
▁key	-11.942
dot	-11.9424
ern	-11.9425
▁protester	-11.9426
▁fo	-11.9426
pad	-11.9426
ized	-11.9428
wards	-11.9431
got	-11.9433
▁sweat	-11.9437
itch	-11.9438
▁visit	-11.9439
gg	-11.944
▁Latin	-11.9442
▁approach	-11.9443
▁border	-11.9444
lot	-11.9444
▁crouch	-11.9444
▁golfer	-11.9446
▁weigh	-11.9446
▁spend	-11.9448
▁grid	-11.9448
▁glow	-11.9449
Pant	-11.9449
▁plow	-11.945
▁parasail	-11.945
▁study	-11.945
▁unload	-11.945
iew	-11.9451
▁quilt	-11.9451
▁enclos	-11.9452
▁flood	-11.9452
▁bean	-11.9452
verage	-11.9452
▁conduct	-11.9452
▁pray	-11.9452
▁report	-11.9453
▁twi	-11.9453
iki	-11.9454
▁sparse	-11.9455
▁Africa	-11.9455
▁proud	-11.9455
▁cry	-11.9455
▁extreme	-11.9455
▁Elder	-11.9455
▁bug	-11.9456
▁trans	-11.9456
▁drunk	-11.9456
▁patrol	-11.9456
bound	-11.9456
▁again	-11.9457
▁acrobat	-11.9457
▁Roller	-11.9457
▁gig	-11.9457
ietnamese	-11.9457
mbulance	-11.9457
orean	-11.9457
▁Autumn	-11.9457
▁Batman	-11.9457
▁Berlin	-11.9457
▁California	-11.9457
▁Company	-11.9457
▁Dozens	-11.9457
▁Earth	-11.9457
▁Ethnic	-11.9457
▁Excited	-11.9457
▁Fast	-11.9457
▁Firetrucks	-11.9457
▁Flag	-11.9457
▁France	-11.9457
▁Gymnast	-11.9457
▁Hollister	-11.9457
▁Homeless	-11.9457
▁Italian	-11.9457
▁Lakers	-11.9457
▁Mexico	-11.9457
▁Monopoly	-11.9457
▁Nintendo	-11.9457
▁Overhead	-11.9457
▁Pitcher	-11.9457
▁Pizza	-11.9457
▁Renaissance	-11.9457
▁Rugby	-11.9457
▁Sitting	-11.9457
▁Thai	-11.9457
▁Toyota	-11.9457
▁Workmen	-11.9457
▁accompanies	-11.9457
▁addressing	-11.9457
▁advantage	-11.9457
▁aluminum	-11.9457
▁applied	-11.9457
▁arguing	-11.9457
▁assortment	-11.9457
▁astronaut	-11.9457
▁baggage	-11.9457
▁barbie	-11.9457
▁battling	-11.9457
▁beagle	-11.9457
▁blacksmith	-11.9457
▁bonnet	-11.9457
▁bouncy	-11.9457
▁breakfast	-11.9457
▁briskly	-11.9457
▁camcorder	-11.9457
▁campaign	-11.9457
▁ceramic	-11.9457
▁cereal	-11.9457
▁charging	-11.9457
▁cleats	-11.9457
▁concession	-11.9457
▁congregating	-11.9457
▁contains	-11.9457
▁corridor	-11.9457
▁creative	-11.9457
▁crocodile	-11.9457
▁crotch	-11.9457
▁crystal	-11.9457
▁cushion	-11.9457
▁dandelion	-11.9457
▁darkness	-11.9457
▁decals	-11.9457
▁defends	-11.9457
▁dentist	-11.9457
▁depicting	-11.9457
▁desolate	-11.9457
▁dishwasher	-11.9457
▁distorted	-11.9457
▁drenched	-11.9457
▁duffel	-11.9457
▁dustpan	-11.9457
▁earbuds	-11.9457
▁enthusiasm	-11.9457
▁equipped	-11.9457
▁facade	-11.9457
▁families	-11.9457
▁fierce	-11.9457
▁fingertips	-11.9457
▁flamboyant	-11.9457
▁flotation	-11.9457
▁footprints	-11.9457
▁forearm	-11.9457
▁frosting	-11.9457
▁geese	-11.9457
▁geisha	-11.9457
▁geometric	-11.9457
▁gorgeous	-11.9457
▁granddaughter	-11.9457
▁grandmother	-11.9457
▁gypsy	-11.9457
▁halloween	-11.9457
▁headgear	-11.9457
▁healthcare	-11.9457
▁heartbeat	-11.9457
▁hijab	-11.9457
▁huddling	-11.9457
▁innertube	-11.9457
▁intimate	-11.9457
▁jazz	-11.9457
▁junk	-11.9457
▁knives	-11.9457
▁ladle	-11.9457
▁limo	-11.9457
▁livestock	-11.9457
▁loaf	-11.9457
▁lodge	-11.9457
▁lollipop	-11.9457
▁mesmerized	-11.9457
▁mosaic	-11.9457
▁mushroom	-11.9457
▁mustachioed	-11.9457
▁natural	-11.9457
▁navigating	-11.9457
▁nibbling	-11.9457
▁ninja	-11.9457
▁nursing	-11.9457
▁ollie	-11.9457
▁opportunity	-11.9457
▁outcropping	-11.9457
▁outstreached	-11.9457
▁parlor	-11.9457
▁pelican	-11.9457
▁pierced	-11.9457
▁placard	-11.9457
▁primitive	-11.9457
▁princess	-11.9457
▁program	-11.9457
▁racquet	-11.9457
▁ragged	-11.9457
▁rappelling	-11.9457
▁rectangular	-11.9457
▁related	-11.9457
▁reluctant	-11.9457
▁remain	-11.9457
▁renaissance	-11.9457
▁reviewing	-11.9457
▁ripped	-11.9457
▁ruler	-11.9457
▁salmon	-11.9457
▁samurai	-11.9457
▁sauna	-11.9457
▁sax	-11.9457
▁screams	-11.9457
▁sexy	-11.9457
▁shading	-11.9457
▁shampoo	-11.9457
▁shelter	-11.9457
▁shrimp	-11.9457
▁sippy	-11.9457
▁sleigh	-11.9457
▁smirking	-11.9457
▁solar	-11.9457
▁somersault	-11.9457
▁spectacular	-11.9457
▁sprints	-11.9457
▁squinting	-11.9457
▁stained	-11.9457
▁statute	-11.9457
▁stethoscope	-11.9457
▁stony	-11.9457
▁straining	-11.9457
▁streaks	-11.9457
▁strewn	-11.9457
▁strumming	-11.9457
▁sunflower	-11.9457
▁tasty	-11.9457
▁technician	-11.9457
▁texas	-11.9457
▁threw	-11.9457
▁timber	-11.9457
▁tobacco	-11.9457
▁transformer	-11.9457
▁traverse	-11.9457
▁trots	-11.9457
▁trouble	-11.9457
▁tulips	-11.9457
▁uncompleted	-11.9457
▁unicef	-11.9457
▁veil	-11.9457
▁videotapes	-11.9457
▁vigorously	-11.9457
▁vivid	-11.9457
▁waffle	-11.9457
▁waking	-11.9457
▁waterproof	-11.9457
▁wheat	-11.9457
▁wildflowers	-11.9457
▁wrangle	-11.9457
▁wrong	-11.9457
berry	-11.9457
▁seamstress	-11.9457
▁secret	-11.9457
▁skewer	-11.9457
▁Angels	-11.9457
▁agility	-11.9457
▁amazing	-11.9457
▁banquet	-11.9457
▁elementary	-11.9457
▁explosion	-11.9457
▁grimacing	-11.9457
▁index	-11.9457
▁layered	-11.9457
▁liberty	-11.9457
▁plugging	-11.9457
▁ritual	-11.9457
▁seemingly	-11.9457
▁sprinkles	-11.9457
▁upcoming	-11.9457
heeled	-11.9457
▁canned	-11.9457
▁emotion	-11.9457
▁expensive	-11.9457
▁exposing	-11.9457
▁metropolitan	-11.9457
▁moss	-11.9457
▁refuge	-11.9457
▁smock	-11.9457
▁spiral	-11.9457
▁vacant	-11.9457
▁Road	-11.9457
▁Tye	-11.9457
▁become	-11.9457
▁corral	-11.9457
▁growing	-11.9457
▁patriotic	-11.9457
▁plaster	-11.9457
▁pleasant	-11.9457
▁trough	-11.9457
▁unison	-11.9457
▁Giant	-11.9457
▁sprinkling	-11.9457
▁addresses	-11.9457
▁audio	-11.9457
▁dugout	-11.9457
▁eng	-11.9457
▁machete	-11.9457
▁shelf	-11.9457
▁spiking	-11.9457
▁tanned	-11.9457
▁hurry	-11.9457
▁Fishermen	-11.9457
▁enforcement	-11.9457
▁knight	-11.9457
▁plume	-11.9457
▁route	-11.9457
▁wristband	-11.9457
▁fortune	-11.9457
▁gripping	-11.9457
▁moon	-11.9457
▁shielding	-11.9457
▁skillfully	-11.9457
▁sprinkled	-11.9457
▁turtleneck	-11.9457
▁suds	-11.9457
▁textile	-11.9457
▁forklift	-11.9457
▁graphic	-11.9457
▁strobe	-11.9457
▁Fisherman	-11.9457
▁Mets	-11.9457
▁arrest	-11.9457
▁dorm	-11.9457
▁fitness	-11.9457
▁canister	-11.9457
▁monster	-11.9457
▁remember	-11.9457
▁might	-11.9457
▁government	-11.9457
▁pregnant	-11.9457
▁propane	-11.9457
▁aquatic	-11.9457
▁shock	-11.9457
▁blurry	-11.9457
▁latex	-11.9457
▁powerpoint	-11.9457
▁yet	-11.9457
▁clog	-11.9457
▁self	-11.9457
▁sketch	-11.9457
▁Coffee	-11.9457
ik	-11.9457
▁digger	-11.9457
▁explorer	-11.9457
▁mold	-11.9457
▁region	-11.9457
▁affection	-11.9457
▁clerk	-11.9457
▁horizontal	-11.9457
▁spits	-11.9457
▁Scottish	-11.9457
▁Spain	-11.9457
▁flashlight	-11.9457
▁align	-11.9457
▁price	-11.9457
▁ankle	-11.9457
▁fleece	-11.9457
▁donuts	-11.9457
▁attaches	-11.9457
▁mac	-11.9457
▁paving	-11.9457
▁director	-11.9457
▁loop	-11.9457
▁French	-11.9457
▁Wii	-11.9457
▁lace	-11.9457
▁insect	-11.9457
▁spout	-11.9457
▁rig	-11.9457
▁schoolgirl	-11.9457
▁Deli	-11.9457
▁Twelve	-11.9457
▁sipping	-11.9457
▁ditch	-11.9457
▁fixture	-11.9457
▁such	-11.9457
▁Coney	-11.9457
▁Dad	-11.9457
▁popping	-11.9457
▁claw	-11.9457
▁cact	-11.9457
▁hurt	-11.9457
▁panda	-11.9457
▁Team	-11.9457
▁Few	-11.9457
▁reci	-11.9457
▁poker	-11.9457
▁cutoff	-11.9457
▁slowly	-11.9457
▁cobbled	-11.9457
▁featured	-11.9457
uvre	-11.9457
▁Good	-11.9457
▁recliner	-11.9457
▁youngsters	-11.9457
▁mosque	-11.9457
▁assembly	-11.9457
▁oversee	-11.9457
▁villagers	-11.9457
▁join	-11.9457
ously	-11.9458
▁holing	-11.9458
▁lizard	-11.9458
▁mail	-11.9458
▁adding	-11.9458
▁dried	-11.9458
▁captain	-11.9458
▁Well	-11.9458
▁recently	-11.9458
▁amused	-11.9458
▁boa	-11.9458
▁spilled	-11.9458
▁tethered	-11.9458
▁BMW	-11.9458
▁dries	-11.9458
▁Lone	-11.9458
▁itself	-11.9458
▁mopping	-11.9458
▁Dressed	-11.9458
▁arrival	-11.9458
▁Gap	-11.9458
▁Nine	-11.9458
▁sandpit	-11.9458
▁wrapping	-11.9458
▁Lead	-11.9458
▁collected	-11.9458
▁trio	-11.9458
▁bunk	-11.9458
▁retriever	-11.9458
▁entertainment	-11.9458
▁solider	-11.9458
▁backhand	-11.9458
▁hoist	-11.9458
▁pruning	-11.9458
▁woodworking	-11.9458
▁yawning	-11.9458
▁meditating	-11.9459
▁captured	-11.9459
▁released	-11.9459
▁proudly	-11.9459
▁county	-11.9459
▁procession	-11.9459
▁proper	-11.9459
▁bouncer	-11.9459
▁handmade	-11.9459
▁launches	-11.9459
▁presses	-11.9459
▁ferry	-11.9459
▁prayer	-11.9459
▁craftsman	-11.946
▁peaceful	-11.946
▁arranged	-11.946
▁Ford	-11.946
▁secured	-11.946
▁Chi	-11.946
▁organized	-11.946
▁pursued	-11.946
▁directed	-11.946
▁Easter	-11.946
▁rad	-11.946
▁Bir	-11.946
▁Hard	-11.946
rina	-11.946
▁freeway	-11.946
▁Star	-11.946
▁focuses	-11.946
▁crashes	-11.946
▁For	-11.946
▁electrician	-11.946
▁bumper	-11.9461
oster	-11.9461
andom	-11.9461
▁Com	-11.9461
▁removed	-11.9461
▁better	-11.9461
▁curling	-11.9461
▁cork	-11.9461
▁wal	-11.9461
▁Artist	-11.9461
▁blossoming	-11.9462
▁happening	-11.9462
▁pouting	-11.9462
▁refreshing	-11.9462
▁rehearsing	-11.9462
▁representing	-11.9462
▁responding	-11.9462
▁telling	-11.9462
▁talkie	-11.9462
▁mixes	-11.9462
▁potatoes	-11.9462
▁Care	-11.9462
▁bordered	-11.9462
▁enclosed	-11.9462
▁flooded	-11.9462
▁lottery	-11.9462
▁unusually	-11.9462
▁soon	-11.9463
▁juggler	-11.9463
▁shake	-11.9463
▁butter	-11.9463
▁uniquely	-11.9463
▁congregated	-11.9463
▁bullet	-11.9464
▁littered	-11.9464
▁needed	-11.9464
▁patches	-11.9464
▁San	-11.9464
▁bordering	-11.9465
▁poorly	-11.9465
▁sweating	-11.9465
▁gay	-11.9465
▁bushel	-11.9465
▁Sw	-11.9465
▁media	-11.9466
▁snowbank	-11.9466
▁temporary	-11.9466
▁safe	-11.9466
▁Camp	-11.9466
▁diverse	-11.9466
▁similarly	-11.9466
▁railway	-11.9467
▁takeout	-11.9467
▁mate	-11.9467
ridge	-11.9468
▁patiently	-11.9468
▁launching	-11.9468
▁transporting	-11.9468
▁Washington	-11.9468
▁hawk	-11.9468
▁maneuvering	-11.9468
▁South	-11.9468
▁blade	-11.9468
▁stroke	-11.9468
▁Hikers	-11.9468
▁Individuals	-11.9468
▁Looks	-11.9468
▁briefs	-11.9468
▁darts	-11.9468
▁explores	-11.9468
▁handlebars	-11.9468
▁twigs	-11.9468
▁utensils	-11.9468
▁ponders	-11.9468
▁extends	-11.9468
▁welds	-11.9468
▁Bull	-11.9468
▁Teenagers	-11.9468
▁dreads	-11.9468
▁electrical	-11.9468
▁crashed	-11.9468
▁Sal	-11.9468
▁change	-11.9468
▁pointy	-11.9469
▁Grand	-11.9469
▁exam	-11.9469
▁interested	-11.9469
▁pitches	-11.9469
▁warmly	-11.9469
▁rowers	-11.9469
▁fern	-11.947
▁cal	-11.947
▁entertained	-11.947
▁towed	-11.9471
▁mus	-11.9471
▁Rider	-11.9471
▁staying	-11.9471
▁welder	-11.9471
▁leafy	-11.9472
▁mixed	-11.9472
▁shadowed	-11.9472
▁playhouse	-11.9473
▁rid	-11.9473
▁lassoing	-11.9474
▁testing	-11.9474
▁beaker	-11.9475
▁best	-11.9475
▁professionally	-11.9475
▁sling	-11.9475
▁skim	-11.9476
▁tv	-11.9477
▁DS	-11.9477
▁driven	-11.9477
▁entertaining	-11.9477
▁Dr	-11.9478
born	-11.9478
▁winded	-11.9479
▁pressing	-11.9479
▁role	-11.948
▁butchering	-11.948
▁pastel	-11.948
▁observed	-11.9481
▁Ge	-11.9481
▁dominate	-11.9481
▁mustached	-11.9482
act	-11.9482
▁whose	-11.9482
▁pasture	-11.9482
▁sn	-11.9482
▁friendly	-11.9483
▁blown	-11.9483
▁powered	-11.9483
▁shaded	-11.9484
▁uphill	-11.9485
▁goers	-11.9485
▁urg	-11.9485
▁paying	-11.9487
Ex	-11.9487
lad	-11.9487
▁pages	-11.9487
▁demonstrates	-11.9487
▁Athletes	-11.9487
▁Soldiers	-11.9487
▁answers	-11.9487
▁braces	-11.9487
▁tells	-11.9487
▁captures	-11.9487
▁sizes	-11.9487
▁pretends	-11.9487
▁participants	-11.9487
▁walkie	-11.9487
▁fliers	-11.9487
▁cracks	-11.9488
▁lakeside	-11.9488
▁Pan	-11.9488
▁picker	-11.9489
▁cola	-11.949
chipper	-11.9491
▁pitched	-11.9491
▁fool	-11.9491
▁admire	-11.9492
▁ironing	-11.9493
▁bowed	-11.9495
▁fed	-11.9496
▁windsurfer	-11.9496
▁sewer	-11.9496
▁towering	-11.9496
▁force	-11.9497
▁kicker	-11.9497
▁underway	-11.95
▁bathed	-11.9501
▁moved	-11.9502
▁cameramen	-11.9502
▁spreading	-11.9503
▁ducking	-11.9503
▁wallet	-11.9505
Love	-11.9505
▁admires	-11.9506
▁beans	-11.9506
▁pastor	-11.9507
ski	-11.9507
▁cycles	-11.9507
▁piercings	-11.9507
▁awnings	-11.9507
▁barricades	-11.9507
▁hamburgers	-11.9507
▁ponchos	-11.9507
▁zombies	-11.9507
▁feeds	-11.9507
▁twirls	-11.9507
▁rises	-11.9507
▁Skiers	-11.9507
▁enters	-11.9507
▁fists	-11.9507
▁removes	-11.9507
▁kissed	-11.9508
eva	-11.9508
▁sparklers	-11.9508
▁states	-11.9508
▁handful	-11.9508
ames	-11.9511
ame	-11.9511
▁let	-11.9512
▁protesters	-11.9513
ood	-11.9514
▁signal	-11.9515
▁noodles	-11.9518
▁kill	-11.9522
hoops	-11.9524
▁med	-11.9524
▁marks	-11.9527
▁needs	-11.9527
▁holidays	-11.9527
▁sunhats	-11.9527
▁engages	-11.9527
▁maneuvers	-11.9527
▁descends	-11.9527
▁sips	-11.9527
▁jars	-11.9527
▁Cola	-11.9527
▁beats	-11.9528
boo	-11.9531
▁beautifully	-11.9531
▁tends	-11.9536
▁hatted	-11.9546
▁bounces	-11.9547
▁toilets	-11.9547
▁years	-11.9547
▁mannequins	-11.9547
▁tuxedos	-11.9547
▁dunks	-11.9547
▁scoops	-11.9547
▁films	-11.9547
▁rakes	-11.9547
▁batons	-11.9548
▁attired	-11.9551
gu	-11.9553
▁cli	-11.9555
▁mirrored	-11.9555
▁streetlights	-11.9556
▁deliver	-11.9557
▁cords	-11.9559
▁bell	-11.9562
▁waited	-11.9565
aft	-11.9565
▁dumps	-11.9566
▁monks	-11.9567
▁overlooks	-11.9567
▁highly	-11.9573
▁wheeling	-11.9573
▁fra	-11.958
Doo	-11.9582
▁tutus	-11.9588
▁vacuums	-11.9588
▁entertains	-11.9588
uffle	-11.9598
▁notebooks	-11.9608
▁pockets	-11.9608
▁speakers	-11.9612
▁led	-11.9612
▁offers	-11.9614
▁packages	-11.9617
▁numbered	-11.9621
▁sick	-11.9625
▁awaits	-11.9627
▁turbans	-11.9628
▁pumpkins	-11.9628
▁tasks	-11.9628
▁Las	-11.9635
▁blacktop	-11.9639
▁darkly	-11.9649
▁services	-11.9649
▁leotards	-11.9649
▁portraits	-11.9649
▁treats	-11.9649
▁cages	-11.9649
▁tickets	-11.965
▁took	-11.9664
▁fully	-11.9665
▁pets	-11.9666
▁tricycles	-11.9669
▁trips	-11.9669
▁ponytails	-11.9669
▁huts	-11.9669
▁rods	-11.967
▁Spar	-11.9685
▁Younger	-11.9687
▁records	-11.969
▁Hug	-11.9694
▁leader	-11.97
lease	-11.9703
▁adolescent	-11.9705
▁grate	-11.9709
▁lounges	-11.971
▁knits	-11.971
▁toss	-11.9712
asse	-11.9714
▁cheers	-11.9715
les	-11.9723
▁ballerinas	-11.9731
▁gifts	-11.9731
▁walker	-11.9744
sion	-11.9751
▁informal	-11.9751
▁spreads	-11.9752
▁taxis	-11.9753
gar	-11.9755
▁mow	-11.9756
▁inner	-11.976
▁lives	-11.9772
▁bears	-11.9777
FC	-11.9777
▁parka	-11.9807
▁Di	-11.9809
▁tiles	-11.9814
▁positions	-11.9814
▁fro	-11.9824
izer	-11.9826
▁Hand	-11.9827
▁capes	-11.983
▁trumpets	-11.9834
mon	-11.9841
ps	-11.9848
▁menus	-11.9856
ix	-11.9858
▁Bo	-11.9861
iling	-11.9865
ors	-11.9872
gri	-11.9879
▁headlight	-11.9882
rill	-11.989
ated	-11.9892
gue	-11.9895
▁referees	-11.9897
Pop	-11.991
▁gla	-11.9922
▁pairs	-11.9939
ue	-11.9956
▁hurdles	-11.9961
▁flights	-11.9961
arket	-11.9976
▁saxophones	-11.9982
▁keyboards	-11.9982
vice	-11.9992
park	-11.9992
pid	-11.9993
▁o	-11.9999
▁clim	-12.0003
▁hammers	-12.0025
▁cheerful	-12.0026
sm	-12.0034
▁streams	-12.0045
▁coverings	-12.0046
unny	-12.0054
▁kinds	-12.0067
▁sees	-12.0069
▁Mad	-12.0071
ands	-12.0109
▁infants	-12.011
lution	-12.015
▁canes	-12.0195
▁sleds	-12.0197
▁hoses	-12.0198
▁helper	-12.0217
▁pane	-12.0235
ging	-12.0269
▁boating	-12.0287
▁themed	-12.0292
▁excavat	-12.0333
▁ends	-12.0358
▁violins	-12.0441
nations	-12.0443
▁Arab	-12.0479
ize	-12.053
ching	-12.0535
nos	-12.0559
▁surfboards	-12.0577
▁cakes	-12.0647
▁meals	-12.0691
mp	-12.0711
▁bulls	-12.0715
▁cho	-12.0776
ouse	-12.091
gy	-12.0913
IN	-12.0943
obs	-12.1033
ew	-12.1055
fi	-12.1083
ished	-12.113
uma	-12.1141
▁burn	-12.1179
▁sou	-12.1185
ello	-12.122
▁cr	-12.1225
▁Bu	-12.1245
ailing	-12.1276
▁views	-12.1321
decker	-12.1336
▁putt	-12.1354
rics	-12.1367
imp	-12.1393
ters	-12.1401
RO	-12.1416
robed	-12.1455
sks	-12.1496
▁supervise	-12.1511
▁Ro	-12.153
sy	-12.1536
▁Mac	-12.1539
vo	-12.1552
li	-12.1567
▁hum	-12.159
▁shoo	-12.1598
acing	-12.1612
some	-12.1666
▁tear	-12.1671
▁adventure	-12.1771
tic	-12.1841
Bo	-12.1842
earing	-12.1888
ties	-12.1901
▁areas	-12.1919
ably	-12.1939
▁y	-12.2035
uth	-12.204
▁decor	-12.209
ON	-12.2099
ner	-12.2131
rist	-12.2168
▁va	-12.2219
tter	-12.2259
vi	-12.227
tar	-12.2289
▁cont	-12.2334
rain	-12.2381
ever	-12.239
orn	-12.2396
nited	-12.2403
▁cla	-12.2441
▁pee	-12.248
▁reg	-12.2514
▁spa	-12.2545
pt	-12.2546
▁bust	-12.2576
ral	-12.268
sea	-12.2717
itty	-12.274
▁cre	-12.2757
▁pea	-12.276
now	-12.2814
sel	-12.2848
OI	-12.2884
▁se	-12.2897
oy	-12.2928
▁mob	-12.2953
fully	-12.3061
▁si	-12.3101
mic	-12.3118
end	-12.3122
rt	-12.3157
cons	-12.3191
▁dim	-12.3194
▁rocker	-12.32
tle	-12.3204
▁Hu	-12.3206
aker	-12.3306
hing	-12.331
▁ste	-12.3314
tails	-12.3468
tor	-12.3477
▁till	-12.3488
ctors	-12.3498
▁skip	-12.3525
▁fer	-12.3537
▁dr	-12.3545
my	-12.355
rou	-12.3667
▁da	-12.3674
rid	-12.3736
▁tux	-12.379
eers	-12.3792
▁Bre	-12.3792
▁maintain	-12.381
▁Wi	-12.3823
▁ru	-12.3825
▁bal	-12.3828
▁Bus	-12.3886
lights	-12.3903
▁whi	-12.3916
headed	-12.3926
▁comic	-12.3941
formal	-12.3948
andy	-12.3951
ret	-12.3968
ost	-12.3976
▁Tea	-12.3978
doors	-12.3997
ious	-12.4039
▁comfort	-12.4058
▁Pee	-12.4079
nting	-12.4087
oking	-12.4096
▁Down	-12.4103
▁litera	-12.4115
riff	-12.4128
▁Liv	-12.4128
ze	-12.4142
ude	-12.4142
▁su	-12.417
mong	-12.4174
ff	-12.418
▁sole	-12.4205
ley	-12.4237
very	-12.4247
▁extra	-12.4266
▁ri	-12.4274
turing	-12.4281
▁kil	-12.429
oker	-12.4297
▁crack	-12.4297
▁vo	-12.4305
▁Har	-12.4305
▁sew	-12.4334
ike	-12.4346
co	-12.4349
ki	-12.4354
shes	-12.4358
eye	-12.4363
▁Wh	-12.4365
five	-12.4368
opsicle	-12.4368
▁Color	-12.4374
fall	-12.4376
evil	-12.4376
▁ten	-12.4376
▁Ha	-12.4376
▁Lo	-12.4383
atted	-12.4387
cent	-12.4387
cast	-12.4389
▁windsurf	-12.4393
▁frown	-12.4393
▁chisel	-12.4395
bank	-12.4395
▁learn	-12.4395
lift	-12.4395
burn	-12.4395
▁direct	-12.4395
com	-12.4396
locked	-12.4397
▁trim	-12.4399
iner	-12.4399
▁pretend	-12.4399
▁release	-12.44
ier	-12.44
count	-12.4401
wheel	-12.4401
beater	-12.4402
▁prop	-12.4402
▁cell	-12.4402
▁Garden	-12.4402
▁circuit	-12.4402
▁drift	-12.4402
▁locomotive	-12.4402
▁melon	-12.4402
▁pineapple	-12.4402
Guitar	-12.4402
floored	-12.4402
▁frolic	-12.4402
Welcome	-12.4402
▁contestant	-12.4402
issue	-12.4402
▁steal	-12.4403
▁juggle	-12.4403
▁Swimmer	-12.4403
▁flap	-12.4403
brimmed	-12.4403
▁medal	-12.4403
▁grain	-12.4403
plane	-12.4403
▁braid	-12.4404
chested	-12.4404
▁peek	-12.4404
rolled	-12.4404
▁zoom	-12.4404
▁Farmer	-12.4405
▁grind	-12.4405
▁hide	-12.4406
▁size	-12.4406
pee	-12.4406
▁troop	-12.4406
fight	-12.4406
back	-12.4407
▁answer	-12.4407
▁participant	-12.4407
▁Athlete	-12.4407
▁Soldier	-12.4407
▁reporter	-12.4407
▁demonstrate	-12.4407
themed	-12.4407
case	-12.4408
▁twin	-12.4409
▁flier	-12.4409
mark	-12.4409
▁coconut	-12.4409
▁sausage	-12.4409
fro	-12.4409
▁burger	-12.4409
▁brace	-12.441
operated	-12.441
stride	-12.441
▁locker	-12.441
color	-12.441
lantern	-12.441
▁recline	-12.441
▁citizen	-12.4411
▁concentrate	-12.4411
▁kimono	-12.4411
▁struggle	-12.4411
▁dribble	-12.4411
▁condition	-12.4411
guards	-12.4411
legged	-12.4411
▁operate	-12.4411
▁bridesmaid	-12.4411
onto	-12.4411
dotted	-12.4411
▁flame	-12.4412
load	-12.4412
bra	-12.4412
unk	-12.4412
love	-12.4412
▁capture	-12.4412
▁navigate	-12.4412
Eastern	-12.4412
▁shingle	-12.4412
▁grin	-12.4412
▁tell	-12.4413
▁Adult	-12.4413
▁bystander	-12.4413
story	-12.4413
venue	-12.4413
▁bone	-12.4413
thumbs	-12.4414
box	-12.4414
free	-12.4414
▁pajama	-12.4414
cool	-12.4414
crew	-12.4414
naked	-12.4414
ship	-12.4415
shade	-12.4415
▁leave	-12.4415
nail	-12.4415
block	-12.4415
neck	-12.4415
▁Time	-12.4415
scooter	-12.4415
race	-12.4415
class	-12.4415
fo	-12.4415
distance	-12.4415
golf	-12.4415
pole	-12.4415
crowded	-12.4415
wall	-12.4415
yellow	-12.4415
trick	-12.4415
horse	-12.4416
game	-12.4416
lie	-12.4416
stone	-12.4417
off	-12.4417
▁drawer	-12.4417
vest	-12.4417
painted	-12.4417
▁kn	-12.4418
ary	-12.4418
stairs	-12.4418
climbing	-12.4419
painting	-12.4419
dog	-12.442
▁Ne	-12.442
boy	-12.442
shot	-12.4421
▁penguin	-12.4422
arm	-12.4423
bee	-12.4424
fighting	-12.4424
bed	-12.4424
ress	-12.4426
risk	-12.4427
rader	-12.4428
▁sac	-12.4428
comb	-12.4429
ford	-12.4431
▁page	-12.4432
mates	-12.4434
tion	-12.4436
aris	-12.4437
pic	-12.4438
away	-12.4438
ently	-12.444
fit	-12.4442
▁attack	-12.4443
▁enthusiastic	-12.4443
scape	-12.4444
▁harvest	-12.4444
eedle	-12.4445
une	-12.4445
▁hid	-12.4446
▁flow	-12.4447
▁instruct	-12.4448
▁bloom	-12.4448
▁smell	-12.4448
▁sculpt	-12.4448
▁react	-12.4449
▁discover	-12.4449
▁rehears	-12.4449
▁blossom	-12.4449
▁represent	-12.4449
▁respond	-12.4449
▁refresh	-12.4449
band	-12.4449
▁happen	-12.4449
▁scratch	-12.4449
▁accept	-12.4449
▁mill	-12.4449
▁install	-12.4449
pac	-12.4449
rench	-12.445
▁haul	-12.445
oggers	-12.445
urf	-12.4451
▁cluster	-12.4451
▁thing	-12.4451
▁arrange	-12.4451
pper	-12.4451
akes	-12.4451
▁crush	-12.4451
nded	-12.4452
▁bandage	-12.4452
▁injur	-12.4452
efully	-12.4452
▁crow	-12.4452
▁Lou	-12.4453
inky	-12.4453
▁pout	-12.4453
▁Farm	-12.4454
▁should	-12.4454
▁bake	-12.4454
▁puff	-12.4454
▁sparkl	-12.4454
▁cro	-12.4454
▁blank	-12.4454
▁respective	-12.4455
▁attentive	-12.4455
▁viol	-12.4455
▁sash	-12.4455
▁met	-12.4455
▁solid	-12.4455
▁sauce	-12.4455
▁recent	-12.4455
ube	-12.4455
▁drape	-12.4455
▁wineglass	-12.4456
blading	-12.4456
▁bikin	-12.4456
▁mass	-12.4456
uperman	-12.4456
▁mis	-12.4456
▁baker	-12.4456
bil	-12.4456
▁intent	-12.4456
umb	-12.4456
▁blu	-12.4456
▁speci	-12.4456
▁Spider	-12.4456
source	-12.4456
▁affect	-12.4456
▁Music	-12.4456
eteran	-12.4456
olkswagen	-12.4456
▁express	-12.4456
▁magic	-12.4456
▁repel	-12.4456
ehicle	-12.4457
raphic	-12.4457
▁euro	-12.4457
▁sunbathe	-12.4457
▁Euro	-12.4457
▁Life	-12.4457
plica	-12.4457
escription	-12.4457
bum	-12.4457
▁Scooby	-12.4457
▁illustrati	-12.4457
▁kerchief	-12.4457
▁spaghetti	-12.4457
▁terrori	-12.4457
Birthday	-12.4457
EGO	-12.4457
Free	-12.4457
Olympians	-12.4457
Thomas	-12.4457
Twister	-12.4457
adillac	-12.4457
altitude	-12.4457
arshmallow	-12.4457
awasaki	-12.4457
bians	-12.4457
buster	-12.4457
eindeer	-12.4457
espectacled	-12.4457
fringed	-12.4457
ggressive	-12.4457
iffel	-12.4457
immigration	-12.4457
ingbird	-12.4457
inspired	-12.4457
ioneer	-12.4457
labradoodle	-12.4457
mputee	-12.4457
nnual	-12.4457
ongolian	-12.4457
ordinary	-12.4457
rancisco	-12.4457
rchaeologists	-12.4457
specific	-12.4457
tilizing	-12.4457
udweiser	-12.4457
ulture	-12.4457
ylons	-12.4457
▁Airways	-12.4457
▁Alaska	-12.4457
▁Angeles	-12.4457
▁Atlanta	-12.4457
▁Attractive	-12.4457
▁Bald	-12.4457
▁Baltimore	-12.4457
▁Bank	-12.4457
▁Block	-12.4457
▁Blurry	-12.4457
▁Brick	-12.4457
▁Bridesmaids	-12.4457
▁Business	-12.4457
▁Calvin	-12.4457
▁Camel	-12.4457
▁Capris	-12.4457
▁Challenge	-12.4457
▁Circus	-12.4457
▁Cricket	-12.4457
▁Crocs	-12.4457
▁Darth	-12.4457
▁Doberman	-12.4457
▁Engine	-12.4457
▁Enrolling	-12.4457
▁Factory	-12.4457
▁From	-12.4457
▁Golden	-12.4457
▁Great	-12.4457
▁Heavy	-12.4457
▁Heineken	-12.4457
▁Houston	-12.4457
▁Iowa	-12.4457
▁Islamic	-12.4457
▁Israel	-12.4457
▁Italy	-12.4457
▁LeBron	-12.4457
▁Maintenance	-12.4457
▁Medical	-12.4457
▁Michael	-12.4457
▁Michigan	-12.4457
▁Minnesota	-12.4457
▁Motorcycle	-12.4457
▁Motorcyclist	-12.4457
▁Muzzled	-12.4457
▁Nurses	-12.4457
▁Onlookers	-12.4457
▁Orioles	-12.4457
▁Oxford	-12.4457
▁Pabst	-12.4457
▁Painters	-12.4457
▁Penn	-12.4457
▁Performers	-12.4457
▁Pilot	-12.4457
▁Pokemon	-12.4457
▁Port	-12.4457
▁Profile	-12.4457
▁Ribbon	-12.4457
▁SWAT	-12.4457
▁Samsung	-12.4457
▁Seahawks	-12.4457
▁Segway	-12.4457
▁Sesame	-12.4457
▁Shorts	-12.4457
▁Skiiers	-12.4457
▁Southeast	-12.4457
▁Story	-12.4457
▁Summer	-12.4457
▁Sunglasses	-12.4457
▁Sveral	-12.4457
▁Tall	-12.4457
▁Tank	-12.4457
▁Terrier	-12.4457
▁Thursday	-12.4457
▁Tree	-12.4457
▁Walkers	-12.4457
▁Walkman	-12.4457
▁Wheel	-12.4457
▁Wonder	-12.4457
▁Workman	-12.4457
▁World	-12.4457
▁YMCA	-12.4457
▁Yankee	-12.4457
▁accompaniment	-12.4457
▁adjacent	-12.4457
▁aloft	-12.4457
▁aloud	-12.4457
▁alpine	-12.4457
▁amplifier	-12.4457
▁announcement	-12.4457
▁appreciate	-12.4457
▁appropriate	-12.4457
▁architectural	-12.4457
▁architecture	-12.4457
▁array	-12.4457
▁assignment	-12.4457
▁assistance	-12.4457
▁assisted	-12.4457
▁assorted	-12.4457
▁auditioning	-12.4457
▁awkward	-12.4457
▁backflip	-12.4457
▁bazaar	-12.4457
▁beanbag	-12.4457
▁beauty	-12.4457
▁bemused	-12.4457
▁billiard	-12.4457
▁bombard	-12.4457
▁bonfire	-12.4457
▁boutique	-12.4457
▁breakdancer	-12.4457
▁breakdances	-12.4457
▁broccoli	-12.4457
▁buffalo	-12.4457
▁burrito	-12.4457
▁calendar	-12.4457
▁captivated	-12.4457
▁caravan	-12.4457
▁catamaran	-12.4457
▁cavern	-12.4457
▁certificate	-12.4457
▁challenging	-12.4457
▁chemical	-12.4457
▁chief	-12.4457
▁chopped	-12.4457
▁choppy	-12.4457
▁choreographed	-12.4457
▁chores	-12.4457
▁churning	-12.4457
▁civilians	-12.4457
▁clasps	-12.4457
▁cleav	-12.4457
▁clenches	-12.4457
▁clipboard	-12.4457
▁collaps	-12.4457
▁colourful	-12.4457
▁communicate	-12.4457
▁communication	-12.4457
▁compartment	-12.4457
▁conceal	-12.4457
▁concentrating	-12.4457
▁condiment	-12.4457
▁congregation	-12.4457
▁conifer	-12.4457
▁contained	-12.4457
▁contingent	-12.4457
▁contorts	-12.4457
▁conveyor	-12.4457
▁correct	-12.4457
▁corsage	-12.4457
▁could	-12.4457
▁coworker	-12.4457
▁crammed	-12.4457
▁cramped	-12.4457
▁crayola	-12.4457
▁creature	-12.4457
▁creepy	-12.4457
▁crumbling	-12.4457
▁cucumber	-12.4457
▁culinary	-12.4457
▁custody	-12.4457
▁dagger	-12.4457
▁deciding	-12.4457
▁declare	-12.4457
▁defending	-12.4457
▁deflated	-12.4457
▁demolishe	-12.4457
▁depicted	-12.4457
▁describing	-12.4457
▁detergent	-12.4457
▁determined	-12.4457
▁diagram	-12.4457
▁diamond	-12.4457
▁didgeridoo	-12.4457
▁difficult	-12.4457
▁diploma	-12.4457
▁distracted	-12.4457
▁district	-12.4457
▁doorstep	-12.4457
▁dueling	-12.4457
▁eagle	-12.4457
▁eccentric	-12.4457
▁eclectic	-12.4457
▁elegant	-12.4457
▁empanadas	-12.4457
▁engaging	-12.4457
▁ensemble	-12.4457
▁entrepreneur	-12.4457
▁envelope	-12.4457
▁erected	-12.4457
▁espresso	-12.4457
▁examination	-12.4457
▁exhaust	-12.4457
▁expectant	-12.4457
▁eyebrow	-12.4457
▁eyeliner	-12.4457
▁famous	-12.4457
▁faux	-12.4457
▁fishermen	-12.4457
▁flexible	-12.4457
▁flexing	-12.4457
▁forehand	-12.4457
▁frantically	-12.4457
▁frilly	-12.4457
▁fundraiser	-12.4457
▁funky	-12.4457
▁gallon	-12.4457
▁gambling	-12.4457
▁garter	-12.4457
▁gingerbread	-12.4457
▁glides	-12.4457
▁grandparents	-12.4457
▁guiding	-12.4457
▁gyro	-12.4457
▁hairdresser	-12.4457
▁hamper	-12.4457
▁handgun	-12.4457
▁handhold	-12.4457
▁hatchet	-12.4457
▁headfirst	-12.4457
▁hitchhiking	-12.4457
▁hollow	-12.4457
▁household	-12.4457
▁hovering	-12.4457
▁hugged	-12.4457
▁hydraulic	-12.4457
▁igloo	-12.4457
▁ignore	-12.4457
▁illuminating	-12.4457
▁imitation	-12.4457
▁important	-12.4457
▁improvement	-12.4457
▁indigenous	-12.4457
▁inflating	-12.4457
▁international	-12.4457
▁internet	-12.4457
▁intricate	-12.4457
▁intrigued	-12.4457
▁involves	-12.4457
▁irritated	-12.4457
▁jagged	-12.4457
▁janitor	-12.4457
▁japanese	-12.4457
▁jousting	-12.4457
▁kabob	-12.4457
▁kelp	-12.4457
▁knoll	-12.4457
▁knotted	-12.4457
▁latin	-12.4457
▁lava	-12.4457
▁lavender	-12.4457
▁leisurely	-12.4457
▁lettuce	-12.4457
▁london	-12.4457
▁loud	-12.4457
▁loudspeaker	-12.4457
▁majestic	-12.4457
▁maracas	-12.4457
▁martini	-12.4457
▁masonry	-12.4457
▁matador	-12.4457
▁mauve	-12.4457
▁memorabilia	-12.4457
▁mexican	-12.4457
▁mime	-12.4457
▁mingle	-12.4457
▁mingling	-12.4457
▁miscellaneous	-12.4457
▁mischievous	-12.4457
▁mortar	-12.4457
▁mulch	-12.4457
▁multitasking	-12.4457
▁mustang	-12.4457
▁neatly	-12.4457
▁neighbors	-12.4457
▁nibbles	-12.4457
▁nips	-12.4457
▁normal	-12.4457
▁oblivious	-12.4457
▁obscur	-12.4457
▁occasion	-12.4457
▁occup	-12.4457
▁occurred	-12.4457
▁origin	-12.4457
▁oval	-12.4457
▁owl	-12.4457
▁oxygen	-12.4457
▁palace	-12.4457
▁pamphlet	-12.4457
▁parachutist	-12.4457
▁paraphernalia	-12.4457
▁parrot	-12.4457
▁pearls	-12.4457
▁peppers	-12.4457
▁percussion	-12.4457
▁period	-12.4457
▁placid	-12.4457
▁plaque	-12.4457
▁pomeranian	-12.4457
▁pompoms	-12.4457
▁pork	-12.4457
▁possible	-12.4457
▁poultry	-12.4457
▁pounces	-12.4457
▁pouncing	-12.4457
▁preschool	-12.4457
▁pretzels	-12.4457
▁previously	-12.4457
▁private	-12.4457
▁proclaim	-12.4457
▁quartet	-12.4457
▁reason	-12.4457
▁recital	-12.4457
▁reclining	-12.4457
▁reflects	-12.4457
▁releasing	-12.4457
▁remodel	-12.4457
▁residence	-12.4457
▁residential	-12.4457
▁restaraunt	-12.4457
▁rinsing	-12.4457
▁rugged	-12.4457
▁saxophonist	-12.4457
▁scientific	-12.4457
▁scope	-12.4457
▁scoring	-12.4457
▁scrabble	-12.4457
▁scramble	-12.4457
▁scruffy	-12.4457
▁scythe	-12.4457
▁securing	-12.4457
▁seminar	-12.4457
▁sequence	-12.4457
▁serene	-12.4457
▁serious	-12.4457
▁shabby	-12.4457
▁shark	-12.4457
▁shift	-12.4457
▁shoelaces	-12.4457
▁showcasing	-12.4457
▁shrine	-12.4457
▁shrubbery	-12.4457
▁shuffles	-12.4457
▁sibling	-12.4457
▁silverware	-12.4457
▁simply	-12.4457
▁slalom	-12.4457
▁slamming	-12.4457
▁sledgehammer	-12.4457
▁sliced	-12.4457
▁snoopy	-12.4457
▁snooze	-12.4457
▁snowdrift	-12.4457
▁snowmobile	-12.4457
▁snowmobiling	-12.4457
▁snuggling	-12.4457
▁spattered	-12.4457
▁spiky	-12.4457
▁squirrel	-12.4457
▁stainless	-12.4457
▁steeplechase	-12.4457
▁straddl	-12.4457
▁stricken	-12.4457
▁strums	-12.4457
▁strung	-12.4457
▁stumbling	-12.4457
▁subject	-12.4457
▁submerges	-12.4457
▁sucker	-12.4457
▁superior	-12.4457
▁surprised	-12.4457
▁sushi	-12.4457
▁suspect	-12.4457
▁swaddled	-12.4457
▁swallowing	-12.4457
▁sweatpants	-12.4457
▁symphony	-12.4457
▁syrup	-12.4457
▁technical	-12.4457
▁thorugh	-12.4457
▁thousands	-12.4457
▁tilted	-12.4457
▁tilts	-12.4457
▁tinsel	-12.4457
▁tinted	-12.4457
▁tortillas	-12.4457
▁trendy	-12.4457
▁tucked	-12.4457
▁turbulent	-12.4457
▁typewriter	-12.4457
▁unfriendly	-12.4457
▁unkempt	-12.4457
▁unwraps	-12.4457
▁upraised	-12.4457
▁upturned	-12.4457
▁varied	-12.4457
▁version	-12.4457
▁vessel	-12.4457
▁victim	-12.4457
▁volcano	-12.4457
▁volley	-12.4457
▁wavy	-12.4457
▁whisking	-12.4457
▁wildfire	-12.4457
▁worried	-12.4457
▁would	-12.4457
▁wreck	-12.4457
▁zigzag	-12.4457
▁edible	-12.4457
Ohio	-12.4457
fresco	-12.4457
spiration	-12.4457
▁Ballerina	-12.4457
▁Cooks	-12.4457
▁Space	-12.4457
▁aviator	-12.4457
▁bulb	-12.4457
▁chinatown	-12.4457
▁chute	-12.4457
▁collision	-12.4457
▁divide	-12.4457
▁drumming	-12.4457
▁drumstick	-12.4457
▁egret	-12.4457
▁experienc	-12.4457
▁extinguish	-12.4457
▁falcon	-12.4457
▁freight	-12.4457
▁ginger	-12.4457
▁glancing	-12.4457
▁hardware	-12.4457
▁heritage	-12.4457
▁incense	-12.4457
▁keg	-12.4457
▁manipulat	-12.4457
▁metalworking	-12.4457
▁moutain	-12.4457
▁obstruct	-12.4457
▁perfume	-12.4457
▁refrigerat	-12.4457
▁renovat	-12.4457
▁resembl	-12.4457
▁scrimmage	-12.4457
▁shouts	-12.4457
▁shuttle	-12.4457
▁success	-12.4457
▁whale	-12.4457
OME	-12.4457
ictoria	-12.4457
regarding	-12.4457
▁Eleven	-12.4457
▁Pipe	-12.4457
▁Waterskier	-12.4457
▁agitate	-12.4457
▁anorak	-12.4457
▁busker	-12.4457
▁chemistry	-12.4457
▁compos	-12.4457
▁expert	-12.4457
▁flinging	-12.4457
▁missed	-12.4457
▁presumably	-12.4457
▁spirit	-12.4457
▁thatched	-12.4457
▁thro	-12.4457
▁Fans	-12.4457
▁Prince	-12.4457
▁Rollerblader	-12.4457
▁Sunday	-12.4457
▁breeze	-12.4457
▁caressing	-12.4457
▁fishnet	-12.4457
▁focal	-12.4457
▁graze	-12.4457
▁grimace	-12.4457
▁idle	-12.4457
▁ju	-12.4457
▁cott	-12.4457
▁faith	-12.4457
▁knead	-12.4457
▁Lifeguards	-12.4457
▁Water	-12.4457
▁breaststroke	-12.4457
▁clicking	-12.4457
▁exterior	-12.4457
▁furiously	-12.4457
▁glances	-12.4457
▁handicapped	-12.4457
▁humorous	-12.4457
▁hundreds	-12.4457
▁icicle	-12.4457
▁oxford	-12.4457
▁squash	-12.4457
▁thong	-12.4457
▁unwrapp	-12.4457
▁Airline	-12.4457
▁Notre	-12.4457
▁Smoke	-12.4457
▁closing	-12.4457
▁ecstatically	-12.4457
▁generat	-12.4457
▁hamming	-12.4457
▁patties	-12.4457
▁simple	-12.4457
▁sparks	-12.4457
▁trekking	-12.4457
▁urinal	-12.4457
inker	-12.4457
▁Hopper	-12.4457
▁Year	-12.4457
▁adventurous	-12.4457
▁author	-12.4457
▁lemonade	-12.4457
▁sedan	-12.4457
▁smear	-12.4457
▁spider	-12.4457
▁charge	-12.4457
▁hippie	-12.4457
▁slingshot	-12.4457
▁swirl	-12.4457
▁violence	-12.4457
▁Sidewalk	-12.4457
▁amaze	-12.4457
▁burying	-12.4457
▁cellular	-12.4457
▁collective	-12.4457
▁growling	-12.4457
▁jostle	-12.4457
▁peddling	-12.4457
▁plywood	-12.4457
▁recoil	-12.4457
melting	-12.4457
▁Forever	-12.4457
▁glue	-12.4457
▁karaoke	-12.4457
▁lesson	-12.4457
▁management	-12.4457
▁speckled	-12.4457
▁scary	-12.4457
▁stapl	-12.4457
▁worship	-12.4457
randfather	-12.4457
▁Holding	-12.4457
▁Standing	-12.4457
▁applauding	-12.4457
▁assists	-12.4457
▁carrot	-12.4457
▁dingy	-12.4457
▁exotic	-12.4457
▁hokey	-12.4457
▁identif	-12.4457
▁list	-12.4457
▁slum	-12.4457
dobe	-12.4457
tangled	-12.4457
▁clever	-12.4457
▁ribs	-12.4457
▁stories	-12.4457
▁trade	-12.4457
▁trading	-12.4457
▁daring	-12.4457
▁equ	-12.4457
▁Buddhist	-12.4457
▁Walking	-12.4457
▁ensure	-12.4457
▁fanny	-12.4457
▁joking	-12.4457
▁rather	-12.4457
▁reflecting	-12.4457
▁slouch	-12.4457
▁starfish	-12.4457
▁drain	-12.4457
▁hello	-12.4457
▁rising	-12.4457
▁situation	-12.4457
▁slumped	-12.4457
▁stunning	-12.4457
▁suspension	-12.4457
▁true	-12.4457
cept	-12.4457
▁cashier	-12.4457
▁folk	-12.4457
▁oncoming	-12.4457
▁Bra	-12.4457
▁frothy	-12.4457
▁alcoholic	-12.4457
▁corgi	-12.4457
▁dachshund	-12.4457
▁dental	-12.4457
▁european	-12.4457
▁garish	-12.4457
▁mariachi	-12.4457
▁dalmatian	-12.4457
▁Castro	-12.4457
▁access	-12.4457
▁bagpipers	-12.4457
▁crus	-12.4457
▁magician	-12.4457
▁repelling	-12.4457
▁Shop	-12.4457
▁Western	-12.4457
▁veteran	-12.4457
▁Central	-12.4457
▁colonial	-12.4457
▁twister	-12.4457
▁volkswagen	-12.4457
▁warrior	-12.4457
▁David	-12.4457
▁Rodgers	-12.4457
▁wielding	-12.4457
▁wounds	-12.4457
▁grinning	-12.4457
▁skyscraper	-12.4457
▁witness	-12.4457
▁crim	-12.4457
▁postcards	-12.4457
▁MMA	-12.4457
▁creation	-12.4457
▁researchers	-12.4457
▁stumble	-12.4457
affe	-12.4457
▁violet	-12.4457
▁Every	-12.4457
▁bonding	-12.4457
▁galo	-12.4457
▁slipper	-12.4457
▁entry	-12.4457
▁national	-12.4457
▁Bright	-12.4457
▁slung	-12.4457
▁swung	-12.4457
▁patrolling	-12.4457
▁careful	-12.4457
▁necktie	-12.4457
tribut	-12.4457
▁Egy	-12.4457
▁tipped	-12.4457
ligator	-12.4457
▁crag	-12.4457
▁humping	-12.4457
▁masterpiece	-12.4457
▁mixture	-12.4457
▁western	-12.4457
▁lovers	-12.4457
▁seashell	-12.4457
▁vase	-12.4457
▁Groucho	-12.4457
▁ethnicities	-12.4457
▁slant	-12.4457
▁Power	-12.4457
▁smart	-12.4457
▁Harlem	-12.4457
▁astonish	-12.4457
▁dragster	-12.4457
▁Marx	-12.4457
▁Rican	-12.4457
▁dodg	-12.4457
▁reaction	-12.4457
▁Broad	-12.4457
▁function	-12.4457
▁rollerblader	-12.4457
▁spice	-12.4457
ication	-12.4457
▁common	-12.4457
▁protectors	-12.4457
IG	-12.4457
orah	-12.4457
▁Beach	-12.4457
▁Scuba	-12.4457
▁Seated	-12.4457
▁Spiderman	-12.4457
▁Styrofoam	-12.4457
▁appre	-12.4457
▁salesman	-12.4457
▁tickl	-12.4457
▁winks	-12.4457
▁hops	-12.4457
▁resource	-12.4457
▁congr	-12.4457
▁prepping	-12.4457
▁Wood	-12.4457
▁culture	-12.4457
▁Coke	-12.4457
▁Human	-12.4457
▁executes	-12.4457
▁swerves	-12.4457
dam	-12.4457
▁Pelo	-12.4457
▁dumb	-12.4457
▁Mc	-12.4457
▁convi	-12.4457
akland	-12.4457
real	-12.4457
▁animatedly	-12.4457
▁letting	-12.4457
▁simultaneously	-12.4457
▁drunken	-12.4457
▁Peter	-12.4458
▁adds	-12.4458
▁Mike	-12.4458
▁restrain	-12.4458
▁tipping	-12.4458
▁Most	-12.4458
▁showgirl	-12.4458
▁baking	-12.4458
▁Russian	-12.4458
▁slim	-12.4458
▁wrapper	-12.4458
▁candlelight	-12.4458
AL	-12.4458
▁Firemen	-12.4458
▁dj	-12.4458
▁Swan	-12.4458
▁everyone	-12.4458
▁silk	-12.4458
AR	-12.4458
▁Near	-12.4458
▁alter	-12.4458
▁piling	-12.4458
ayaker	-12.4458
erately	-12.4458
▁carpenter	-12.4458
▁cornfield	-12.4458
▁kickboxer	-12.4458
▁propeller	-12.4458
urance	-12.4458
▁Domino	-12.4458
AM	-12.4458
▁bored	-12.4458
BA	-12.4458
ackson	-12.4458
ancy	-12.4458
▁Dane	-12.4458
▁saving	-12.4458
▁manicured	-12.4458
▁sucks	-12.4458
▁bud	-12.4458
▁twenty	-12.4458
▁Navy	-12.4458
▁glittery	-12.4458
▁goofy	-12.4458
▁pharmacy	-12.4458
▁pursu	-12.4458
▁Engl	-12.4458
▁saucer	-12.4458
▁troll	-12.4458
▁consume	-12.4458
▁grave	-12.4458
▁paddlers	-12.4458
▁rates	-12.4458
▁fluid	-12.4458
▁camo	-12.4458
▁scrapping	-12.4458
▁travelling	-12.4458
▁partic	-12.4458
▁rescue	-12.4458
▁fairground	-12.4458
▁Hind	-12.4458
▁Out	-12.4458
▁misty	-12.4458
MC	-12.4458
otic	-12.4458
▁specialized	-12.4458
▁always	-12.4458
▁fitting	-12.4458
▁teaches	-12.4458
▁marshal	-12.4458
▁ornamental	-12.4458
▁scan	-12.4458
▁teeter	-12.4458
▁massage	-12.4458
▁saro	-12.4458
▁cob	-12.4458
▁El	-12.4458
▁giggl	-12.4458
▁Dame	-12.4459
▁masses	-12.4459
▁ram	-12.4459
▁blur	-12.4459
▁coke	-12.4459
ield	-12.4459
▁bulldog	-12.4459
▁Snow	-12.4459
▁miners	-12.4459
▁peep	-12.4459
▁hitch	-12.4459
▁blankly	-12.4459
▁graffited	-12.4459
▁respectively	-12.4459
▁moored	-12.4459
▁squirted	-12.4459
▁stout	-12.4459
uz	-12.4459
▁historical	-12.4459
▁shish	-12.4459
rades	-12.4459
▁cam	-12.4459
▁budget	-12.4459
▁peanut	-12.4459
▁stem	-12.4459
▁Law	-12.4459
▁grownup	-12.4459
▁rim	-12.4459
▁bales	-12.4459
▁hoping	-12.4459
▁Tim	-12.4459
▁spare	-12.4459
utch	-12.4459
▁signif	-12.4459
▁knitted	-12.4459
▁Side	-12.446
▁Bug	-12.446
▁hunter	-12.446
▁trooper	-12.446
▁Row	-12.446
▁farmland	-12.446
▁copies	-12.446
▁comforter	-12.446
▁Crouching	-12.446
▁Evening	-12.446
▁Waiting	-12.446
▁attaching	-12.446
▁height	-12.446
▁recycling	-12.446
▁saluting	-12.446
▁scrubbing	-12.446
▁snarling	-12.446
▁qui	-12.446
▁stre	-12.446
▁freestyle	-12.446
▁consulting	-12.446
▁sending	-12.446
▁grinder	-12.446
▁informally	-12.446
▁sparsely	-12.446
▁bout	-12.446
▁styling	-12.446
▁LA	-12.446
▁Fair	-12.446
▁barbed	-12.446
▁meter	-12.446
▁Cost	-12.4461
llowing	-12.4461
enya	-12.4461
ER	-12.4461
▁median	-12.4461
▁vocal	-12.4461
▁cutter	-12.4461
▁treatment	-12.4461
▁paperback	-12.4461
chu	-12.4461
nic	-12.4461
▁riverbed	-12.4461
▁revers	-12.4461
▁Heal	-12.4461
ities	-12.4461
▁DI	-12.4461
▁busily	-12.4461
▁curiously	-12.4462
arcass	-12.4462
blaz	-12.4462
AGA	-12.4462
▁seal	-12.4462
▁soaked	-12.4462
▁Wal	-12.4462
▁later	-12.4462
▁mattresses	-12.4462
▁kayaker	-12.4462
▁cartons	-12.4462
▁disco	-12.4462
▁Racing	-12.4462
▁repairman	-12.4462
ock	-12.4462
▁attacked	-12.4462
▁clustered	-12.4462
▁harvested	-12.4462
▁offered	-12.4462
▁crushed	-12.4462
▁cracked	-12.4462
▁tumble	-12.4462
▁peddler	-12.4462
▁shined	-12.4463
▁croc	-12.4463
▁flipped	-12.4463
▁competitively	-12.4463
▁mainly	-12.4463
▁softly	-12.4463
atory	-12.4463
hepard	-12.4463
aint	-12.4463
▁halfway	-12.4463
▁Ore	-12.4463
tude	-12.4463
▁prof	-12.4464
▁fatigues	-12.4464
▁cue	-12.4464
▁fasten	-12.4464
▁hitter	-12.4464
▁Sled	-12.4464
▁handler	-12.4464
▁elaborately	-12.4464
▁lan	-12.4464
▁turf	-12.4464
Phone	-12.4464
▁classical	-12.4464
▁discusses	-12.4464
▁gna	-12.4464
▁puzzled	-12.4464
▁saddled	-12.4464
▁soaking	-12.4464
▁tress	-12.4465
▁Top	-12.4465
▁logger	-12.4465
mpact	-12.4465
▁mowed	-12.4465
▁attacking	-12.4465
▁blooming	-12.4465
▁milling	-12.4465
▁reacting	-12.4465
▁smelling	-12.4465
▁frowning	-12.4465
▁discovering	-12.4465
▁fetches	-12.4466
▁quietly	-12.4466
eners	-12.4466
▁wetland	-12.4466
▁punches	-12.4466
▁approached	-12.4466
▁quilted	-12.4466
▁warmers	-12.4466
▁maple	-12.4466
▁bucked	-12.4466
▁flashy	-12.4467
▁tackler	-12.4467
▁lapse	-12.4467
▁received	-12.4467
Glass	-12.4467
▁evenly	-12.4467
▁sideline	-12.4467
▁filed	-12.4467
▁Nor	-12.4467
▁batting	-12.4467
▁capri	-12.4467
▁bring	-12.4468
▁projection	-12.4468
▁lighthouse	-12.4468
▁lungi	-12.4468
▁Mu	-12.4468
▁innocen	-12.4468
▁sno	-12.4468
▁hitching	-12.4468
▁viking	-12.4468
▁curbside	-12.4468
tions	-12.4468
▁passage	-12.4468
▁Gen	-12.4468
nts	-12.4468
Work	-12.4468
▁Na	-12.4468
ggle	-12.4469
▁stopping	-12.4469
▁cor	-12.4469
▁linens	-12.4469
▁rusted	-12.447
▁Del	-12.447
▁attended	-12.447
esus	-12.447
▁fencers	-12.447
▁delivering	-12.4471
▁spending	-12.4471
▁lettering	-12.4471
▁examined	-12.4471
▁separated	-12.4471
▁headdresses	-12.4471
▁glowing	-12.4471
▁labor	-12.4471
▁loader	-12.4472
icing	-12.4472
▁busking	-12.4472
eager	-12.4472
▁newscaster	-12.4472
▁leak	-12.4473
▁streamers	-12.4473
▁cupping	-12.4473
▁shadowy	-12.4473
▁armored	-12.4473
▁filmed	-12.4474
credible	-12.4474
imi	-12.4474
Cyclone	-12.4474
▁Bear	-12.4475
▁finishes	-12.4475
▁bad	-12.4475
▁calmly	-12.4475
ACE	-12.4475
tables	-12.4475
▁medic	-12.4476
▁oddly	-12.4476
ucks	-12.4477
▁law	-12.4477
▁wondering	-12.4477
▁licked	-12.4477
▁Fin	-12.4477
▁Skater	-12.4477
▁cultural	-12.4477
▁effort	-12.4477
▁housing	-12.4477
▁moose	-12.4477
▁platter	-12.4477
▁journal	-12.4477
▁crank	-12.4477
▁nuts	-12.4477
▁steering	-12.4477
Watch	-12.4477
▁approximately	-12.4477
▁hazard	-12.4477
▁clips	-12.4477
▁Diners	-12.4477
▁Employees	-12.4477
▁Horses	-12.4477
▁Rocks	-12.4477
▁Scouts	-12.4477
▁Stones	-12.4477
▁blasts	-12.4477
▁colleagues	-12.4477
▁condoms	-12.4477
▁documents	-12.4477
▁explains	-12.4477
▁fiddles	-12.4477
▁figurines	-12.4477
▁grips	-12.4477
▁handkerchiefs	-12.4477
▁instructions	-12.4477
▁opinions	-12.4477
▁peruses	-12.4477
▁roots	-12.4477
▁sends	-12.4477
▁snowflakes	-12.4477
▁swoops	-12.4477
▁toenails	-12.4477
▁trinkets	-12.4477
▁ascends	-12.4477
▁grasps	-12.4477
▁selects	-12.4477
▁squirts	-12.4477
ockeys	-12.4477
▁consults	-12.4477
▁olympics	-12.4477
▁Chefs	-12.4477
▁Outdoors	-12.4477
▁yells	-12.4477
▁hipsters	-12.4477
▁Commuters	-12.4477
▁gir	-12.4477
▁powdered	-12.4477
▁registered	-12.4477
zing	-12.4477
▁consoles	-12.4478
▁pebbles	-12.4478
▁overcast	-12.4478
▁Cor	-12.4478
▁bloody	-12.4478
▁soapy	-12.4478
ascar	-12.4478
▁raw	-12.4478
▁vision	-12.4478
▁mart	-12.4478
▁lifeguards	-12.4478
▁sandwiches	-12.4478
▁devil	-12.4479
▁folders	-12.4479
▁recorder	-12.448
▁inclined	-12.448
acky	-12.448
▁safely	-12.448
▁May	-12.448
▁anxiously	-12.4481
▁hooked	-12.4481
▁owned	-12.4481
tis	-12.4481
▁contested	-12.4481
▁san	-12.4481
ild	-12.4481
▁taping	-12.4482
▁Bar	-12.4482
▁copy	-12.4482
▁patchy	-12.4482
▁shacking	-12.4482
▁snorkeling	-12.4482
▁wanting	-12.4482
▁helm	-12.4484
▁paddled	-12.4484
▁union	-12.4485
▁supported	-12.4485
▁visitor	-12.4485
▁somebody	-12.4486
▁vat	-12.4487
Carol	-12.4487
▁fare	-12.4488
▁lowering	-12.4488
▁mine	-12.4488
▁dumping	-12.4488
▁wakeboarding	-12.4488
▁raging	-12.4488
oyed	-12.4489
▁carol	-12.4489
▁Patro	-12.449
▁mod	-12.449
shield	-12.449
▁styled	-12.4491
▁Newly	-12.4491
▁treeless	-12.4491
▁lego	-12.4492
▁bagel	-12.4493
▁hairdo	-12.4493
▁seasoning	-12.4494
▁paneled	-12.4494
▁pastry	-12.4494
▁workmen	-12.4494
populated	-12.4494
▁leaped	-12.4496
▁vaulting	-12.4497
▁battery	-12.4497
▁formally	-12.4498
▁shell	-12.45
mpled	-12.45
▁taped	-12.4501
▁horsemen	-12.4503
▁prep	-12.4504
▁cheered	-12.4504
▁designing	-12.4505
rests	-12.4505
▁hors	-12.4505
▁imme	-12.4507
▁dollar	-12.4507
▁ox	-12.4508
▁rushing	-12.4508
▁motorist	-12.4509
▁caged	-12.4509
idly	-12.4509
▁loses	-12.451
▁flick	-12.451
▁pa	-12.451
▁pat	-12.4511
▁feels	-12.4511
ily	-12.4511
▁Welcome	-12.4511
▁penguins	-12.4512
▁Guitar	-12.4512
▁Gardens	-12.4512
▁circuits	-12.4512
▁contestants	-12.4512
▁frolics	-12.4512
▁locomotives	-12.4512
▁pineapples	-12.4512
▁zooms	-12.4512
▁melons	-12.4512
▁releases	-12.4512
▁drifts	-12.4512
▁chisels	-12.4512
▁learns	-12.4512
▁cells	-12.4512
▁frowns	-12.4512
▁grains	-12.4512
▁steals	-12.4512
▁flaps	-12.4512
▁twins	-12.4512
▁medals	-12.4512
▁Swimmers	-12.4512
▁sews	-12.4512
spani	-12.4512
▁props	-12.4512
Sub	-12.4512
▁Farmers	-12.4513
▁My	-12.4513
▁cent	-12.4513
▁issue	-12.4513
▁brimmed	-12.4513
▁reporters	-12.4513
▁comforts	-12.4513
▁hides	-12.4513
▁bask	-12.4514
purs	-12.4514
▁lockers	-12.4514
▁Los	-12.4514
▁relaxed	-12.4515
▁rocket	-12.4515
▁presented	-12.4515
▁drawers	-12.4516
tics	-12.452
▁intertwin	-12.452
Read	-12.4521
▁braids	-12.4522
▁decorate	-12.4522
▁Si	-12.4523
▁topped	-12.4524
▁matches	-12.4524
▁tears	-12.4526
▁hunt	-12.4526
▁Nes	-12.4527
▁greenhouse	-12.4528
▁setup	-12.4531
▁unlock	-12.4531
▁started	-12.4533
mple	-12.4533
▁coached	-12.4533
▁trudg	-12.4534
▁organize	-12.4534
▁reference	-12.4537
▁investigate	-12.4537
▁continue	-12.4537
▁sous	-12.4538
houses	-12.4542
icles	-12.4546
▁exchang	-12.4547
▁treads	-12.4547
▁lets	-12.4547
▁cutouts	-12.4547
▁blinds	-12.4547
▁fingernails	-12.4547
▁garments	-12.4547
▁hedges	-12.4547
▁jackhammers	-12.4547
▁joggers	-12.4547
▁selections	-12.4547
▁secures	-12.4548
▁volunteers	-12.4548
▁bucks	-12.4548
▁outboard	-12.4548
▁ranch	-12.4549
▁downward	-12.4552
▁passer	-12.4553
▁forge	-12.4555
▁feel	-12.4556
con	-12.4556
▁couches	-12.4557
▁underside	-12.4557
ques	-12.4558
ators	-12.4558
▁herbs	-12.456
▁deal	-12.4561
▁farming	-12.4562
▁cracker	-12.4562
▁based	-12.4563
▁surfboarder	-12.4563
aving	-12.4568
▁decked	-12.4568
▁golfers	-12.457
lack	-12.4571
HL	-12.4572
▁modeling	-12.4574
▁skit	-12.4575
▁cuddl	-12.4578
lov	-12.4579
▁jo	-12.4582
▁aims	-12.4583
▁sweets	-12.4584
▁brochures	-12.4584
▁decides	-12.4584
▁questions	-12.4584
▁wrists	-12.4584
▁pancakes	-12.4584
▁crabs	-12.4584
▁interviews	-12.4584
▁instructors	-12.4584
rish	-12.4588
▁builds	-12.4589
▁downwards	-12.4589
chipping	-12.459
▁pies	-12.459
▁sm	-12.4591
▁climbed	-12.4594
hal	-12.4594
▁chested	-12.4596
▁slips	-12.4596
▁bottled	-12.4598
▁boaters	-12.4599
dye	-12.4604
▁leashed	-12.4605
cul	-12.4607
Paris	-12.4608
dappled	-12.4608
▁advanc	-12.461
▁throughout	-12.4613
▁weightlift	-12.4615
▁frie	-12.4618
▁rimmed	-12.462
▁oars	-12.462
▁Foods	-12.462
▁embraces	-12.462
▁messages	-12.462
▁sisters	-12.462
▁terminals	-12.462
▁wants	-12.462
▁streaming	-12.462
▁pigs	-12.4621
▁Their	-12.4624
▁enjoyed	-12.4624
▁dangl	-12.4629
boards	-12.463
▁sil	-12.4631
vie	-12.4634
▁shine	-12.4638
▁Y	-12.4642
▁screened	-12.4642
▁fron	-12.4643
▁qu	-12.4647
▁brownish	-12.4647
▁topping	-12.4649
▁count	-12.465
▁ended	-12.4651
mi	-12.4653
▁briefcases	-12.4657
▁samples	-12.4657
▁skulls	-12.4657
▁turkeys	-12.4657
▁handbags	-12.4657
▁wakeboards	-12.4657
▁strips	-12.4657
▁racks	-12.4657
▁tests	-12.4657
▁bibs	-12.4657
▁bowties	-12.4658
▁glassy	-12.4658
oth	-12.4658
▁States	-12.4658
OR	-12.4663
▁humm	-12.4665
▁bowled	-12.4666
mas	-12.4668
dan	-12.4669
lippers	-12.4671
▁wander	-12.4675
billy	-12.4675
▁rags	-12.4678
allions	-12.4679
▁lose	-12.4679
▁bits	-12.4685
▁bas	-12.4686
stop	-12.4686
HO	-12.4686
▁costumed	-12.4686
▁canoeing	-12.469
▁shawls	-12.4694
▁separates	-12.4694
▁weights	-12.4695
nders	-12.4697
▁bicycler	-12.4708
▁grilled	-12.4708
pour	-12.4722
▁manner	-12.4727
dul	-12.4729
▁humans	-12.4731
▁pedals	-12.4731
▁diners	-12.4731
▁bundles	-12.4731
▁supports	-12.4731
▁curl	-12.4734
▁washers	-12.4734
▁mantle	-12.4738
Bell	-12.4753
berries	-12.4753
▁blackboard	-12.4755
mb	-12.4758
ubble	-12.4758
▁beater	-12.4759
▁guides	-12.4768
▁rifles	-12.4768
▁reflections	-12.4768
controlled	-12.4771
spectors	-12.4775
ists	-12.4787
▁emptying	-12.4789
ICE	-12.4803
▁movement	-12.4803
ck	-12.4804
▁stoops	-12.4805
▁motions	-12.4805
▁brothers	-12.4805
▁experiments	-12.4805
▁scaffolds	-12.4806
▁camps	-12.4806
▁spher	-12.4808
▁iced	-12.4813
erature	-12.4819
▁Ship	-12.4836
ohns	-12.4843
▁scores	-12.4843
▁sodas	-12.4843
▁winds	-12.4844
▁showers	-12.4846
hur	-12.485
▁cos	-12.486
▁tote	-12.4861
▁supervis	-12.4864
ham	-12.4865
obes	-12.487
uss	-12.487
rippled	-12.4871
▁bru	-12.4877
▁tugs	-12.4881
▁exercises	-12.4881
▁targets	-12.4881
▁snowsuits	-12.4881
▁irons	-12.4881
▁completes	-12.4881
▁packs	-12.4895
ouch	-12.49
ars	-12.4902
Pain	-12.4902
▁Chevro	-12.4905
olic	-12.4911
▁thoughtful	-12.4915
▁jets	-12.4918
▁flutes	-12.4919
▁officials	-12.4919
▁converses	-12.4919
▁Redhead	-12.4928
▁swe	-12.4931
▁atv	-12.494
▁prom	-12.4941
▁angels	-12.4957
show	-12.496
Oh	-12.4966
Live	-12.497
▁Play	-12.4987
▁spoons	-12.4995
▁wrestles	-12.4995
stern	-12.5
▁comical	-12.5001
illi	-12.5004
med	-12.5006
eeps	-12.5011
▁bur	-12.5013
▁spinn	-12.5018
itz	-12.5022
▁names	-12.5034
▁Her	-12.5041
▁buys	-12.5073
ader	-12.508
▁bins	-12.5081
▁bares	-12.5098
▁containers	-12.5111
▁traveler	-12.5117
▁treed	-12.5118
ox	-12.5119
▁stylis	-12.5123
ons	-12.5135
▁res	-12.5136
▁faced	-12.5144
maintained	-12.5147
▁worked	-12.5149
▁routines	-12.5151
▁toll	-12.5157
▁floored	-12.5158
▁actions	-12.5189
▁drummers	-12.519
▁natives	-12.519
▁offer	-12.5227
▁wagons	-12.5229
▁teachers	-12.523
rapped	-12.5259
▁Lab	-12.5285
▁planes	-12.5307
builder	-12.5308
▁escalators	-12.5309
▁wit	-12.5314
HS	-12.5314
▁hairy	-12.5315
rching	-12.5336
▁bandannas	-12.5349
▁suited	-12.5366
ook	-12.5384
▁bro	-12.5397
▁Iz	-12.5411
sary	-12.542
▁tongues	-12.5431
▁mounds	-12.5431
▁Is	-12.5438
▁popula	-12.5444
▁Cast	-12.5466
▁sales	-12.5471
▁podiums	-12.5471
dio	-12.5482
rod	-12.5484
ngles	-12.5493
EP	-12.5498
Stop	-12.5511
diction	-12.5511
bins	-12.5533
▁Dep	-12.5533
omp	-12.5575
DA	-12.5622
▁soak	-12.5667
rit	-12.5684
▁prob	-12.5713
quet	-12.5714
ext	-12.5719
loved	-12.5729
Ri	-12.5744
▁dir	-12.5755
acious	-12.5758
▁shooter	-12.576
▁spi	-12.5851
ear	-12.5851
alled	-12.5913
ume	-12.5952
Spring	-12.604
▁Mark	-12.604
ays	-12.6067
▁acc	-12.6097
▁retr	-12.6103
hoes	-12.6145
bre	-12.6148
▁gl	-12.6264
ept	-12.6362
▁physical	-12.6374
▁search	-12.6376
▁dev	-12.6409
▁Gi	-12.6481
ender	-12.6516
aders	-12.6529
amic	-12.6601
▁wipe	-12.6716
▁chi	-12.6731
Fr	-12.6763
▁dies	-12.6777
ribe	-12.6825
nse	-12.6867
ult	-12.6896
els	-12.6896
▁Per	-12.6908
▁Col	-12.6933
ade	-12.6957
▁Roo	-12.6987
▁stan	-12.7044
str	-12.7052
▁u	-12.7111
▁univers	-12.7145
ad	-12.7225
rry	-12.7254
▁reenact	-12.7366
▁slee	-12.7411
rescent	-12.7428
▁flo	-12.7441
ripe	-12.7517
ven	-12.76
orch	-12.7602
oc	-12.7622
▁capital	-12.7632
lle	-12.7751
▁arc	-12.7827
erris	-12.7865
ph	-12.792
inder	-12.7939
▁commute	-12.8027
▁Lea	-12.8037
▁adventur	-12.8098
Pr	-12.814
EN	-12.816
▁shi	-12.817
▁potter	-12.8303
ead	-12.8308
▁loves	-12.8311
▁pri	-12.8469
▁perch	-12.8474
ND	-12.8485
eta	-12.8514
▁na	-12.854
ien	-12.8546
▁gra	-12.8555
un	-12.8564
▁bu	-12.86
rmed	-12.865
tro	-12.8693
▁supervisi	-12.87
edge	-12.8725
atigued	-12.8757
▁shin	-12.8842
▁En	-12.8861
▁Lin	-12.8875
▁cler	-12.8928
be	-12.8942
nder	-12.9011
lt	-12.9018
▁Me	-12.9027
iel	-12.907
hit	-12.9132
eve	-12.9137
scu	-12.9233
row	-12.9343
eenactment	-12.9369
▁connect	-12.9375
rnished	-12.9392
ril	-12.9394
cle	-12.942
▁provid	-12.9446
old	-12.9454
▁confus	-12.9554
▁Pret	-12.9625
laus	-12.9653
▁fli	-12.9702
What	-12.9745
emporary	-12.9763
gym	-12.9797
ket	-12.9809
▁compa	-12.983
eyed	-12.9927
lipping	-12.9998
▁scri	-13.0056
c	-13.0132
tends	-13.0136
hook	-13.0201
handled	-13.0272
▁writ	-13.0285
▁Rac	-13.0309
▁collect	-13.0341
ible	-13.0356
rches	-13.0358
▁ferr	-13.039
ended	-13.0471
▁Count	-13.0568
▁Sho	-13.0626
mble	-13.0778
umble	-13.0913
eeding	-13.0914
ility	-13.0954
tre	-13.1019
hysically	-13.1099
mod	-13.1109
eek	-13.1125
▁nation	-13.1135
ile	-13.1192
pi	-13.1193
pping	-13.1205
▁Spri	-13.1242
fitted	-13.1315
vention	-13.1347
▁Che	-13.1363
gn	-13.1392
ough	-13.1481
▁swi	-13.1556
▁spar	-13.1593
lli	-13.1625
ncil	-13.1699
qu	-13.1746
potters	-13.1824
pens	-13.1912
urly	-13.1926
LO	-13.1969
la	-13.1985
rie	-13.204
▁Sh	-13.2065
▁Ho	-13.2092
▁Coun	-13.2102
rec	-13.2144
tionary	-13.2167
▁Gri	-13.2226
ip	-13.2232
dic	-13.2238
za	-13.2374
cura	-13.2388
zer	-13.2416
nches	-13.2445
eyeing	-13.245
▁wh	-13.2536
unning	-13.2547
▁Wa	-13.2557
cious	-13.2586
rder	-13.2594
bor	-13.2601
▁drap	-13.2634
matched	-13.2683
▁organi	-13.269
wling	-13.2696
idday	-13.2751
acket	-13.2834
▁app	-13.2849
cur	-13.2889
▁styl	-13.2907
terior	-13.2916
iped	-13.292
robe	-13.2936
mate	-13.2988
IS	-13.3128
own	-13.3142
▁rippl	-13.323
▁Hil	-13.3244
vision	-13.3269
uck	-13.3279
▁ch	-13.3286
q	-13.329
atyl	-13.3315
▁rav	-13.3368
ight	-13.3374
▁soli	-13.3384
zo	-13.3388
▁Chev	-13.339
anie	-13.3392
ease	-13.3402
sections	-13.3435
ct	-13.3493
dolescent	-13.3497
town	-13.3502
ungry	-13.3516
erial	-13.3542
vailable	-13.3544
ctively	-13.3547
▁packag	-13.3574
xe	-13.3577
▁fre	-13.3586
ccompanied	-13.3586
oney	-13.3591
fant	-13.361
sphere	-13.361
ction	-13.361
crobatic	-13.3613
rtwork	-13.3619
EF	-13.3623
IC	-13.3626
road	-13.3637
lley	-13.3653
icking	-13.3653
rena	-13.3655
▁Lu	-13.3656
gainst	-13.3656
▁Shel	-13.3658
▁Rail	-13.3689
▁inspector	-13.3704
▁tra	-13.3704
bble	-13.3724
rries	-13.3748
▁Or	-13.3761
urled	-13.3763
tain	-13.3776
ong	-13.3795
▁pud	-13.3799
▁Shi	-13.38
tailed	-13.3806
lashes	-13.3806
▁landscap	-13.3808
atch	-13.3813
▁def	-13.3834
eezer	-13.3851
lo	-13.3861
▁assembl	-13.3866
andering	-13.3919
irty	-13.392
▁physic	-13.3929
▁slop	-13.3968
crunch	-13.3968
igger	-13.399
uge	-13.4008
▁cou	-13.4012
gre	-13.4041
umpy	-13.4048
▁scrape	-13.407
coated	-13.4076
ddles	-13.408
▁dapple	-13.408
▁bill	-13.4094
counters	-13.4105
onald	-13.4116
▁admi	-13.4122
tative	-13.4127
ressed	-13.4127
▁coun	-13.4129
dian	-13.4129
void	-13.4146
▁squa	-13.4153
▁heavi	-13.4168
rate	-13.417
AH	-13.4171
▁spo	-13.4175
▁fr	-13.4181
tti	-13.4182
uch	-13.4188
lifted	-13.4195
change	-13.4196
rails	-13.4201
low	-13.4205
rive	-13.4229
▁organiz	-13.4244
gulls	-13.4244
▁Cl	-13.4247
Conn	-13.4252
▁investigat	-13.4255
▁continu	-13.4255
▁referenc	-13.4255
▁dread	-13.4259
udge	-13.4263
▁squ	-13.4265
▁Sea	-13.4281
moo	-13.4286
lifting	-13.4289
eaking	-13.4294
twined	-13.4296
orm	-13.4297
here	-13.4303
▁Yo	-13.4303
par	-13.4303
oaches	-13.431
lanked	-13.431
ories	-13.4315
rge	-13.432
▁combin	-13.4325
▁sli	-13.433
railing	-13.433
hard	-13.4339
rban	-13.4339
aughter	-13.4343
▁weld	-13.4344
gently	-13.4345
ig	-13.4345
bbing	-13.4351
tire	-13.4353
▁domin	-13.4358
bal	-13.4364
▁graduat	-13.4368
▁anticipati	-13.4369
friend	-13.4374
media	-13.4377
ather	-13.438
ateway	-13.4381
▁mu	-13.4382
rags	-13.4384
anne	-13.4386
run	-13.4391
▁wake	-13.4393
coat	-13.4394
xiously	-13.4396
▁consult	-13.4397
▁select	-13.4398
raw	-13.4398
itti	-13.4399
▁ascend	-13.4399
▁grasp	-13.4399
▁yell	-13.4399
nuts	-13.4399
▁antiqu	-13.4399
▁squirt	-13.44
▁send	-13.4403
▁graf	-13.4404
ockey	-13.4405
each	-13.4405
▁Cel	-13.4405
faced	-13.4405
cloth	-13.4405
skier	-13.4405
shell	-13.4405
▁Commuter	-13.4405
▁Employee	-13.4405
▁Outdoor	-13.4405
▁Scout	-13.4405
▁blast	-13.4405
▁colleague	-13.4405
▁condom	-13.4405
▁document	-13.4405
▁handkerchief	-13.4405
▁lifeguard	-13.4405
▁olympic	-13.4405
▁opinion	-13.4405
▁peruse	-13.4405
▁snowflake	-13.4405
▁trinket	-13.4405
▁explain	-13.4405
▁swoop	-13.4405
▁grip	-13.4406
▁toenail	-13.4406
mart	-13.4406
suited	-13.4406
lu	-13.4406
▁Look	-13.4406
clips	-13.4406
▁figurine	-13.4406
vaulting	-13.4406
crank	-13.4406
approximately	-13.4406
cultural	-13.4406
effort	-13.4406
enthusiastic	-13.4406
hazard	-13.4406
housing	-13.4406
journal	-13.4406
paneled	-13.4406
Skater	-13.4406
penguin	-13.4406
ctor	-13.4406
▁Horse	-13.4406
platter	-13.4406
▁fiddle	-13.4406
wear	-13.4406
▁Chef	-13.4406
law	-13.4406
licked	-13.4406
moose	-13.4406
skirts	-13.4406
medic	-13.4406
▁instruction	-13.4407
rushing	-13.4407
stroke	-13.4407
Mac	-13.4408
▁hipster	-13.4408
topped	-13.4408
safe	-13.4408
▁Rock	-13.4408
union	-13.4408
safely	-13.4409
▁crawl	-13.4409
blade	-13.4409
▁root	-13.4409
climb	-13.4409
▁explore	-13.441
▁Diner	-13.441
ric	-13.441
▁extend	-13.441
paint	-13.441
▁console	-13.441
cords	-13.441
▁brief	-13.441
▁Hiker	-13.441
▁Individual	-13.441
▁handlebar	-13.441
▁utensil	-13.441
eeling	-13.441
▁pebble	-13.441
▁dart	-13.441
blown	-13.441
driven	-13.441
hand	-13.441
noodles	-13.4411
hawk	-13.4411
Bull	-13.4411
South	-13.4411
Washington	-13.4411
interested	-13.4411
powered	-13.4411
pressing	-13.4411
Grand	-13.4411
piercing	-13.4411
made	-13.4411
fashion	-13.4411
organ	-13.4411
awning	-13.4412
▁feature	-13.4412
rawl	-13.4412
wee	-13.4412
besides	-13.4412
▁Sport	-13.4412
▁surgeon	-13.4412
▁Photographer	-13.4412
vat	-13.4412
appearing	-13.4413
Happy	-13.4413
Obama	-13.4413
comfortable	-13.4413
occupied	-13.4413
perhaps	-13.4413
sponsored	-13.4413
cal	-13.4413
cooked	-13.4413
grown	-13.4413
maneuver	-13.4413
opened	-13.4413
▁incredibl	-13.4413
quaint	-13.4413
▁poke	-13.4413
▁Cyclist	-13.4413
cock	-13.4413
▁rollerskate	-13.4413
▁prize	-13.4413
dresses	-13.4413
Bar	-13.4413
ools	-13.4413
▁competitor	-13.4413
▁include	-13.4413
▁Stone	-13.4413
▁steak	-13.4413
dash	-13.4413
girl	-13.4413
▁emerge	-13.4414
▁opp	-13.4414
glo	-13.4414
▁twig	-13.4414
corn	-13.4414
America	-13.4414
Seattle	-13.4414
checkout	-13.4414
length	-13.4414
shingles	-13.4414
offering	-13.4414
bones	-13.4414
parent	-13.4414
▁rollerskater	-13.4414
▁rub	-13.4414
calling	-13.4414
convention	-13.4414
store	-13.4414
jack	-13.4414
▁Sooner	-13.4414
zoo	-13.4414
picker	-13.4414
oise	-13.4414
postal	-13.4415
Green	-13.4415
blower	-13.4415
framed	-13.4415
written	-13.4415
bush	-13.4415
rugs	-13.4415
fork	-13.4415
gets	-13.4415
▁Texa	-13.4415
skaters	-13.4415
Cafe	-13.4415
league	-13.4415
transit	-13.4415
Elmo	-13.4415
Texas	-13.4415
chewing	-13.4415
▁Musician	-13.4415
bathing	-13.4416
broad	-13.4416
tags	-13.4416
glass	-13.4416
fish	-13.4416
campers	-13.4416
monitor	-13.4416
printed	-13.4416
▁sneaker	-13.4416
patterned	-13.4416
tray	-13.4416
▁binocular	-13.4416
service	-13.4416
pain	-13.4416
bend	-13.4416
pick	-13.4416
strapped	-13.4416
ounds	-13.4416
page	-13.4416
Police	-13.4416
world	-13.4416
places	-13.4416
science	-13.4416
strange	-13.4416
factory	-13.4416
telephone	-13.4416
paddles	-13.4417
shining	-13.4417
ethnic	-13.4417
excited	-13.4417
spread	-13.4417
endor	-13.4417
cards	-13.4417
finish	-13.4417
spraying	-13.4417
cheek	-13.4417
raises	-13.4417
▁decoration	-13.4417
▁crop	-13.4417
float	-13.4417
visible	-13.4417
covering	-13.4417
checkered	-13.4417
decorated	-13.4417
post	-13.4417
plant	-13.4417
american	-13.4417
peace	-13.4417
cake	-13.4417
stool	-13.4417
zone	-13.4417
cloudy	-13.4417
▁spectator	-13.4417
chef	-13.4417
cafe	-13.4417
axe	-13.4417
play	-13.4418
just	-13.4418
course	-13.4418
feeding	-13.4418
kick	-13.4418
nature	-13.4418
bull	-13.4418
bearded	-13.4418
scene	-13.4418
flying	-13.4418
pose	-13.4418
member	-13.4418
steps	-13.4418
bowl	-13.4418
grassy	-13.4418
rocks	-13.4418
women	-13.4418
two	-13.4418
another	-13.4418
something	-13.4418
▁bleacher	-13.4418
draw	-13.4418
half	-13.4418
smoking	-13.4418
having	-13.4418
blowing	-13.4418
cage	-13.4418
still	-13.4418
building	-13.4418
hockey	-13.4418
orange	-13.4418
clear	-13.4418
mouth	-13.4418
serves	-13.4418
jacket	-13.4418
paper	-13.4418
▁Runner	-13.4418
▁ruin	-13.4419
sky	-13.4419
who	-13.4419
child	-13.4419
pit	-13.4419
watch	-13.4419
boat	-13.4419
brick	-13.4419
▁boot	-13.4419
person	-13.4419
level	-13.442
mud	-13.442
money	-13.442
▁stir	-13.442
gold	-13.442
alized	-13.442
rafting	-13.442
full	-13.442
▁discus	-13.442
▁Teenager	-13.4421
leading	-13.4421
if	-13.4421
river	-13.4421
mask	-13.4421
casters	-13.4421
served	-13.4421
night	-13.4421
bow	-13.4421
about	-13.4421
polis	-13.4421
actors	-13.4422
corner	-13.4422
pack	-13.4422
ready	-13.4422
keep	-13.4422
▁mitten	-13.4422
bald	-13.4422
wipes	-13.4422
jects	-13.4422
pro	-13.4422
duck	-13.4423
both	-13.4423
nude	-13.4423
what	-13.4424
dough	-13.4424
▁goggle	-13.4424
turn	-13.4424
Man	-13.4424
stage	-13.4424
▁Biker	-13.4424
unch	-13.4425
pie	-13.4425
pilot	-13.4425
lamp	-13.4425
▁Cycl	-13.4425
posing	-13.4425
torch	-13.4426
gate	-13.4426
▁belonging	-13.4426
AT	-13.4427
far	-13.4427
chair	-13.4428
isitors	-13.4428
▁Ru	-13.4428
dune	-13.4428
DS	-13.4429
fishing	-13.4429
▁Gra	-13.4429
ikings	-13.4429
aves	-13.4429
▁lectur	-13.443
workers	-13.4431
filling	-13.4431
▁mar	-13.4431
can	-13.4432
laught	-13.4432
▁Gla	-13.4432
▁Lot	-13.4433
▁pedd	-13.4433
even	-13.4433
▁celebr	-13.4435
stead	-13.4435
lake	-13.4435
▁circl	-13.4436
▁folder	-13.4436
▁adolescen	-13.4437
▁Marl	-13.4438
▁Artis	-13.4438
wheeled	-13.4438
ancing	-13.4438
▁Pat	-13.4438
skiing	-13.4438
goers	-13.4439
serv	-13.4439
▁Pho	-13.4439
Le	-13.444
tie	-13.444
etting	-13.444
▁remov	-13.444
▁observ	-13.4441
rum	-13.4441
mine	-13.4441
▁operat	-13.4441
rrible	-13.4442
ducts	-13.4442
▁Cyclo	-13.4442
▁attach	-13.4443
eria	-13.4443
rowing	-13.4443
▁Rid	-13.4444
ption	-13.4444
ntertainers	-13.4444
lub	-13.4445
▁deco	-13.4445
▁construct	-13.4445
▁voca	-13.4445
▁smok	-13.4447
wai	-13.4447
▁exc	-13.4447
ayak	-13.4447
▁interest	-13.4447
falling	-13.4447
▁brigh	-13.4448
▁elevat	-13.4448
Be	-13.4448
template	-13.4448
▁arrang	-13.4449
pstairs	-13.4449
▁Crouch	-13.4449
▁recycl	-13.4449
▁scrubb	-13.4449
▁snarl	-13.4449
▁inclin	-13.4449
▁salut	-13.4449
▁Wait	-13.4449
▁yawn	-13.4449
▁curv	-13.4449
ennis	-13.4449
▁meditat	-13.445
hooded	-13.445
▁gallop	-13.445
▁shopper	-13.445
▁Even	-13.445
axis	-13.445
ickets	-13.445
▁consist	-13.445
Ball	-13.445
▁Turk	-13.445
▁clutch	-13.445
▁patriot	-13.445
▁pizz	-13.445
▁consol	-13.445
▁pebbl	-13.445
▁wedd	-13.4451
▁reve	-13.4451
▁squeez	-13.4451
▁skydiv	-13.4451
ournament	-13.4451
▁colo	-13.4451
▁kickbox	-13.4451
arget	-13.4451
elevision	-13.4451
In	-13.4451
raffic	-13.4451
ican	-13.4451
raveling	-13.4451
▁moor	-13.4451
barrows	-13.4452
attooed	-13.4452
▁tether	-13.4452
ustaches	-13.4452
tuff	-13.4452
graphy	-13.4452
▁unidentifi	-13.4452
▁blindfold	-13.4452
▁exten	-13.4452
▁figur	-13.4452
▁synchroniz	-13.4452
▁festiv	-13.4453
▁appl	-13.4453
▁abandon	-13.4453
NE	-13.4453
▁bubbl	-13.4453
izards	-13.4453
▁Swimm	-13.4453
▁Minn	-13.4453
aroo	-13.4453
care	-13.4453
▁chun	-13.4453
▁consum	-13.4453
▁shap	-13.4453
▁spill	-13.4453
▁twent	-13.4454
▁pharmac	-13.4454
▁Chris	-13.4454
▁glitter	-13.4454
▁manicure	-13.4454
▁mosqu	-13.4454
▁saf	-13.4454
▁je	-13.4454
▁happ	-13.4454
grapher	-13.4454
▁cruis	-13.4454
▁Deer	-13.4454
▁massag	-13.4454
▁intens	-13.4454
▁expans	-13.4454
▁grav	-13.4454
▁whistl	-13.4454
▁africa	-13.4454
▁jeweler	-13.4454
eaths	-13.4454
▁Domin	-13.4454
▁carpent	-13.4454
▁peopl	-13.4454
▁husk	-13.4454
▁Chan	-13.4454
▁butterfl	-13.4454
gains	-13.4454
▁facilit	-13.4454
▁damage	-13.4454
